الاتراك
اعطيت
تردد
##رود
وتعرف
الرحيل
والاطفال
##يني
والانت
##راما
الضمان
اخراج
طبعا
يتنا
بمختلف
الاموي
الياب
لمجرد
واحمد
وقعت
بالحي
الفارس
ارادوا
والن
مصدرا
##ولات
توكد
اننا
تقويم
##حمل
الحي
##سمة
##الع
حيان
معاملات
التحدث
سمع
ندخل
الحد
نزهة
بالاتفاق
##خذة
الضرورة
الوقت
مصن
للتط
الاتجاه
##برى
زالت
علام
الشرطة
يلزمه
عتبة
زجاج
فيض
الته
الحصري
بجميع
لشراء
امامه
العقبات
##شرية
الدوري
بضم
حملها
وعبر
تصيب
وتش
دورها
##جموع
الشرف
##املة
توليد
لايم
غري
بلغة
فني
انفسكم
تفتح
والعالم
ي
للقضاء
خطيب
مشرف
استفتاء
الكلمة
وقل
الاقاليم
ملخص
تظهر
نوت
استعراض
كونها
##واهر
السجل
المند
والمز
##جلة
ساع
مراتب
بسلام
المصرى
به
دخلت
اجزاء
مندوب
الكره
##مص
##ولين
##ابت
##ضافة
كت
والفنون
دم
##يش
واظهر
حلف
##ور
##ملت
الشري
##ركاته
بالاحت
##رجت
الاحص
الاولوية
##اية
وبخ
ظل
تريده
##غاني
وزراء
##وقة
الكورة
عقدا
وكلا
واجبا
##مرو
القرى
عمق
يطالب
##طي
##اول
##سين
المهملة
تسكن
والمل
المبدع
الكرامة
وبان
تاس
صاحبه
الصد
مسد
تصد
رهط
الجزيي
حمراء
##قيقتين
ينا
##يزان
راه
وانت
امرات
جوده
اغل
خبرا
وشراء
##ويم
ضلال
ولادة
مواد
الهدي
وتيرة
يقدر
توكيل
انسب
عشر
فانا
سبت
لمش
المدعى
لنت
##ادثة
تحرص
الرفع
##لفات
فاخرج
##زيمة
التف
##زر
التاليف
كور
ارهاب
عموم
بحالة
الاجازة
احفظ
ضربت
بمنا
جبير
##غوي
مسب
##وعين
##وكم
##وحة
واللام
تعرضت
الصالحين
توق
الرسول
اعتقاد
لترك
ت
##تمي
##ندا
##خالفة
##ويل
##واتم
زكي
واتقوا
يمني
##بيض
ترتفع
نطلب
مطلقا
السادس
وزع
##غه
##نط
نهى
تنز
الروضة
##دم
يقع
يطرح
##ضي
##انم
##شين
##ضح
##بتة
فالم
للخدمة
##ادلة
البين
تناسب
تنتهي
كانت
كيمي
##زن
##رقه
##نز
الشن
وتسعين
ودار
المرسل
نيس
وحدهم
الناق
القوى
يوكد
ههنا
الفايدة
وتولى
والو
##اياه
المدرس
اللغ
طبر
القياسي
الساعة
بست
##عث
يوحي
لاتفاق
حل
اوص
الشيوع
اعطت
##قرار
موه
##مح
بالمن
الحاجات
مفردات
المحال
اثاره
الاوراق
ويعتبر
يبق
##قا
كلية
واعلن
عزاء
اعرض
واسط
الاف
المدارس
الابيض
متاب
##عوة
المجرمين
جر
شط
حمار
يريد
##زال
صريح
نو
##اسة
سام
يقتضي
وذكر
معان
##يقة
رشيد
قاي
المعارض
تعلمون
مولانا
##اتى
كيو
غرق
الرفض
##سيه
وكسر
والتابعين
ادخالها
##ذب
الغاز
##ابيض
##غرى
##ترط
فمع
القضية
حكمها
خزانة
والمشاركة
##يلم
والثاني
اله
بدا
الجولة
ينفي
ساح
هبة
##رجي
والتخ
ند
ردت
يمن
بنظر
البقعة
##شاء
العالمين
السعد
وته
تشاء
حصين
باسمه
محرمة
وقالوا
تقام
بتعيين
اعظم
بوج
بحكم
اجتمعت
وخدم
فرحة
مجه
الخدري
##تعلم
المحمول
وقرر
تخت
##خدع
قدوة
واتمنى
تودى
جوار
المناضل
اقوال
بتك
والعب
يثق
زلت
ببناء
##ستها
##راضي
بتع
للرجال
التاس
الذي
يستعمل
سماء
بروية
نهاي
الابن
التع
اجت
اشترط
ولب
ربكم
احداث
##زوج
##خط
##نم
معن
سوس
##شاة
الصبر
##ديي
نسعى
##رضا
انس
لارت
امراة
جذ
##رز
حاد
##كرار
الملكية
مجرد
اسناد
الاوامر
بلقب
تهذيب
مرس
##صروا
الثقات
للوقت
بلاي
المشرع
تحرير
##ناس
##رها
اري
##روع
استبعاد
السا
الحركة
البالغين
مواسم
برحمتك
##رجان
التسجيلات
تفرق
يكاد
ولما
##اضل
##يلي
خراسان
الايت
للسيد
##بتهم
الوز
كلها
تحريم
القتلى
##اشق
ودعا
عدة
الحياة
##فون
العوا
خيوط
تذهب
رضا
سمعه
سعيد
الحكومة
كالح
وباع
##ذوفة
ترشح
الصادق
الوسطى
والنصارى
هنالك
فصل
تناقض
كشف
الكف
وبث
##وولة
تصرفات
ميقاتي
للاشتراك
الخطة
طوله
الموثرة
تكر
افاد
##رحل
وقاص
التابعين
الخمسين
الاستعداد
اهلية
##اصب
الفاظ
فرضت
القدم
وتج
##وانه
شحن
بالسر
اللذين
##قيام
نوف
رفضها
الصحابة
الفرص
هده
##شار
##خدام
##افرين
المتعة
التحديث
اتيت
##احه
الناطق
لوم
المس
التاثير
ارسلت
والنظر
والتدبير
بنسب
لبن
الشديد
لاتحاد
##دنا
المقالة
السفينة
لتجارة
قلوبكم
ولى
مجاهد
اصابه
عني
ايديهم
##ليه
المنز
##يون
##عبة
معنى
نعت
تاليف
قضت
الاثم
يتغير
فيرجى
المقط
خالد
يهدي
طارية
ونغ
المرسوم
##يام
الشهيد
وادوات
طالبة
واحي
وض
والستون
فيلا
مدة
توك
تغلق
الجنود
غي
المحسنين
ينقص
##اريا
الحزم
تروج
خاف
ظبي
يجدوا
الظ
المصالحة
الهجرة
دير
احببت
##ندق
اثار
تسوية
للذ
والياب
اللاتي
الابتد
شاطي
##عاقد
للفت
وحدة
اخوان
والمرافق
الفا
توص
الهدنة
##سمع
فف
فت
حن
اثم
لست
##وارد
توبي
للكثير
ترغب
##ديها
##لاج
يعلمه
اماكن
مناق
المعص
مومنين
##رمة
##تام
بسط
خرج
خاصة
هاشم
مراكز
تحسب
الاجنبية
بالمست
اخو
الخواطر
لشيء
المنصوص
القايد
وتست
##واب
تبادل
##عامل
الدن
فصلى
ته
المشورة
مفيدا
ول
للت
اولها
عصري
كيت
يودى
##لت
##والهم
الكن
وباست
متحرك
يضم
##يدين
##حتي
##رفية
اجر
الورد
موال
والتغ
الواجبات
وقراءة
اسالك
والاحسان
جافا
##رجم
عاملا
اكتساب
منقول
##ندس
مبالغ
الفور
يتفق
اجرة
سراج
كده
##كور
رويتها
تجتمع
##ذهب
رحبت
عينا
صخرة
صدور
ورسم
الشي
تسويق
مقطع
نعرض
بالاث
والصيانة
##يعاد
بكلام
##واتها
الراب
ليز
مكتوم
امطار
درع
مي
الباس
عينيه
البعيد
##ركي
بكم
##شاور
##وقه
يلي
الهم
والقن
المقابل
مفروش
الاستراحة
واقعة
لجماعة
التل
فادي
اعم
وحذر
وقاد
اضطراب
##هادي
نها
اللطيف
المتداول
##كانية
حاجز
لن
صادقا
يسمي
فار
يخفى
فصار
##ازان
والبحث
خمسة
##فت
رواد
العينين
##غرام
اتفقت
ودعت
الداعية
مقولة
عرضا
الاستف
يعقل
عادية
زل
الريح
##ظن
الزنج
فبعد
بهذا
بالشركة
مقالات
مقعدا
الهدايا
المحيط
فقه
صفي
متكاملة
رحلت
##اب
مصور
##احن
متط
بالامن
باطلاق
والحرص
فيح
الجوف
معتدلة
للكاتب
الاخرة
العباس
برج
معتد
مشرو
عنهم
ومت
امثلة
ويضع
الجاهلية
اسبابه
لاس
بانا
##هيد
##ياح
بمشاركة
##رعان
ويطلق
الاثنين
لحل
التدريس
مبنية
حيوان
قيس
رفعه
##ليم
##صيرة
دوري
مكرم
بالمل
عوف
اذن
كاهل
والالت
طوايف
وند
العون
وعن
وقع
فاي
وري
ابو
التحت
ضع
كثيرون
والال
والمعاهد
النح
المورخ
المنظومة
الول
ايق
نز
لعام
مياه
واوضحت
قبل
خلت
وطالبت
فاد
البث
وتع
ناخذ
الابعاد
ايلي
شريك
السواد
عادى
##ومو
نريد
سمك
نور
فغ
حري
حروف
القادر
نسخت
المغ
المخالفة
يصلون
القض
طالق
عقبة
يعلمون
تات
الربع
العاص
مشتركا
##يتها
فدعا
الجودة
السموم
انتشارا
ون
تعلي
اباه
الخير
عدمه
الوادي
القرن
فيك
واقعا
ومول
رحمته
يجبر
وحضر
انقطاع
البير
##رار
الخامس
اوراق
حديثة
ومطبخ
##سات
##اوز
##ول
يحمل
يعقد
الفتح
وكانت
التاكيد
لاستكمال
ويحتاج
##ليقة
عاشت
##ودية
يعني
تفصيل
التقرير
يسال
مولاه
المرجو
للعمل
غيب
التردد
واخذ
فاط
والكر
للزوج
وتواب
الوصية
ارفع
##را
عملت
مفتوح
##حاني
القطان
التعم
نعيم
باطل
دماء
##نيك
للمد
لبث
بمه
رمح
##جمة
##فه
السام
بشراء
قسمين
لفضيلة
##اجين
الزيت
##بارية
صيد
واضحا
مقت
لص
يكره
لروية
زرع
وفس
حلول
مجموعه
امك
حس
قسم
المبادرة
برفع
وكثيرا
ادلة
اخوه
اقتحم
سيب
ضر
وبا
فيقال
##ربيه
نسيج
ربي
جزر
تنتهك
قالا
الاذ
كنتم
البي
وقفة
ويدل
تنافس
للمواقع
يح
يرحمه
الوراق
والاث
يعالج
دعا
الايمان
لبيع
واجعل
##لف
تسعى
مشيرة
سريعا
صاف
مثلث
اثره
لاتف
اشترك
والمنت
الطرفين
مكس
منع
جنات
وتكون
كوت
الدفاع
الشيخ
مقارنة
##ونس
القوايم
الحادة
لر
الرح
الحفر
##شيت
##يتك
حسم
سواد
##حام
اواخر
وفي
لحقوق
##تدون
ناب
##انية
##رفون
بالمدينة
فاخت
الحظ
والمحافظة
ذكرته
وشعار
اشترى
اليد
الجماعة
باستعمال
اليك
المستقيم
واعتبار
خريف
والفق
امريك
المخط
ولوازم
واقت
فتع
تخيل
##تم
مرق
رفقة
رام
الاخير
تامة
انفسهم
موا
يتوجه
قض
##ناكم
الفضل
##يما
الكثيرون
الفكرة
لايف
الرجلين
##بط
اعل
وجرى
الرهب
خلالها
تعثر
لكونه
##عرف
بره
وتمكين
قريبا
الكاين
الاوس
##رجو
نايبا
اغراض
عصب
##دينة
دينية
وشهدت
والاسلامي
يتخ
ومعنى
زين
طلي
العنب
فانظر
وتظهر
##بوس
مكل
المصرية
##ثمان
موض
اكن
لطب
الصم
مبار
ولد
لدين
سعى
الموه
ينتهك
توجه
لصيانة
صي
سجن
##يلاء
ايمن
##ثرة
كرو
افادت
##وايح
تعارض
##افعي
بالما
يجلس
النيل
دعت
##طبخ
بالام
عابد
وزين
صعوبة
ينمو
باذنه
##زم
احتمالات
المتقدمين
واير
مسير
ليش
##راف
##الته
تقليل
##ماية
ماله
اختلف
البرب
##ضمون
بب
##اهن
المرح
منذر
للدعوة
##لون
خشبة
##افت
رقاب
والقد
##كون
الانتقام
تدم
وقد
المزمن
امتداد
بخط
ولان
والموا
تعيش
الاحساس
##ماض
تتحمل
بكار
تقرير
الفار
الاك
بحد
##علق
السواحل
الجوال
اسط
اضافي
الاولياء
هشام
خالية
افريقية
الدعوى
##كان
حولها
فارج
والمج
المكس
##مين
الديار
فعلى
##ناول
السما
شوال
الطاقات
تب
##سط
##بيها
##يدر
التوبة
الشيب
والف
##هية
##زام
فصلت
سيدنا
جوي
الخيار
ونف
احالة
الي
وه
مشهد
خصيصا
اعلنت
حال
##نه
بكشف
يبني
الموجودين
الرية
والقم
##بتي
الضحايا
وضح
الميدان
النهر
رمزا
##يلو
ونحو
##رض
##يتم
وذ
عليهن
##ذبون
للحو
التالي
##صفور
حرج
##صلي
الحصص
سول
فاعت
تتقدم
##خلق
راعي
##كمال
##رضين
بصيغة
معصية
منظور
يشاهد
ارد
بيض
التاخير
##راتها
##ريح
نواف
باشا
##جهز
##لوج
يطبق
رياضة
ابنتها
المفتاح
التشي
وسال
نصا
مدخل
##سطة
بمقد
##ابعين
الولد
للمسلم
تشبه
يرتفع
##بادي
ونج
##بلي
ايكو
فيجن
البشر
الغربي
الكعبة
##جرين
الحذاء
ايجاب
##ورات
##وب
وتسمى
فز
وتنز
الاقوى
ثبات
##ديان
معهم
كرسي
والخط
سقوط
الكلي
##يفية
##افح
صعد
القدي
المنح
اندر
شبه
##قلت
قرارا
##هلة
وقاية
نفت
##امين
يهني
##ضاع
الواسعة
دفن
##يات
اشهار
##تمكن
تار
هو
حياتها
ارضاء
عك
القصاص
كل
ابيها
تركي
واياكم
##ولها
يرجع
##جا
وكلها
##ديك
##دد
عط
بوجود
##ايت
عقدها
العج
ببني
صلوا
النسي
انخفضت
بطن
##وكي
##واجن
فداء
##غيب
##ذير
اعداد
الفراء
مظ
حروب
فضاء
مث
صوته
احكام
##سنت
##ينج
ضح
ق
تاييد
##ديد
حلت
ونساء
خارجها
تتميز
والس
نزول
الرجوع
##وجه
عق
استمر
عملوا
مسلم
بجل
السليمانية
ومسا
##راها
تتنا
القبي
##امى
خلافة
البناء
الحلق
وكذا
الفهم
##بتون
##رى
فيع
ضعيف
بالته
الربيع
القيامة
دعي
يظن
الناحية
محبوب
الانق
والاف
##اعت
المقررة
مصباح
اليون
شات
اقتراب
##ياف
الاسبوع
نتايج
الطبع
المقاوم
##تيال
اعمارهم
امته
##سها
سع
الكلب
##اتنا
عمرة
العصور
يعلم
فاذا
##طه
الاستع
كوه
واليات
قالت
القسمة
معرفته
سطح
##امت
مرخصة
تذكرة
اضاءة
الطل
بتد
##زيز
##بيلة
غسالة
الموضوع
والرك
تقوية
لولاية
##ايلة
##وقيف
##اتها
طيبا
##امير
##لر
اجم
معني
عنف
عقده
ثنا
وس
سببه
للامن
هذه
الابط
المعتمد
لامن
##بيك
شايعة
ارض
واللبن
توخذ
وعضو
معلوم
فيها
لتق
استهلاك
الحنفية
محذوف
المصارف
ف
فين
القرم
الدراسة
لمشاهدة
للمادة
تصدق
ومم
الود
##قدت
والفض
السنين
وجهها
ختام
فاني
ابعد
الاقل
يج
داخل
دانا
##امح
وزعم
لواء
وجوههم
يوميذ
باج
بصي
بحيرة
ضرورة
العلمية
##افيين
ثياب
روي
ملع
نحاس
التذ
##ورة
##يزه
جري
مجن
والقب
يجعله
براف
مختار
##اريت
##راك
##ثية
عملي
##اعدين
وتنا
المستقلين
النطق
##ته
##زمين
قطب
ينسب
##ناقض
تكونوا
ويقول
الطرقات
جنيها
بشر
الشيوخ
##روض
بوصفه
##هداء
##وثق
الطعن
##ظروف
مقعد
##ستم
الحالة
يحيي
##اكهة
مشتركة
الوا
البكر
التعديل
محفو
للاث
الفق
بق
اسرع
انعدام
الحديثة
ملء
موجودا
تكفل
##ايح
بالار
الواقعة
يعارض
الفروض
بكثرة
الفضاء
طاز
وبالفعل
لنفسك
جنيهات
##سيق
جماعات
كوبا
وعندها
والهجين
للز
##مال
الجثة
والشروط
لرعاية
الوص
اغلب
بكر
وصرح
لونه
الانفصال
نقص
يخطب
تتغير
زد
##طان
سيرته
مقاتلي
انفراد
ضياع
كتبت
المتكررة
يستجيب
دقايق
##لاي
غيابه
الغن
عقد
##ورية
المسا
ووق
سرا
ملك
غن
##لكي
القصير
نظرية
يقودها
ومعالم
بروم
اسماعيل
كتبه
الملف
##ابن
تقاتل
للحياة
تسل
عقلي
يشتري
##ذات
##عم
للعم
الاسير
ولت
الوظيفة
الجلسة
##قدير
كلهم
يعذب
للعلوم
الاله
الوعي
##واس
الاعراب
اداب
شعب
علة
يقر
هج
والفواكه
المهن
##ادات
والامير
وايمان
رحيل
وطي
والكتاب
مقر
وليست
والتع
سمحت
مودي
بالسلاح
كاتب
ويب
هاتف
الجن
التمكين
##وجل
##ونية
صلبة
جيب
خميس
التوضيح
بالتص
رسول
اتذكر
الصيفي
مجهول
يومي
الفرقة
##اخذ
والمكان
عار
الرمل
هد
والقتل
محاض
مسلمة
المضادة
##قاتل
مريح
المفضل
اصفر
عالما
يكن
##هاج
الجفن
منصور
وضمن
##وطة
بقطاع
الاوقات
الحث
##صيلا
يصيب
رفضا
##ويه
الملقب
##اعدا
الخشب
المطلوبة
تتابع
كلامك
بتش
بالع
توثيق
##دمات
##ترا
وايام
مصنوعة
الكتب
جد
وقط
هوا
تحذ
بحي
تسعة
الحن
ترفع
والتم
##خاري
تتحرك
##يرين
والعقل
يضل
ادارة
##قصود
التاريخ
وجبة
السلا
##ارين
والنشاط
جنايات
الدخان
لاجراء
للجنة
البدن
##وجا
باعتباره
وكلما
الصلبة
اسمه
تخدم
مصحو
##تموه
##ابور
بالخير
مفهوم
والقلق
والخلف
ادراك
العادل
##كس
وخلال
فعل
وبحث
السليمة
الحادثة
##زا
ارك
سناب
الفيوم
والرجل
يملك
##وران
رض
ضمان
##كلم
##ق
لهذا
التحالف
الجزية
##عد
دليلا
بخير
تخطيط
طاهر
ونسب
##رقة
مره
حبه
والدم
لكتاب
وجهك
بواسطة
مناص
ظلما
تشتري
دوام
##ياش
الابار
بابي
اللازم
##ودا
##صفات
##امته
الاسناد
والتس
ولنا
##حسن
التذكير
بجوار
مقاومة
بفرض
حوار
##هوض
حجمها
والسبب
اور
وتلا
المزارع
يصبح
بجدة
مصري
حسبنا
نا
اشهد
##يله
والمرت
الغفور
بينت
والزي
##حقه
نشتري
مشغ
وباقل
الاذاعة
عثمان
الواق
اظهر
ايجار
الثابتة
الهاء
قلبها
التب
وع
بعد
لاق
والفت
##اده
والمنطقة
##رتب
العكس
افق
تجعل
##ثار
المستحيل
الحديد
##زقة
صوم
تلاوة
العدة
##باط
##بحر
اليمنية
##راقة
##وضع
##خ
الاي
##وها
نفذ
استثنايية
فكانت
المدين
نضع
##باض
الصبي
تست
الخال
##صق
اللغوي
دينهم
كفروا
مست
بالر
شبرا
ويحمل
العلي
الجرحى
ورج
بحقوق
ثانية
وتصل
بدوي
##الي
الخضوع
المهدي
اختي
##بج
حصة
مخل
المحلية
منطقي
المواجهة
الجهل
##يمه
جيدة
بقد
الكبر
يقولوا
نل
البيع
##برز
اصبحت
خطوات
##كسار
نصب
المقال
وتقديم
##قوب
وفقا
فهولاء
طلعت
وقوله
بيته
الانفاق
##يه
##غم
الغزل
الوالدين
للامام
##فساد
يندرج
اسل
مم
تكثر
تزال
##ريحا
الشروع
اختطاف
حسبما
بادية
الانبياء
دولة
##سير
فم
اموالهم
##اثر
مبادرة
بدول
الاثبات
والحن
حوالي
وبعث
والمغرب
وحد
##ضحت
واللا
##فعه
##كت
فريق
فست
بف
بحث
مصانع
وانك
باست
اسماء
السياق
واه
هن
المضمون
يتلق
اهل
شابا
اخواننا
مصل
هذين
##سيير
ودور
المرضية
فاك
العاشق
الشرقي
حكمه
##وبات
الاغراض
اجلس
لدى
لمن
الغام
الطالبة
الرابعة
لاحظ
##حات
##ديدا
الشوط
بعضها
بيتها
تحافظ
سماه
ذوي
المنبر
مناز
المعالجة
ابتد
##زف
الريال
جده
البحر
دجاج
##نات
ولكنه
##همه
عيب
##وذة
##لاب
الساحة
الركوع
والعدل
##روة
##راج
##اييل
المتعامل
وحقق
التناقض
الدر
لاحقا
مستد
ماهر
يحسب
##روفا
استع
سابقا
برك
الوجوب
##رات
ماس
وحركة
وذاك
يهم
للحكم
وش
فوكل
والاحت
زيد
تعلق
##عيها
وعلينا
الطب
المبد
مبكر
بطاقة
يساعد
يرحم
تكس
فاش
##قصاء
الفردية
##ريدة
نصير
بطب
حيوي
الطالب
الاسب
نصيب
تفر
المدخ
##في
الجانبين
اراء
حزبه
بمق
النحاس
المنافقين
فجعل
اكان
مفتوحة
##اهدين
##جيب
امنت
##مية
الاقم
مريض
##ونين
القواعد
الامتحان
كا
قلة
للشركة
ملاك
ولعب
ادوار
مفعول
بريد
##صرون
شعار
حصر
وقطر
اجتمع
##تدال
##ب
البايع
##ساء
يعبد
معقول
ودود
يخرج
التقريب
الغايب
صفر
##ذن
مضى
الاح
عامين
تركه
اللج
احتجاج
ضياء
##ناوي
يري
##ارنة
الا
سكانها
السع
شقي
##هض
##صلة
##اعون
المحكوم
ابوابها
بوا
بالفعل
الاليات
سمر
تعبد
يبطل
##داء
صادرة
موقعها
المزد
المسي
فلت
عادي
وسيد
##اريخ
اصل
واترك
متعم
وتقول
##عنا
والتمييز
تدير
وتز
الخضراء
##ماع
الازمنة
الانتشار
خاد
تستحق
الطف
نت
النقب
وبكل
ساعة
الشيء
سبع
جب
الكافي
غريبة
المجاهدين
بسهولة
مات
بشرح
يرسم
وباقي
##بيتها
##فظة
ذي
##فيين
الصابون
مع
يستمر
مختلف
##شيين
الحبس
اساء
وهناك
ابنة
المجر
##يين
وكذلك
##تى
مخ
محم
الان
##فض
الذنب
##برنا
##حد
والتح
وسعيد
وزاد
عبادي
النية
نست
وعل
بادخال
يوسف
انتقل
بهما
وخصوص
للطب
##لتا
خلفا
صرحت
يسالون
راسا
الضرر
##ايبة
يفسر
##ضاعف
##قيها
بحرية
يخطر
مطلق
فاما
عم
كلم
النظافة
ويتم
سيية
موظف
الحراسة
وهيية
ايوب
حبيبي
الجب
بازالة
واستقبل
وروى
وصن
حاض
ملغ
الزجاج
تتع
واك
ترافق
يوجب
##زح
قضاة
كلمته
##ابعت
الرحمة
السند
تدعي
##الج
صوري
فخر
ليكونوا
تنفع
شوب
##قرة
للاستمتاع
والمع
غابات
##اعته
مص
##ليك
والبناء
مسافة
##قين
##اخر
وافاد
بلادهم
المواطن
##بادل
والخض
الجاه
غلام
جف
العقوبة
الغ
قدمها
صريحة
يتلقى
الغسل
صار
يمكنك
وتوجه
بوضع
وستين
مقبل
حاصل
ونعم
لاظهار
مراة
##صوف
الانعام
بشيء
انتشار
الكفاية
الذرة
لاخر
والمخت
العلامة
##جدة
عيون
تصادم
يراد
وعود
##ليد
سلمت
غفور
حيو
استنادا
الغلام
تحمي
##اصة
##زب
مسيرة
المتوس
وصوله
اثنين
عادلة
الخطوة
المناسبة
والاداء
قلوبنا
##كين
تسليط
اكمال
فسر
بصفة
بالسل
ليعمل
##ظيما
طفل
يتابع
بالطبع
صبح
##برع
##واتي
سان
##غاء
تصنيف
شعوب
استعاد
##قض
باستخدام
التجربة
ازواج
ندعو
مهر
تجوز
القاب
##غلال
ابطال
وك
ارى
##اقب
وتب
الاحسان
##بهاني
الشار
##لاح
صناعة
صوب
##روسة
رحلة
الادب
فله
عل
ومستقبل
حظ
شاعر
والمسا
الامر
هندية
يط
السط
##ساد
نطي
السيف
##والد
##سحاب
##ضييق
##ليلة
ضمير
رايك
جودة
وخمس
ومات
والر
هلا
وتعالى
رقم
المنورة
الاجانب
الطفلة
الابر
##ايل
##ازي
ونظام
حفظه
##كد
مس
##عماية
والاستمتاع
المعمول
##اجيل
بتعطيل
##افيه
صف
##وقا
الفروع
يفتتح
ومسي
المراسلة
ديني
##صار
فورية
##فاع
وكان
##تناع
سرح
استخراج
##عبد
وحسب
العفو
##افية
##ضطر
يعرفها
##صل
ومعظم
والاص
الشهداء
بنية
قرات
الوقود
ومحت
كيفية
فتى
##دي
##جزا
للطفل
اسير
المجتمعي
سيما
نهي
والمو
النسبية
يكون
وفد
##هدد
تكري
علا
##فل
##رع
وتحت
ربا
فالان
البح
السخ
الحرة
جملة
العمارة
##واري
الارت
اريت
تتمكن
ثقاف
##رتك
بدعوة
السحر
مزاج
##فها
احل
الرب
لمعرفة
استعمالها
ترس
قطرات
وفعل
بالمص
النعيم
عذر
لتحويل
محاولة
وجماعة
وحصل
الاداء
خلافا
تلميذ
##قتان
يمر
المه
الاسنان
السارية
للكلمة
سمعنا
لمشروع
معتز
للبل
اغنى
##يلا
##برون
الحصن
مشكلة
لتحسين
استخدامها
توافق
غالي
##فردات
فلماذا
يشعرون
عمدا
والصواب
الثالث
##قتهم
##اعر
الاسد
##تاح
##واله
مسالة
هجر
الدالة
وشارك
تخلو
املا
فلي
الايج
ابتكار
بقعة
##وزا
##سيط
بالحديث
##انيها
ولع
##لالية
الرافعي
تقديمها
لحق
الاقتص
حضره
الجاف
##ستان
حسابي
الشعراء
بطر
قرار
للاستفادة
المحدث
شاهين
للاق
##رجوع
الج
##ى
مرضى
المبلغ
اعيد
معرفة
المعروفة
تتهم
بالدم
الاستغفار
والاش
##ياد
يعت
فرس
##ظى
بلو
الجوانب
كلاما
وغ
ازد
##شهد
السفير
لاع
العلاء
موم
ونظر
كنز
قضى
الاستهلاك
الملح
قابوس
##متهم
لسنا
##انين
السنة
صعيد
المطروحة
لصالح
##وظ
طلبة
القطع
##قوط
ثابتة
براك
الفقيد
##طلح
الجوهر
تحقيق
عقب
واثر
مبلغا
بالال
اغس
##زة
كاش
انتظر
سيد
مرزوق
بينهما
الاورام
##طلحات
ماد
تختص
##ضة
النون
##قلا
فعله
##داقة
تحيط
المقات
المشرفة
المحكمة
واش
قياس
##سنا
##تت
اصد
للتنمية
بالامكان
تغ
المعجمة
غلي
##عاله
##اورة
دعم
ازيد
قر
تخلص
الالغ
المراد
ذنوب
المكث
المشتبه
لوز
مبنى
جود
نفسك
عجب
##وايف
خلاصة
لشركة
الحجر
اسعد
يومين
الغاية
بكاس
يقطع
بيع
يبحث
تدوير
بسند
وتغيير
اعوام
##اثة
طالع
التسم
##سلام
التحميل
##لاة
زيت
لاستقبال
##ابيح
##ذوق
رفض
تعريفات
نجم
مقدمة
جزيي
##التها
مختلفين
طعم
مجيد
وعلاجه
اطفال
موقف
##موك
مرض
ووضعت
عناية
غرب
الماية
##رمون
الفس
لتش
العصر
ليزر
والمستقبل
المفقود
الفاتحة
متل
##زما
التقدم
تشريع
وفوق
يشجع
نع
تحتاج
قاص
الدنيا
##رزق
وخم
ومكان
الايام
##ذهبت
الحبيب
الماء
##ت
##وك
يجعل
ثم
جبريل
اين
اعلان
وخص
النف
بلح
تطلع
الظالم
النجم
تمكين
##اطى
ناط
عادل
بكسر
وسل
تماما
القصوى
لض
خاتم
##يقظ
##سية
توضي
تقدموا
والطبع
##ياتك
##خد
المطالبة
انتقاد
ومرة
##جارة
اخف
اسد
صدي
الخطط
وجن
الكم
##خلا
##سخ
مجرى
قمر
الجمع
نسخة
##دة
الصفقة
برض
وسكون
##شره
بكرة
مقاوم
محمول
امكن
المسافرين
##وجد
بداخل
الحضرمي
المر
الحشيش
تهم
شنو
الرفاعي
التجهيز
##وفيت
عينة
الجدوى
للشعب
بالاز
يعطيك
ختم
القت
يركز
الراهنة
استثناء
الجزاء
انى
اللفظ
السابعة
للنا
تاكل
##لين
واكثرها
للاطلاع
##الاس
للنهوض
عهده
قلبه
المضافة
##خدم
الخبي
##لبية
مقدم
اسوة
قاموا
تعداد
الغم
بشرة
##درد
##طار
والسعادة
افتتح
ودخل
ثبوت
شاع
مف
دول
##اخ
تحول
الحساب
##فور
بلد
وتحليل
مركبات
##صال
الذى
الشفاعة
ووسط
التر
قضية
بال
يصعب
اطباق
اولا
القصور
شركة
يعتقد
لزيادة
يحتاجها
القضيب
الامامة
مند
الجيم
ويعد
وتقدم
الجز
##حمة
##صح
غانم
خادم
##صرم
##ونى
قصيرة
بتص
ايم
المسم
المشرو
تحاول
فيروز
##وعب
الوارد
فيات
المفاهيم
بها
اعد
تعز
فاوليك
##حن
البقاء
هجوم
دقة
##وجها
##اء
##جرا
حيات
##اجير
مبا
بصد
الخم
يض
مز
وتفاصيل
وكلاهما
باط
والمعت
حبيبة
المنط
الاستخ
طف
الجع
##امنا
سلع
عرضة
سرف
الاو
الخارج
قايم
الهاشم
ايش
الاشعري
الفيفا
##ذيه
الضبط
ومغ
للتحقيق
الشدة
توه
اتت
يرد
ل
وليلة
مواقع
وثبت
بعيدا
المحادثة
بابا
شروط
قابل
مل
انكار
الدجال
للع
ومف
##ثلث
صغيرا
سبحانك
الطلاب
الاستيلاء
العنزي
استقباله
طبيعي
للش
اصبح
لاد
##ويب
الراحمين
وقوف
النوبة
تقدمها
المح
انتح
التحريم
وجاء
##ارف
كمب
موقفا
بن
##رايب
##فاء
للحل
المستم
الكريمة
الخيانة
تلا
الهواء
الغني
تقديرا
مطلعة
متحركة
براس
يز
لعمل
جميلة
الينابيع
لاري
التحويل
الانبا
##روف
بحرف
استف
درج
بعل
يغسل
الحوض
الزرع
الخش
لشعب
وبمجرد
للمش
الابي
ووجد
##الما
سيح
والمح
##اطات
فرو
باح
##روز
الداخلي
##وفت
احتل
المرحوم
لتر
انسداد
فرص
الماكولات
##ية
##اطب
سوف
العادية
##تيان
لاول
##طلة
والرق
##خل
##رنت
يحتاجون
رغبت
##عاش
الارز
العادلة
العرش
##والي
عريضة
##واي
لما
##رايض
تلف
##ضير
اسف
##اح
اعادة
سموه
الاعلى
اعلام
مناهج
بمس
الافعال
قرة
التنظيف
اقدر
الثانية
خالف
##يير
السلامة
##مه
##مثل
الدو
تزوجت
ونس
وتتميز
وصار
الرم
نظارة
الاستيناف
##تر
الكاتب
السورة
نجل
راع
ساو
وشف
الاوان
الفرس
باتفاق
وبار
الهدى
المشترك
اخص
الامان
نجا
عظم
كوال
واضحة
الفلك
بلادنا
شرك
كلمة
المحتمل
يشاء
البيض
الجمال
اليا
مهم
الثوم
مرسى
ولده
الاعضاء
التمثيل
سود
العط
فصول
##جية
الحرس
صوتها
فلم
القرعة
افعل
المقادير
قطاع
مختصر
تعديل
بحل
الانت
المعادي
هت
##ريه
##صدير
التغطية
بالعربي
##جري
بمرور
الفقير
رده
سيت
##هنة
##اهيل
اوت
افتح
تنال
المخاطرة
المنكر
##ليت
القصيدة
تعتمد
بالاست
وبيع
##ثاله
الفنون
يبر
تدعو
مثال
مه
عجيب
تلو
خفيفة
صح
عص
حوا
ازداد
وبه
عو
واشهد
##ايهم
استيناف
##خامة
اسلوب
ذكره
الالغاز
ينتظر
اوجه
##روك
موت
الكوم
وايضا
مقا
##ذل
اختار
##ارن
تبقي
بغداد
استقال
مومن
لاغ
متجر
يخت
ينكر
يتمثل
جيران
كق
##صم
جع
هب
##وغل
كروية
ليقوم
الصوفي
باشراف
العزل
بلدك
ثنايية
مدار
المقرر
الميل
الصبح
##عادة
وسهولة
اسال
الجزر
نقدا
##حميد
فلاش
وبعده
عرض
والم
يتوافق
وسيل
السهل
بجماعة
بوح
الشافعية
عقود
تابع
والتف
مفتاح
التحكيم
شكوى
المغار
الرق
بذكر
البصرة
ورب
ميتا
##انيين
الشقيق
والتنفيذ
فاح
ارز
جيش
غط
قطعا
لجا
##برات
والنس
##زوجة
##فع
التوجه
كلامه
##يجي
المحرمة
الطبيعي
منحت
لاك
##ماوي
اخرى
وتعتبر
سيع
لتعريف
وعمرو
##لكم
##واصل
الغرب
ممار
طبي
التوزيع
وجهان
بقيت
##ملات
##كوت
تدل
##واحي
##علة
جزاير
الكشف
اختبار
والبر
لقايه
بط
ابنايه
عنقه
مجاني
##مش
الاسلامي
##جام
ه
لفهم
الانطلاق
حكايات
غاية
##هاب
اياه
ونحن
باليوم
العيد
امتع
ومشت
تمكن
##ايجار
اوج
نعمل
السطور
حلا
خصصت
حذاء
باعلى
اسمي
عمله
تناولها
والدة
##يرو
##بق
ثق
تسليم
##ثيل
يحكي
انش
المنام
##وارب
فيش
##امها
##ضرم
وضبط
الشاملة
كعاد
طرف
الحاج
والتعليم
وحين
##وتو
الممثلة
##وتها
الدرس
لاتس
المستمرة
##ابون
تدبير
والاسلام
الصدق
عنزة
رجع
##لوب
بطي
##كول
الاستمتاع
ضبط
الطلق
الزهر
##زز
سحاب
العدوان
##قوا
لكي
الاطراف
بضرورة
الايجار
وثيقة
##حالة
المصطفى
موثوق
##ولى
##ليف
تتد
ففيه
الاحوال
جم
ذكية
اسحق
طلاء
ووعد
##اضر
##داق
سلا
وارسل
ثانى
نفر
المزع
يلزم
##باية
##برت
بعمل
حفل
##طام
ادرك
##تمة
##فادة
##ند
اكمل
مرو
والتخلص
الاسما
الجه
منتخب
نذكر
الباط
فلانا
ظهورها
القش
جسد
بالعمل
التعذيب
كند
العملي
##امع
الخلاص
الاثر
ليالي
خش
حزام
مشاع
اضافية
القياس
المصري
الاشياء
اتح
اهانة
##واك
الاضافة
جاي
##رمي
##فاظ
نظره
غاب
الايق
##نان
جوف
الناقة
##ربط
يدا
والتص
لمصلحة
##ايفة
فرع
##كشاف
وابرز
تيسير
وطرح
عدم
الصعوبة
##فن
الفورية
##ايات
صحيحا
##جلات
اهلها
وتبين
اضافة
ينظم
الوضع
##وض
مختارة
انخفاض
مود
##ندر
للعام
المرغ
زمانه
##براني
سويا
نادرا
بالمال
اللوز
الو
تمتع
الصداقة
وسلوك
النسايي
لاح
وبهذا
##وجين
مون
##هام
المكلفة
مقابلة
ال
اسمها
ارجو
##ابوا
مام
تودي
##بيلي
يوم
##اسات
غيرت
لتغطية
استمرار
##عف
العمري
ويرفع
اسوا
اغلى
لطيف
بلت
##ضو
وذوي
##ارتنا
مجمل
والز
طلبت
تعيينه
المنقولة
المقل
##ربت
ارقى
حاس
المف
الفقيرة
تقدمت
اقلام
العلم
الصنا
##وارى
راجع
حسب
السبت
ادناه
##فلس
مجدي
متاخرة
محددة
##شد
العمود
لمخ
السب
##وند
##ورى
التز
المستعمل
يل
اللباس
احتكار
بالقول
سلسلة
الجدل
ويرجع
مرات
الضوء
اسكت
الامية
شاملة
توصل
##تبع
شه
الموضوعة
##شطة
مرع
##كي
##رايها
##وضوع
سد
العاملين
التفسير
تدريب
لتلك
الحب
خي
شارك
والوس
كالت
دفعت
سعر
وتقبل
اقدم
ينتشر
المجلة
الجاري
جعله
يمشي
ثمرة
الفض
عث
تدفق
باك
المناق
ولها
المحت
الفه
فانها
##جن
##يته
قمع
المايي
##هاق
##خلف
##جى
##ضاه
التسمية
الشهري
الشبلي
والمصالح
والتق
##قسيم
اخذوا
##ركوا
##يلان
الحوت
بالبل
الفرج
يعنى
##سلو
وهما
عدي
خلق
##ويين
الخصم
مخاطر
البلد
الاجزاء
وحدث
التها
مجتمع
الامعاء
شمالا
الرحلة
ليصبح
زمل
الذكر
حظر
مري
##ضال
النش
والوط
رجل
ابنها
احدى
التعادل
ثعلبة
اوم
نصت
ناز
له
السوء
##فز
يقيم
الحاجب
##بياء
كيف
لاص
مميز
راسخة
وشركة
الحلقة
بمز
حمام
##وراء
حرم
قيمة
دور
سلطة
الناز
للمشاركة
افت
الامامي
العصبية
القاضي
##احبه
والجم
اعلن
مشاهد
خواتم
حمية
##ويك
فه
شقيق
الشجر
اراض
موي
فايق
سمية
الاساءة
البطار
العجل
معينا
##وهات
جراحه
التليف
وزيادة
اسك
والمعروف
##ثي
اياما
لحكم
##خرفة
شهادات
يخاف
دفاع
دخلوا
حضرموت
الجيدة
يند
المعيار
ودا
واعطاء
العاد
والجمال
كعب
المسلمين
##ذرت
حاله
لتح
جسده
##اوف
عفيف
##دران
باعتبارها
والاخر
وتقع
طرحت
يدل
##وحيد
تشاهد
##قاذ
##فتر
المساواة
##ضمنة
##لوا
البدي
##برية
خمس
##روحة
##برد
جديدة
الحظر
منال
مستع
عداد
المكان
بالبيت
ومصر
دراسة
الورق
##ملها
##ملك
الجابر
ورش
الابصار
محقق
وتعمل
##لول
فلب
العقول
نتم
مشهور
لعبة
باخت
بالز
##ظايف
المنقول
ليلة
اياها
البرم
ربه
يبرز
تميل
وابلغ
فاب
سارت
لانك
الابرار
##تماد
المقري
السني
وطرق
بقليل
سحب
مدني
مداخل
وللح
##ايبه
باللون
##نا
تقطع
والمغ
لضبط
ترب
ابسط
فضة
##ديل
نساء
تنت
نقيب
دون
##جار
##علت
بكير
##عودي
راف
المشاركين
##لمين
##انج
توجهت
##عت
شعرك
قيمته
نحت
بدليل
وضوح
##راهيم
ادراج
غيري
##زاق
نهارا
التدم
امها
##روبة
شرقي
الفساد
للقيام
ط
خيرية
الازرق
يلت
وردا
التقليد
##وم
الثلاثين
##اكد
يبيع
مصد
بانفسهم
يعرف
سخ
المشتركة
الكراهية
وعادة
##وضوح
عرعرة
وكتاب
ملكية
الضارة
والب
باية
لحديث
##سفة
تيس
برس
بالك
الواض
لاهل
##صن
النايب
تقدما
##حيي
طريف
تناول
للتعامل
##حصر
قرط
المحي
امسك
##ولا
سيش
العسل
لتكون
##دا
##تمال
المقبلة
بهن
اليوم
##فاوض
مسجلة
توزيع
ووصف
اقناع
يحم
ريف
ونست
##قبة
استغرب
حولك
##و
##باقي
والهر
##عين
اتى
نبه
المن
##نى
##غيرات
عا
##امية
العموم
وقطاع
##خاذ
متفرقات
مخرو
##يال
للاستخدام
الند
##بنا
الرقي
الخت
عيار
يروي
حاملا
الكار
طعام
يدع
شابة
باول
الشياطين
للكي
قبر
الطرفان
تمن
صوتي
بتخصيص
المكي
الحما
سات
المبت
يحيى
المخاوف
خطي
امرين
##نوع
مدينة
زخ
##نها
للو
وضم
##جمع
##شى
محدودة
جث
وساير
الخان
المطل
الحر
تشغل
وثالث
##جنب
غرايب
قوم
يراس
##حم
شانه
لتقديم
شعبها
واظهرت
الادباء
الصالحات
المفت
بته
واستد
الشيباني
##شف
ينطبق
رين
##لاف
اولي
خالق
ربيعة
حضرة
##جنة
بالنسبة
وانتهى
نافع
السابع
وحرم
يشير
انقسام
والطب
المتقدمة
اعاده
المنعم
ريم
وتنفيذ
البنا
يلبس
تاثير
الكذب
عرش
المساحة
##ده
اقامت
حايط
مق
##راب
مثل
سلمى
##روق
اول
اصلاح
لتك
الحمام
مصنف
##لاها
وجهين
بالاض
كمن
مزارع
مقرها
ونشر
القطاع
عبارة
المغني
عزيز
والاتحاد
شجرة
غلب
الايل
قبيل
##جسد
استغ
والسم
محد
عواقب
##جيبة
##قف
ذكي
##قه
##باير
لتناول
اترك
##دق
موارد
##ارى
الاصلي
##اريين
اثاث
ينطق
التهديد
للاتصال
المقصود
الكبيرة
تهديد
##واج
ساد
والقبول
الجار
بذاته
عمارة
اسقف
الفوري
اعتبار
وجدوا
شعراء
للتسليم
الوحدات
لاست
والماء
تنفيذه
وبت
التو
الحداد
اليق
يستغل
كنت
##خرط
ضعف
شكر
يفس
##ريطة
موضحا
الاباحية
مرتبة
تنق
الاسلام
##جلت
الاديب
##تهما
يحقق
اى
يستطيعون
خدمه
نايل
اسرته
بوقف
تبنى
محبة
الحربية
والنار
حزن
##طم
رود
##حيا
خداع
الاصلية
ارسال
بتف
عيينة
##يرون
##كيه
بقراءة
استرداد
الاقلام
اند
جمل
للمطالبة
حميدة
تجاوزت
الانكليز
بلص
فري
والجنس
المقاصد
لتس
برت
الانهار
عليها
نن
يسب
وتعلم
التحديد
القادسية
بصراحة
الاصحاب
ماكو
تشعر
تعمل
غنى
حوله
والرياض
جني
كري
يصدر
زام
الشوارع
كهذا
رحاب
سيرين
##راط
##ابد
تضرب
##زاء
لمساعدة
طلاق
بدار
الفقهاء
واتهم
الانوار
مضت
الدني
يحصل
خوف
للمست
##فاية
الانقل
##لنا
منعت
##ابات
لمح
وللت
##ابير
القذ
تحكيم
##ارم
##ناد
واس
##روه
نفع
الخس
ثواب
لعمر
الخطب
وشي
##باد
##غا
تتجه
يضع
قتال
ثقة
ظهره
الور
فكرة
##راوات
الانتقال
##يفي
حدة
##ابته
الذ
##ساير
كفارة
ثالث
لتلقي
البارز
##بدا
النبى
تخصص
ابوه
##ايفي
بلده
سامح
حياة
عصر
واعلنت
##ارض
نقف
ش
الوفاق
تورط
##غيره
ود
شعبة
ساق
التلف
وزي
بشير
##اسم
روز
والتك
##كار
ينزل
القطن
احس
امتي
استث
##ايي
وتوقع
والمور
التقلي
مطالبا
ومنهم
المنصور
##سمين
##هال
موضوع
تشي
المذهب
يفهم
سق
##بعاد
##رتي
##مانينة
البنت
ترت
اولى
##طرد
ماليا
ذكرنا
الراس
رباح
وتغ
##ذاب
##لاحقة
صدق
معامل
بالمدرسة
جرت
معناه
##ربي
##وفرة
##راجه
تقيم
رجعت
##ايمة
مباشرة
البنات
##ريز
ابا
##اقس
يزداد
عامر
طاير
ساخ
والمالية
زوجك
ويه
##حور
##عوا
بعين
اقامة
يكمل
محالة
##وفيق
ومتابعة
بى
##هج
الانقلاب
عيسى
حمدان
ميقات
وجودها
ادن
سيا
المتعلق
وسعد
المجموع
لابد
الدعاء
الاص
##خاب
تثير
يعادل
يخبر
واخرج
التنزيل
الشارع
مفاتيح
##واكب
تخلف
بسب
اصيل
اقراره
اجل
نقله
سنين
افطار
##لاينا
الروا
##برين
فوقها
ودفن
المطلب
صداقة
للبشرة
اراضي
الجزء
##وقل
##اشرة
روات
امت
يبين
##وفي
مشت
##فرت
مضمونة
رحل
مراعاة
الفراغ
منهاج
حاسب
الكاف
اتهم
شهري
نيابة
للصلاة
والانس
ابنتي
وامير
تزور
تروي
كوا
للاب
كسل
شيطان
##وزراء
تكون
ادب
طرفا
مامون
##وطو
المتوكل
##عتبر
##اسير
مخالفات
المطلقة
للتع
وملابس
تقريرا
واضع
ديننا
كالم
والصح
الخصايص
##زلة
##مات
##موس
قتله
المتعب
فراش
الكو
وخرج
##ريان
##اليه
صحت
المحلة
اختياره
وعي
قذ
##طال
##هك
وعظم
البر
حفص
الاموال
عمال
##اف
اط
يصف
الخنزير
الاجتماع
والسنة
الدولة
بمقدار
شان
والطرق
انح
محرر
##طات
يشرب
ويظهر
اجتماعه
وغيرهما
يهد
التحليل
مسجد
الغبار
اعتذار
لذكر
حرمان
يعلن
الماض
غز
الدا
يست
الموافقة
الكفار
والمال
الحلم
المتظاهرين
الممكن
بالان
##بيا
مركبة
زر
هوايية
##اصرين
الروايات
لاه
##ثان
منح
خبز
اللمس
ز
الباقي
قيود
واجمل
الكاملة
##قاب
هند
##اصلة
الادعاء
اعلم
صالح
##زيم
##ليمة
اعجبك
لقد
ينهي
سه
فرض
اخل
واخبر
زهير
الثانى
اذ
جن
الزوجين
يحترم
القاط
الكسل
التامة
متاع
غد
والتعامل
السياحة
ذات
يتعلق
تباعا
وقامت
جميع
##لفل
تبد
الموقع
جراحات
تصير
الشركة
كابل
خارجية
##ويس
##وتات
ذكرها
اسقاط
الفرعية
اقس
النهاية
حرا
الكهف
التسعين
تحديد
الشاعر
المكاتب
انتظام
جمادى
ظهرا
المحكم
##ربات
رايي
وذهب
##قيدة
المسايل
قي
المكتب
الضحية
احترام
وتاثير
واستمرت
##قص
قدر
تعلم
##اهة
##الغ
انشط
الحدث
اطفاء
##قامة
تصح
البش
النور
خبير
صفحتها
فتت
الرزق
الخمس
البركة
##زين
##طيب
ضريبة
قاس
بعدد
##لبين
الاخ
جور
##يث
سعيا
##ثاء
##عدوا
المناسب
الحجز
##بغاء
خصوصية
الحضرية
البع
##وبه
##عود
بتخ
##قالة
اللعب
##ر
للنبي
بعدها
الاسكندرية
ووفق
اسيا
سيرا
لصحة
فاخبر
لسوق
تعبيره
المتاجر
يكر
##بيه
سند
كامله
مقبول
دا
المام
الجرا
ونوع
الخط
لقيت
##يدة
الحمار
##طل
بقلب
برو
العطية
تجنب
حظك
اكل
##ضار
اتوا
وقتها
تاني
بعدي
ويحت
وفض
نحو
الشريف
وابا
مطالبة
اب
مرافق
الزايد
متعة
قوتها
الانصاري
##اعية
بامت
##امو
منبر
حبيش
مزد
لتخفيف
جندي
##انات
فن
واشكال
##كرت
اخوة
بالد
احي
##ويا
مجموعة
رزق
##لط
موازين
للسلع
المبر
العيب
بعدة
والاثار
زوجة
##اديا
##سمى
المشاركة
##جاهل
بالنيابة
الفقيه
الركبة
المص
واصول
يه
ايل
اليسار
بذل
##احب
التحتية
الازهر
زينب
عون
ثقات
ورواه
خسر
داعيا
الحنفي
انما
شعرها
للوطن
يناسب
ولفت
امور
لضعف
سقطت
بافضل
وظهور
##كاء
الهة
روايات
يعشق
الاتهام
##لة
معهما
عاطف
احياء
بالتفصيل
هدية
اربع
فلان
رسولنا
##شركة
كتبها
طعمة
باتت
نوا
عبرة
مسح
لانه
البعير
بحثا
لاحق
الحرارة
كوش
##رانه
الداير
العروض
تضمنت
دجلة
للمحافظة
هناك
اعتبارا
بلق
بدعوى
جمع
##غفار
لخط
ثلاثي
##ظر
مقبولة
خياطة
بالاعتماد
المبارك
الون
ينفع
وتبلغ
ومعا
##همة
انتقد
والاشراف
كوك
موقت
فقام
المخلص
##اجر
مستوطن
التص
الاستيطان
متق
البدء
وهولاء
اراد
اطلاقها
البحري
مردود
وياخذ
وخط
عصره
##طين
سهولة
والاربعين
تاث
اخرين
الخطيرة
سالم
الصغار
توي
يضرب
طرد
خلطة
الدور
##ولف
الاحاديث
ذ
##مالك
##واطي
يهمنا
ويقوم
احساس
البرا
الايات
##غفر
يثير
##بعض
التصنيف
الاسرار
باحد
وبس
القبلية
##ومين
نص
الاديان
شرقا
الحدي
والتج
الحجاب
ويترك
##قت
القطعة
راسي
يومنون
منفر
النصف
##يري
عمن
الجوار
المشاهدة
كذب
الاركان
العدل
يحمي
##نب
للقسم
##ارج
##بنى
المشركين
والاهتمام
واستمر
ثالثا
بدر
##نده
ويدخل
للتجارة
عقيد
##سب
الاكبر
الاخر
اخبر
وعليها
كث
ابت
الياس
واث
عاجلا
فايدة
والشف
##غن
لث
##اتي
اشعر
باردة
قاط
عمان
بلدي
واضاف
الدرجة
##صنة
##ورد
يختار
جوهر
القتال
قريب
قاسية
تولد
##ويات
فعلم
الوكيل
زكى
##صيد
تفاقم
تعني
الحش
##التهم
عاما
لشخص
المرض
دانيال
الها
القي
##وقوف
استحق
وو
##ارعه
الانفلات
##هيل
ترا
النواحي
الصديق
قراره
لتج
القدير
سمعت
جالس
خلي
التعريفي
##سمية
الابواب
##وايا
##عالم
وموقف
المالك
للشخص
بلف
##ادية
النسخ
سلفا
ويم
مفاهيم
قواعد
مذهب
بما
##جزاء
مطالبات
ادا
ووضعها
بعضنا
الالبان
يتجزا
ثور
العص
لبناء
وحمل
الروية
بوجه
حينيذ
النو
##فية
اناث
##هرب
سجلات
##طو
بالامس
##ارة
##بو
جلوس
والمزيد
استمع
والالم
العلمي
العلا
اللعنة
باغلاق
##يانة
##واعد
ادعى
دونه
الار
يليه
يوت
بمدينة
الملتقى
نج
يت
البن
جايزة
احوال
##ز
للغاية
غرام
التركية
السح
زنج
الصفوف
والدار
الشرعية
الحجاز
وبل
اودي
وللاس
الاستاذ
اليم
الايد
ودم
عامه
واضافت
قليلا
بالضرب
البغدادي
يمت
وافقت
##صلت
البطن
عارية
بلاك
##ودها
##ربح
حكما
ابين
الفارسية
كرم
ماز
النسخة
سيدي
التام
##الجة
طرق
بصنع
استعمال
الازد
تقدمه
##ديقه
تلق
يتبع
نسبه
##ريط
والاهم
لتصحيح
امله
المبيت
بسوق
واقول
دنيا
اك
حولي
ونز
وامل
##ناسب
##جيلا
##ابة
العف
وتوقف
عايلته
نرجو
##يك
##الون
تعليق
الحديدة
##ايده
قوى
الصحراء
الهندية
كبر
والسعي
##وخة
ارتفعت
فهم
الشك
##ماح
المصطلح
##يبة
الاشهر
استقبل
لاكت
حصد
نارا
##وبي
##جز
سلبا
دينار
عصرا
شور
ويع
المسافة
التهذيب
الرصد
نقلة
وكانه
شب
ملحق
تهي
ليبي
فعليه
ونقد
##قس
طري
المعبر
سلب
##ناها
ويت
نايم
مضر
الحجة
وشم
والكرامة
بعقد
الجدار
الاخرين
والمحت
شتى
نعتقد
لب
##طارق
الممن
وعقد
واسع
بالاج
باعمال
احرف
صحيح
ومعت
##خي
علامات
بد
الحمر
نسبيا
##وثة
##ابان
الدليل
باق
بالخارج
##ربة
واما
ايط
لتغيير
تعال
##عبير
فورد
##هرة
الرحيم
بيش
ذك
ملاحظ
تاخذ
البط
##لقة
اردت
معالجة
التغيير
الخارجية
عشت
##لاط
شد
لشهر
ولمن
##ريكي
الميتة
عمالة
بماء
والغرب
تدعى
لاحد
الغير
والدها
ذهب
##راض
وذكره
##سبب
السجود
باري
استقبلت
حلم
والتهديد
ويحيى
ويح
اطيب
الحكة
متهما
العزم
ولكنهم
الجبر
واج
##تاء
##هاء
الب
الصحة
لزوج
الخدمة
##مر
الربط
رامي
فلا
بالب
##ومات
##هز
الامارة
الحمية
خيار
ضمنها
شىء
##طاير
علاء
رء
التجزية
شركه
بمنزلة
اعلي
##خص
العلام
##فسهم
دليل
اتفاقا
ديون
ملوك
##ريغ
تسيير
بوصفها
نقول
##نف
الراشدين
المقربين
قدمه
##يية
عنده
واب
توجد
اجبر
##صفة
دق
##ديو
الصواب
افني
##جاب
مرضية
##ذاذ
الغد
ترتب
سهل
وراء
الحقوق
السطح
السبيل
مشابهة
توس
فام
يدرك
ومثال
والخارج
تجده
سكر
موعد
اوسع
يدين
اخبره
المفكر
درب
باجراء
والهي
امني
##نو
العلماء
الصريح
##كاك
المج
اسلام
تقديم
احتاج
##وحي
##واع
يثبت
يتجه
##سيارة
ايجابا
لبيك
اوقفت
يحبط
محاسبة
الصلاح
الصيانة
##انت
##اله
تلبي
##لالة
بذات
البارد
ترض
والقصص
الواع
الزعيم
السابقين
يقدمها
##عل
##اوية
الاسرى
جمعها
وقام
الرواتب
خب
التين
صرف
رضي
الصحيحين
جاني
الارصاد
جامعة
شا
الوجه
دعوته
اخطا
لتعلم
يغطي
الغز
الخمر
المعلمين
مور
طيب
برسم
المشروعات
البلدية
الموث
وقيل
الهيية
##اجع
المستقبل
انشيت
ضرر
بالشكر
لتط
حصان
الاشعار
الخمسة
مجاز
الذه
جهتها
الملاح
ميزان
##يرن
##الو
كات
مبعوث
مضاد
الملونة
صلى
للمياه
شمل
اقت
بمد
محافظ
وصورة
محط
##ليط
الصب
امنا
الهر
المتابعة
ناش
والاصدقاء
الفصيح
يعل
جمال
##روضة
الصيف
نقدم
ضيفه
##اته
ونعت
البالغة
الكام
الاتية
يراه
المحاكمة
##كرر
التزام
وفل
اعين
شاهدت
سلك
بنك
صرت
##تون
وجدت
الخريطة
##اهرة
فاس
اللات
##بيس
الناقل
##تين
مرتين
##ريا
وث
التصوير
زيارته
##فيل
اشخاص
تمييز
المستمر
وفدا
بواقع
تركيب
ووف
##ريقة
##ريت
تنظم
حكمت
للامور
مجتمعات
##وطن
##اني
##ولود
##لتين
المواقع
اغلق
مفصل
الظاهرة
سيلان
تمي
بسبب
للارض
##ارتين
الكه
بعكس
##كات
الاختيار
بقصد
تون
النسبة
احدها
##شري
الكرك
##وقاف
فهما
تعد
والسف
##يده
برسول
حقوقه
نومن
تنفيذها
استي
مولد
##اعى
بمتابعة
فهل
واخرى
شرعي
الادلة
الغالية
##لمات
تمزق
##روء
منز
المواد
الاقرار
ومط
##شيا
الرياضة
##هاجر
نادرة
والنف
##دوا
يسر
معرض
الالي
والمثق
سياسة
المقطع
##بيح
المستاجر
شديدة
المنطق
اتصل
نود
والاربعة
يروى
ومنذ
اض
الاشراف
فاخرة
##ايمان
الاصلاح
الزوار
واتباع
##اويل
لعبه
عجل
وظ
##صبح
المنافق
اعمار
هييات
##اتر
ملام
بو
الحجاج
بشارة
قمت
مفرو
والانسان
مواط
البرو
والوان
دواير
الزيوت
##وقت
##اليب
بي
الموال
وتميز
وست
الوسايط
لتجديد
علمت
نحتاج
جانبي
المختصة
الجيل
وخاصة
هى
الفجوة
تعرف
والنقل
السمع
##ميم
ابواب
التعا
الصيد
الشهادة
##ييل
وسبب
تعرضه
الغياب
الخيول
وحك
##يز
قومي
للمسلمين
ازور
يرق
والام
الدي
التعرض
مبدا
##سيد
صم
انعكاس
الزماني
انسان
الزوجة
توم
ورقة
رغ
##بطين
اجمعين
##يراد
##لية
حور
##ليل
مستقرة
##ضين
لابي
##ابط
السفارة
ياتي
ضا
قرابة
القعدة
لدي
المتصلة
طلبه
بمقر
يسمح
موز
مونت
##ونها
نبيا
##ظلوم
يفقد
والدر
##بيته
وجدنا
الجلال
والسوال
الصندوق
تاتي
نشاط
وانتهت
المريض
الزي
فاخ
الخطا
الطير
هرم
النخل
##بيع
بصره
طويلا
والادب
هرب
انظر
امرك
الجهاز
##ضباط
واحد
تعامل
والارشاد
##ورف
ووقف
##مني
القر
المنص
الكون
اضط
الاسر
البعض
##يقا
الاعراف
واخت
استلم
زوجي
برات
الحاسب
حامد
تتضمن
##شرون
يعتمد
الن
لدينا
قناديل
##انف
يجه
النادرة
والجل
السموات
اليمني
##زلي
ماك
نسبة
ويج
جلب
تش
كاس
الاداة
تشري
وقلت
احيانا
##طيك
##ارها
ميلا
##ليات
انسانا
##وراق
تنوي
المتب
اصر
##دين
بعينها
العامري
تابعة
ثابت
##طران
وتن
الصغرى
الركاب
##ذاكر
##قبول
مها
معناها
والعشرين
عوامل
بقول
الولادة
لو
كد
الثلج
تدفع
عقدة
##ضا
فكما
محدث
يشكل
وكانوا
معتمدة
##قط
الكوكب
البطي
يعي
##وسط
غرفة
الاضط
واتفق
لها
بالتق
بالط
وحلف
معاون
الجي
##فلة
التعاون
##اعة
دعوات
##ا
##عر
البدع
##ارد
##ايعة
##قبل
تشابه
الامام
والبت
##ناء
بانتظار
السعيد
يهدد
لعل
##كته
ح
النساء
تنظيف
المد
يرفع
استحقاق
فو
##ريبه
ادايها
والنز
حر
عف
جرب
قدرته
##وسة
تعظيم
النعمة
منظر
واحداث
اوليك
بزيادة
دلال
يرضي
بالقران
مناط
لى
عملنا
والذ
تص
##يرها
الكور
النبوي
##كه
فلما
البصل
النثر
زع
السعر
افتتاح
##بيل
حصاد
ثان
انفس
تاجيل
يصلي
والثالث
المستب
المرة
الرمض
##دت
الحار
عس
##وني
اللق
قرق
##فاق
نفس
الاوز
جاءت
##صام
الحنف
امره
مشددة
##رية
للاه
فلذلك
جدد
التغلب
النبيين
الدرك
كنوز
##عدة
وصناعة
يموت
يخدم
بركة
وعالم
تعطل
تضيف
وعبد
تحقق
عشرية
##جان
ع
يتس
##هو
##ذين
##داك
المست
التش
اعت
الشفاء
الضابط
##وثر
والدعوة
تلوث
بالحب
التميم
لكونها
منشور
واح
وخ
نشا
##وضيح
المرفق
##ذر
المحرم
وصف
##ديق
طريقه
المصمم
##قله
##يي
الاه
تعب
وخدمة
##اضلة
السنية
يقرا
المعز
المعجم
البصر
الصراط
##كيلة
الفتنة
صارت
مشد
##متك
رويته
حايل
نط
الدست
محتملة
ناعم
حجب
عالمي
##راي
يوف
فامر
بشرى
رفضه
الرايحة
الصياد
وعودة
لمد
الامارات
القلق
اصله
معت
النبوة
لاذ
قوس
الفارسي
الاشغال
زيادة
الشا
##علها
نيف
ساكنة
##قالات
ممدوح
##سق
والرجال
الانط
ورجع
المجرم
كلام
والبط
تقوم
للص
وحلول
خلا
صورته
الهام
##يرة
##ايس
وردت
وص
السحب
انواعه
كريم
بالمعروف
الفاح
مرحلة
بدات
##وارق
##بحث
بارتكاب
ليج
بتج
المتعددة
شاكر
##فقه
الحكم
واطلاق
مريضا
##دها
##اط
جزء
ويل
مبارك
عربيا
والرياضة
##اربه
##غلين
منذ
الطهارة
##يلون
عبر
الحلي
##اريات
اسبوع
للاس
##ويلا
الرسالة
سبحانه
ضعيفا
بكلمات
##هوري
تي
اغلاق
##والات
ذهن
الخفيفة
تخلق
والمش
الخيط
##وعا
واحدا
##عك
البيوت
غفر
شغ
اطلاقه
الولايات
ويف
سعاد
بطرس
العمراني
الدخل
نشر
المثل
بقيمة
##نيد
الحالات
انتقال
نزار
الجواد
الجبال
جنون
واشارت
اقسم
##قاط
المرات
اصلية
والمعادن
جالسا
را
##الل
كح
السوال
تصفح
الثالثة
وتاريخ
البقر
##صرح
اماما
##كهة
بالحكم
والرم
والحزن
الارث
##وون
لجهة
وداع
عجلة
معقولة
ويحتمل
لكنها
سرك
##هى
شمالي
المبالغة
خفيف
الخفية
للكن
وانا
محرم
الايس
الوع
اصحابه
توما
الهوى
فقدت
برقم
##وفين
المحذوفة
اعتقل
عبرت
حلوة
محاربة
تصور
##ايمين
المملكة
تحفظ
جنوب
تشتمل
تر
##ذيب
بالاط
هلال
الصغر
ممكن
كرامة
وسوء
للتص
الاسع
##ازن
وعلا
ينظر
تتولى
شخصيا
صدقة
##تمان
سارة
##دمت
اعز
الزمان
##الط
الاعتماد
احتساب
مستعارة
الخ
واظ
بالمت
تتق
روج
تعذر
تجاوز
##راق
الوض
والاكثر
##خلى
بالخط
برسالة
معها
الطبقة
##وشي
للراي
الفعال
دخان
##اثية
وترتيب
امة
وانس
اعاد
##قتها
الغداء
حبي
فال
للتق
محارم
##عي
جز
نسخ
دما
اثرت
استاذ
وشبه
واكس
ابرز
لاحكام
الشاف
مالك
العشاء
والبعض
تولي
عزت
غير
احتف
وبدون
الازواج
واهلها
مض
الضيف
سورة
نعلم
وولي
تقسيم
صيام
القرشي
مول
ملاحظة
##امس
##وانا
حميم
والاب
##صالح
الصار
تجار
متعب
ضدها
تعل
الاموات
المتعارف
##افه
الهج
##ذي
تظ
الثق
بالعربية
سطر
##عمان
##اخبار
##جتمع
##كية
اسراييلي
وتف
مدي
المقاتلين
##م
ولمدة
تنمية
صحيفة
وصلة
وهى
##كرم
كنع
والموقع
تنظر
##اليا
اطلب
انتظ
العنف
المنافقون
##دير
القديم
بات
اون
لتصل
##غبات
والعامة
فالف
##رمين
##خرا
تلول
يحتج
لف
والاخرى
##واز
كسب
##لبس
بالق
يتولى
المولى
خبي
المباشرة
بالاص
##خصة
##اداة
##حونة
الصايغ
##ايلي
وثمان
##خفيف
عدا
##فقة
مية
جدلا
الخيمة
##صايل
مرتبط
المض
الجذور
سايق
الرقية
ينتقل
قادرة
شاة
الموك
استشار
ليال
التفكير
يطالبون
القف
##رو
الى
##راوي
##فقات
##عها
##اييه
##لى
بغرض
ونح
##عيدي
البعيدة
الميم
بتلك
اجريت
عددا
مستوي
يجب
الربح
فقالوا
حيدر
مجد
محكمة
##شارة
كمال
توري
الوار
شيعة
الاحتيال
##جوم
الخبير
##ينه
الرجاء
بالدار
تمس
بالبوا
بثقة
##ينات
وكي
وسوف
##الى
##طرة
الرفيق
##روها
جهدا
شاي
يسلم
الورقة
الامنة
الاخوة
حلمت
حاشية
زايدة
الاعجاب
وذكرت
وتد
وامت
اوقية
وصاحب
المكتوب
ارضي
الحكمة
بجهاز
العيش
والشراء
وفيه
##دعي
الاصرار
علوم
والاحترام
بيني
مقد
قرص
صياغة
جابر
خدم
##جلد
قنا
الجندي
كه
والرف
معتبر
الكامل
تلبيس
عسير
كيما
روب
فارق
وادى
قدمته
المرغوب
المتن
بالاف
المعادلة
الطيب
واجه
بالنظر
تستطيع
مخلص
##ثيان
الشب
جوا
هل
فهر
الاسباب
الدراهم
##طيط
اقتص
السلم
ساعات
اضعاف
مرغوب
استجاب
##ليح
بتر
ا
داخلها
##صبة
تقدم
##شارك
شيبة
##رب
##جرد
طلع
الحفظ
سيكون
مرك
الصلح
ظهور
##يدا
بالخبر
##قيب
حرب
لار
عبادة
اشرف
##خدمة
الاحصاء
واخذت
ابيض
فليس
المبيع
بالاجماع
اباد
الرضع
يتكلم
والاي
بالارض
##طاني
المصريين
##مس
وادي
والح
از
##فرات
صنعت
الاصبع
حسنا
ولانه
##سة
يطلب
##ثناء
بعث
للمخ
فاكثر
تركت
والكت
باقت
المنا
المما
امرت
البعد
##ثير
تلزم
عمير
##روي
نقل
يومنا
قن
ثبت
##دود
الهي
وخالد
##يج
برقية
ممن
فسي
##ايب
كلاب
الاوعية
احاديث
وصلت
براب
##سابق
الخطر
المور
##نة
وذلك
الصدمة
الحارة
وصل
انيق
غاز
للعب
بمكان
الشع
الاتي
الغرض
جراح
##ره
العراق
##ظيفة
الواقع
المالية
اعني
يبد
كتب
والاخ
والاق
نمر
النصرة
##رور
دخول
ميسرة
يتحمل
##وصي
والطفل
معانات
فارت
قدمت
اهمها
##ريقية
##ذاق
صديقة
عاب
المراه
لمكان
خطب
##ميص
الذهبي
باذ
المتت
بالفر
المطربة
ذا
يتع
الهجاء
##بالغ
الاخلاص
عشرون
شراب
شريط
حياتي
##جوا
بالاسلام
القايمة
الطعام
جرس
تفصل
عكس
للاسرة
##ذبه
المعاصي
امرهم
المرق
##ارق
يتق
تعتقد
تسم
عدو
عقوبة
رقعة
الدوا
##الك
ابن
انتباه
الصفا
فيست
##عتين
المدف
الرعب
بجمال
يفر
##رته
جزي
##ظام
بحضور
وحز
ملف
المركبة
##خا
فعلت
طارق
احتمال
واقل
الشهود
التصريح
##بتها
حرس
اولوية
باث
موقع
النتيجة
تاريخه
والعق
##صيل
ويعتقد
للدي
كامل
للرد
وتابع
وكلام
وخارج
الذات
حجاب
رسم
الاطعمة
لغ
متناول
الحسيني
لقراءة
تبكي
ومواقع
##وءة
وات
وانواع
##اى
وطلب
الرو
ظفر
ابان
حما
توفي
ادعية
اهداء
الاعا
اثارة
رفيعة
ورحم
انف
الاسيلة
عفوا
شير
الخلافة
سجل
##ضيء
اخبار
##تماع
حاجته
ارب
رخيصة
فقل
يظلم
ويستمر
ترن
##تن
عرضها
##اها
للاسر
للقران
العقلية
##ظمة
لوقت
لنا
وعقب
العلاج
حدثت
لانت
اللط
هذ
والاسود
منفصلة
##نكر
##ادمة
تصنع
والاخت
##رايع
الانش
بمجلس
سبق
درو
تسمح
الثلاثية
الطال
##بدل
التوقف
وشرك
##ديم
##جهة
لافتا
مطل
لوجه
المقبول
مدى
النمر
الغلاف
البلاط
##نبر
الوقوف
##يلية
هلك
استخدامه
سوق
##طبق
جنس
عقاب
##يره
نرى
##كرا
الجهد
درجات
سلاح
مشاركة
الفرق
بالدين
##ابعات
##ظ
##لات
وتقوم
مهارة
للسل
الفيل
سماع
المفتوح
المناظر
جواب
يرك
راو
لقسم
##صارى
وعندما
اتمام
الجسد
الموروث
##صرة
##اغ
وصفها
كج
تربية
تبعد
واوضح
حقوقهم
يشترط
##له
مرشد
انقلاب
بوق
المصلين
##وف
امارات
سليم
مناسبة
النمل
الد
الحجم
##ويف
وتمكن
رويا
حجم
با
##وذ
تعرض
الشيخين
بدع
##ايرا
السور
وصي
##ليلا
##وبان
معاليه
الابطال
ونه
كذ
حصار
اظهرت
بمقتل
مفه
قوما
باض
اختصار
طول
ارخص
المعظم
استغفر
غل
فرن
الكفايات
الاخذ
##يتون
##انيت
وتح
الجند
اغلبية
استمتع
##هوة
تصويت
واعلم
##اغاني
الاصم
الاصول
يلتزم
عوض
والنق
فاعل
المعنوية
كنب
##اذن
السلف
عندك
منزلي
والاحاديث
للاز
ممد
مشروعة
وقيام
هاهنا
الاطلاق
والامراض
العرف
اعطي
يريده
اتاه
##يدي
واسر
والكل
جلال
##الص
##حص
لافت
الطبقات
يعقوب
نوه
اتخذت
رياح
##رابا
المعتاد
امل
باتا
لعموم
##وزو
والذي
##رويت
لحم
وثلاثين
اوامر
تسلم
قهوة
التمسك
القريبة
تتكلم
النشرة
القاء
##ذري
ارث
طور
##لالات
صرح
القصر
والسب
اصابع
كقوله
منس
النهي
يسير
واول
وحب
سيبويه
تصل
##برا
المنتظم
المعدل
موقتا
مالا
وصفات
اعمدة
شيت
وسين
حاز
##كير
##سر
عات
اجله
##خذ
وبص
تفوق
وغيره
##هات
##حه
طلوع
وحالة
تكسير
ولا
بالتد
وامر
والث
ترم
عايش
الفرز
التي
##ستو
حسني
بالصح
الشابة
الزوجية
وضعف
بود
##جي
##يزية
الرا
العقلي
استطعت
##اسب
##افي
قليل
استقرار
المنفعة
##ولون
##ماط
الضعف
الرشيدة
دايم
الكاس
الموكد
السابقة
الكثيرة
بالعد
وجل
الحقايق
##ندة
نكت
الروايح
##شهاد
##يناف
المول
زعم
واولاده
حيوانات
الشمالي
الامد
راش
صناعي
واعلى
كيد
مليية
##بور
##واء
امرا
الجهاد
ناي
##لاع
المركبات
بلاط
الكتاب
ومايتين
جهته
المراهقة
##صدق
المنارة
بانها
اجنبي
صدرت
مطروح
##افل
مراحل
انزل
##وخي
الافاق
البياض
القاموس
قطار
مدا
##وعد
وام
تفس
للق
حاضرا
يمكن
الصلوات
رح
ليبر
##اتكم
واعتبر
ينت
كو
الترك
الجس
الجام
اللواء
وقم
ظاهرة
تنف
البلا
تخص
##ولة
علاقة
فالن
ليسوا
امهات
نداء
##اض
اية
##جبه
للاف
بيب
احد
يطي
قميص
ثاني
ابح
##شرح
والحل
للسيا
لير
الجنسية
##زنة
والصيد
العنق
##سكين
##قار
##سان
فيمن
عديدة
المنشور
مفروشة
ذوق
##قذ
او
والان
العقود
سقف
للجميع
السق
راسك
سب
المعلمة
اجور
تقضي
المحسن
وظهر
والمف
الثامنة
هاز
النقي
هامة
معدل
##غير
السكر
##ضاة
دام
للالت
##اطين
وبن
الموقوف
ات
انص
##ربوا
الحزب
بيوت
الانتصار
فنزل
الكرام
يحاول
##سرين
السبعة
##غف
عارضة
##اوى
بنا
##عمال
فالش
بتحليل
##وار
والتجارة
##ليغ
القسام
##سد
غني
المي
الامتناع
##ضمام
اجانب
تهمة
حديد
الحيوانية
دعوة
وماية
توت
مصالح
##قلي
نراه
وحق
##برغ
##حلة
ضرورية
المت
تظل
##واط
مغلقة
ناصر
رمضان
نف
عرضت
الوكالة
كانها
##تمت
##ستك
##بني
الموجود
فرجع
عمار
مشر
جاب
اوصي
لق
##ايد
اهله
القد
زوجها
شتاء
الوظيف
##عدت
تطلب
بالصحة
اطلق
اقبال
ولولا
##ادت
والتقدير
وفن
وقالت
المبذ
بالذات
كافيه
شيع
##فة
يفتح
##شتري
يتجاوز
انصرف
وهن
فبلغ
ليوم
المقام
##المه
باحكام
العبور
الساحر
يقم
قابلة
##عارف
الاسفل
##انة
يشت
يغيب
صعود
المغيرة
لين
العربية
##عيين
سفينة
##اتيا
حريق
مبر
والاتفاق
والرش
للعد
##قدمة
واتخاذ
حش
غار
المدرسة
تعترف
فالت
مواجهة
قبة
ويفضل
##ادين
ارها
بشان
الاسراء
##ثم
للاص
بترك
##صة
وهب
شقيقه
##راعي
ساس
وانف
مخت
الاسبق
العافية
##واض
البيضا
شو
نعود
##ايتهم
ودع
البتر
الوطن
نسال
الواحد
منعه
تنفيذ
الاتصال
ار
تصويره
##هن
##كني
حجاج
تنفيذا
يوما
غموض
الطايفة
قبلنا
الجذ
بمجرد
##صلحة
المقصورة
ووز
واثار
مرغ
بالح
الزام
##اطف
انض
##وسم
بالحق
شارع
اخبرني
تخرج
بزي
اغن
##زات
الصبا
يتمنى
الزنا
##ادو
فهناك
الرقم
والالتزام
التزم
واصحاب
فخم
سبا
##ذرا
الامانة
##فرة
سجد
برق
الستة
والعربية
لشع
وشرح
اقرا
ورود
##كاتب
بسيطا
##جه
معمر
بديلا
ضل
المرتفع
لذي
التخلص
##سال
الداخلة
لعدة
اعط
الحياء
الاحكام
لوس
تعذيب
فلل
القبطية
بالاد
##عاف
بمسجد
بشري
##وافر
بعيد
وحكم
وبال
العليا
مدن
وفهم
##ردد
والحكمة
التلوث
بسل
##هما
بالش
الاوقاف
##نيات
انذار
الحليب
عذاب
اجهز
قصور
بركاته
##اريه
باب
ودفع
##فرين
متقدمة
اختصارا
تلام
للدور
غازي
الضمانات
كروم
تبيع
المشاركات
واكثر
مسعود
عسكر
موافقة
##يمر
والبل
وانتم
المايية
##قاد
الخر
العطاء
انكم
دفعة
##قاء
مراجعة
الباني
وقلة
##نقل
##بول
اليتيم
##زمة
وثلاثة
وكشف
القسم
بصورة
المجيد
بطريق
##از
واسمه
المزرعة
ابتدايي
والل
ويذهب
الوالي
انساب
##وق
بالضبط
محاسب
##باهه
##فتها
##جاح
ينادي
الشجرة
ياكل
القرار
ساحة
السبا
ابنته
يولي
يخاطب
قايمة
المجلس
##ستاني
##بلة
ايصال
يلقي
ملح
الشريك
والدي
موطن
جاد
تفض
##حده
ماسة
دخوله
تجميع
##فاعل
سينا
مثير
الكيل
##جة
مسلمين
اضاف
وافق
المل
رحمهم
الانم
الايتلاف
التخلف
المعلم
بدعة
الشريعة
##ادرة
بيم
قولها
##عنة
عليه
##ادل
##ل
##ياض
##غط
الناصر
للك
قرش
ء
ياق
ملاعب
رهن
الصخ
زينة
بشمال
رتبة
بلدا
ماج
يار
##فف
ناع
لسد
الاقدام
اتخذ
مواضع
##وطين
يفقه
ينظرون
ومخ
ربهم
بشخص
المغربي
الراء
عدن
مثلا
لمت
##حك
وما
وحيد
المفر
ثعل
الكا
##لاوة
التربية
الموجه
وقيم
المادة
##قاله
ابوال
السماوية
وايجاد
استار
العلاقات
السماوات
##ناية
##قوبة
اتحاد
ايدي
##جميع
##يلات
##ليله
##ضرب
حقه
الض
مجمع
التقارير
الاطفال
اثر
حان
والعن
دري
اعياد
فوز
للتح
منفصل
التابع
##وسع
الرحمان
الارباح
لاحدى
والسلوك
موحد
محتمل
نوم
##خر
خطة
##بيين
##عقد
قاري
نقد
صان
لليوم
بالتن
النب
المصنف
النفسية
يبذل
والرعاية
الصداع
الراي
##زور
رستم
شبهة
تذاكر
##قاق
مدح
العن
##غات
اتي
##باس
بيك
اجازة
##ريضة
##راجعة
يستطيع
الذمة
ثمة
عيوب
الواضح
الادوية
العلة
تنقل
كثيرين
عرس
والتفسير
الفاتح
الاقامة
السن
ويعود
اعمال
معج
النضر
تبرز
سياتي
الالة
الاصفر
تحريف
المنش
لضمان
مناف
وعشرين
##ارتها
سحق
مطلب
القبيلة
الذاكرة
كاب
##واتيم
القاتل
الكتايب
تيمية
يمينه
فيهن
استطاعت
ترفيه
للرا
للاخ
العب
##ومها
غضب
ظفرة
النزول
بحمد
محتاج
بانف
العشر
##كله
الفين
راوا
طريق
بالنفس
التعارف
وابت
رت
##طيية
انج
##ناديل
السفن
الدير
ويطلب
يحذر
##راكب
##موح
يلق
والتنمية
##حقاقات
دخ
##ناح
الشرط
##حي
##روج
بمقتضى
قيل
زايد
اسوان
بكثير
يمل
صعبة
والبرم
اصط
لمس
الفح
##رايه
فيجب
المق
العود
بالمش
للزي
##شة
فعليك
نسمة
وتجاوز
وبعد
بينما
حلق
هم
مقتل
عظام
ياسر
المدني
يومه
الموقت
الرشيد
اجلها
##غلب
كورة
مستحيل
داء
##ثى
الاغنياء
سوء
ردا
##صفه
نب
انواعها
للذين
وتوجيه
لمصر
توفى
##فاضة
البنية
المزاج
الاقصى
##زيين
ظهرت
الكفر
##اديل
ثمار
حبل
الملاعب
مركز
بمصالح
الشهادات
تقد
القبايل
##يص
نية
عكرمة
بري
انقضاء
الكباير
##فاءة
ارادت
اجيب
جلي
معاينة
##الان
بلك
قامت
الملل
شت
اشكال
التت
المنطقة
##غو
صاح
هان
فورا
القرض
تقع
حمله
يافع
طبقات
مكاف
##خفض
مملكة
##لمي
الوك
السياسة
الايمة
الاستش
صقر
ناد
الك
للقاء
الاعم
يرغب
بانه
بالاق
الخص
المهد
يجدون
##اءت
وسار
##قطاع
الشعب
بايع
المزم
##صيب
ويمت
الشاي
الجميع
القل
وزم
الطبيب
ملت
غر
سوم
##ارس
بتنفيذ
والثق
شعبان
اياد
##لانية
##ودو
صناع
المقد
##امعة
يملكون
وظل
واقوى
##جاني
الكبد
مفقود
قنديل
وقتنا
بنصف
يشرف
الميز
العروس
##كتابة
القلم
حقيق
الاستبداد
والري
طيبة
##ادر
المعالج
والعنف
اقترب
النا
##جهل
اتهام
دان
تلم
المذ
ايمانه
غادر
سواء
الكافر
##ايلا
##وهم
للتد
التوظيف
للبي
اخبرنا
نحب
محال
عطا
مرد
الادمان
يدافع
وعد
ثوب
والمكت
اسرار
جنوبي
وتدخل
ومواد
الاقصر
للمرة
##امه
ياف
اطلاع
اما
##يلها
قو
##احم
بالص
ادار
ليب
حفرة
يقام
بالمنزل
بقرية
راية
الفقر
وت
ورف
##فهم
##سيس
بالمناسبة
البحث
يحرم
متك
تتح
بصيغ
مناسك
مجاري
##رعة
دامت
ادي
ياب
تقديره
الصفر
##شفت
خاص
كص
طل
تنبيه
ايديكم
نفذت
حص
رواي
استلام
النه
##داد
اعجب
ليلى
##اجي
وشعب
الله
الوارث
فقدم
بكون
الشهير
يكبر
##رام
##صات
وتقدير
لانهما
##غلو
اغفر
ركب
يرتبط
بينا
شكرا
برا
القبر
##اري
ساحل
صاد
البيت
اطول
الهدية
##انى
ومقاطع
تور
##ياتي
وجز
##بات
الينا
##فرع
اللفظية
اهلي
##جل
جوانب
التاي
العمران
والنساء
جدا
زوجته
المو
ناسا
##ضل
السادسة
بالل
فرقة
العبارات
حافة
فب
النفقات
ولديه
##خمة
تعلمت
لكان
نوك
##بلات
لرجال
رق
كثرت
تنشر
##ويها
متعلق
فسوف
##وصف
خليل
##اشية
كفار
الاخوان
يكونوا
##ضاف
##شي
الفية
شخصا
دينارا
اسناده
يقسم
وشرب
##وكا
بصور
حاولت
السلطنة
يستخدم
##انو
بارض
والوقوف
##يح
قولك
بالشر
كما
والفل
الاقلاع
نادى
موسم
مخيم
تحديدا
للخط
عشاء
والنهي
ظريف
بممارسة
##لافا
رمز
##حون
فا
اخرجه
اقصى
العظيمة
##يسة
كتابي
مضيق
وسر
حكى
المعصية
هدايا
##ياه
##دخل
يريدون
علاج
والرو
وصنع
عندنا
ضربة
حقايق
طيران
مقابل
العميقة
ويط
براي
##صاء
دار
داي
والجيش
وشكر
##وين
الشف
##ايدة
ثمانين
ونع
وكتبت
جميل
##كن
##تي
حذ
للخ
بع
فالص
المعن
الدخ
فلسطين
مجري
الموردين
سلامة
الالفاظ
ترشيح
طوق
العملة
يسعد
جيدا
##كوم
والذكر
مكتوب
الشرق
ثماني
ولذلك
وتخرج
اللسان
شهور
راس
##واجد
وبشر
شانها
والاختلاف
المومنين
ومعرفة
والتد
خامسا
وحكومة
ريا
الاطلاع
شقق
تعالي
عيني
بمثابة
وبينما
وشهد
ارتكاب
##قلة
المعالم
واتفاق
خيمة
ويسر
ض
مكت
المشرف
##كب
##دس
##اوا
ولق
موسى
تحسن
كنيسة
حذيفة
وسياتي
لكنهم
سط
##رداد
داعية
المطالب
المتحرك
##بدو
غزوة
حنيفة
وعلاج
لالت
##اكيد
الاهم
##نازة
الوجد
للس
ونزل
روش
يغير
والتب
غناء
ما
تشويه
##بتك
اختصاص
الدماء
معلقة
نيت
لنشر
نايب
مشروعا
امينة
منفعة
قويا
تود
للتس
عوده
يقال
المهاج
باستمرار
ضربات
الخبز
النظري
منكم
نفسه
##سون
فسخ
الري
##بد
لعد
يفضل
##وول
مكان
##وضة
مسيول
مصير
الغضب
مغ
الخادم
يعجز
فيرج
طراز
الحلبي
عما
هارون
ونظرا
##ودرات
القاري
التمرد
غسل
تا
وقف
بصح
##لم
محلة
##ارات
وصلاح
الممكنة
شامل
المطلق
العاط
ارضا
##وامع
اقارب
##صاح
تضيع
معظمها
حالة
##راع
##هاية
##الدين
##برس
باقل
ويشكل
ضعيفة
لاو
بارز
اصلي
القلب
العربي
السكري
##تان
المرضى
المكتوبة
##اخت
عرضه
ورحمة
##يبا
##كاف
تجربة
مستم
##ال
السايل
اقيم
فاقبل
بيانه
تقول
الحوا
لبل
نسيت
الفاس
##عون
##وروا
##وزن
الاحتمالات
##شية
تجب
##وشة
اعتاد
تبلي
ومنت
الداخل
غاض
الدايم
الربا
الشهور
البلاغ
وشكرا
##صر
##قام
ستاير
وعملوا
الاغلاق
يقتصر
وازالة
المعاملة
مبلغ
عينيك
الدعوة
الخل
##انس
##رشد
عرف
يخشى
تعادل
يلب
السيو
واشت
مسكن
##غام
معلومات
علبة
توثر
درهما
المسالة
تمرد
معص
ليح
انمي
بجمع
مصدر
##الب
##قدار
##حقاق
اللب
يتناول
المحفو
لعله
والقيام
العرض
الدلالة
تحمله
ذكور
##ايك
##رد
المخلوقات
ثقيلة
##ثا
مهامه
الوهاب
##ظار
المصورة
اكس
مكة
خاض
مستوى
التنازل
الشبان
##سيب
##دري
الباطل
حزم
نش
ينتج
##بها
##اهب
النادر
تجد
##حاوي
يوضح
التهنية
بالسنة
نجوم
لعلاج
وحض
الره
##هود
الابح
بون
واقع
رايعة
##ريات
حمل
بينة
اختيار
تسب
تبديل
توقف
نتي
صريحا
##ظل
فيغ
التحقق
##دو
##ريها
##بكة
قتلوا
ارتباط
##ريج
##ين
موحدة
الملي
لحقت
لاعادة
ومه
استراحة
##رجة
ادركت
##شور
الحوار
تذكر
ومشاركة
شرف
المخت
سن
وحث
ليتمكن
نسمع
متميزة
والاقت
##ذوفات
لاني
الحمراء
متاكدا
فقرات
##ذيات
##سمح
تنازل
جادة
نقلها
فك
يعكس
الحاد
حكيم
المصادر
تنا
ج
هذا
وصلاة
لحن
هدم
الباردة
واله
يفسد
يبدا
الولي
النووي
##واح
رعد
الرقة
البحرين
صباح
بعض
الصيام
الاقليم
التحقيق
وجع
##اة
الماك
وكف
يدعو
اشك
والاك
الشورى
اعيش
دن
العبث
ادلى
روض
اعدام
المغت
بحقه
الايتم
منازلهم
الاعتذار
##ركم
##فلت
تميم
وحصلت
المثنى
لاحياء
ايمة
الاحياء
##كاتبة
عبيدة
سدد
المجاني
البدنية
الاحرف
العبيد
الارشاد
الملتحمة
##واخر
##صرف
شاب
عمد
عملهم
##صه
لخدمة
ستر
الفجر
##يف
##يتة
ايمانهم
وزيرا
صحف
القن
##اقط
##ضان
التوفيق
##فتح
المهم
استقب
اوجد
الاجنبي
وصالح
تصرف
بغير
قطعت
تشهدها
بنوع
السمن
مقام
وتنت
الميزان
لاقت
تتحقق
جذور
فتكون
دب
للانسان
لس
السوداء
سني
##نتان
الافتاء
##غني
اشتري
مصطفى
##است
نظر
شيوخ
متعددة
مناسب
افكار
لرب
الثلاثاء
والعلماء
##باين
بالماية
بالث
وهل
جنب
زادت
الاستخدام
##طفل
القرون
والهيية
خصومات
بغ
##سي
الاهل
تغيير
ور
بضبط
الين
صالحا
المولف
وارت
والاح
توسيع
##اييا
تعملون
تدع
بقية
##وايم
قادرين
##روءة
وعليه
##اخير
##ترات
جاف
عقول
رابعا
سوار
عمل
صورة
جواد
لموضوع
الاخري
حاص
ترك
طلب
غطي
منى
صحته
الذاتي
##رق
حالا
مهاجر
##ناهم
معاني
##واو
بيتا
بتجربة
الحسن
للفق
تصديق
لاي
موص
والمسلمين
غاي
##ريك
التخ
للات
##كمة
اعتمادا
شيون
ترخيص
تبذل
الغي
الح
الاكتفاء
تتوقف
الرافضة
##نيين
روايته
زال
نون
استغل
اقوى
##ايف
اظهار
##شق
الحسنى
والحياة
يتوقف
معروفة
الاسكان
##زل
جدة
واو
##قون
لز
##يبان
وفضل
محضر
معنا
غزيرة
##غيرة
وطل
##يتو
بشروط
تعريف
المعارضة
فروة
مميزه
السهولة
فيل
النقدي
وحرية
انضم
ملابس
فتيات
عادت
للا
##شا
##رتها
اسامة
يشبه
الراعي
نقطة
مخرج
لوي
##ذرة
ويا
نبت
عيد
صور
قلم
مزايا
كب
##وحد
نات
العال
متت
تقدير
بقتل
بضعة
لجلب
##وحات
##ذار
عابدين
##يها
الاعتبار
حاجة
الصدقة
الاعتقاد
فرغ
##ابلية
##ضيه
ويوكد
الصاب
الفو
##جر
فدخل
##طفي
الات
راب
تفسير
اردنا
انك
##تمون
وجلس
بور
الدعاية
كر
وتعد
شف
الاعي
احب
ويجعل
نسم
السقوط
والمم
##هورة
اورد
ابليس
##اضة
وامن
فقالت
منط
عمرها
متاك
الوضوء
بيا
الشبكة
معمل
العامة
وايت
لايق
##بذ
ذلك
ركن
اللتين
رسوم
##اهدة
وسم
السلمي
الرع
مهلة
مقص
باننا
القطط
خالص
##ض
محلي
تعق
##غنى
##كش
ناق
##ايله
والتعليمية
النخ
التهم
##تبر
عاش
ومحمد
لغاية
والخ
##صري
##زى
##يق
ووا
##لهي
ويضيف
السقف
ركاب
تقريرها
الماضية
القاعدة
##فلان
امداد
فاست
التجديد
تترك
##يرات
اليهم
لاثبات
##زاد
جعل
والمول
النصيحة
لاجي
##عرض
سفر
نال
للدين
ميز
زمن
اركان
##ولان
المشهورة
انها
نعرف
صنا
##خاص
##بيدي
اطلاق
الباز
المرت
##ابل
حكومة
اسباب
موقتة
وود
اسلامية
وجد
حديثه
جواز
اه
##ظاهر
##لاه
اكسب
الارواح
مفر
ادت
وفى
نادي
##يسر
معلم
##فلات
فى
وبلغ
##وفان
وق
وصح
ينقطع
ويريد
##قلين
تصريح
شفر
المصاب
هر
ابراهيم
المتميز
متابع
واضافة
ايات
##ضرورة
##وح
اثنى
النفط
والما
الخبراء
المقدس
سرعة
المنتشرة
زي
صوموا
يمنع
##فيذ
تبدا
وسرعة
وتت
القبور
الغاب
##عكس
##وجي
لقاء
وفا
##فهوم
المحمولة
تحفة
جرحى
وحي
فيقول
##داث
تستقبل
تحرك
وسلم
والمراد
المسرح
فتم
التونسي
والور
##ابو
##يمن
النزاع
والقول
قدمنا
يروج
لكن
القيد
اتفق
باخذ
يوح
والثانية
السعادة
بمست
وبالنسبة
العريش
عبارات
بفعل
نفط
##يط
صفحته
الثور
##ورا
باخ
##غال
##فظ
بس
##شفة
ترويج
الكس
والاط
ماسك
تما
سيناء
تح
التركيب
لانقاذ
ونت
الطرا
طلبك
يستغرق
##يد
وصال
فقيل
##لاق
والثلاث
##سيم
العناية
##فوا
المسكين
الصليب
العباد
للمتر
تقت
ادخلت
القادم
اكون
##جات
##طف
والعشرون
لمست
واقف
الحاضرين
شعره
جانب
##بتنا
##سباب
يقاتل
اتم
عايد
نفسها
شمر
الضخم
الاحمد
##الفة
المراحل
اللوم
ومس
##جب
سترا
يقولون
##ذروا
تنص
ذوات
فضلا
الاصد
ومعه
وصحبه
##رف
رحمه
فتحي
##هي
يعد
والرب
مهمة
اكد
البرك
لعلوم
##فعول
الداعي
تتف
##عدم
##اثرا
الست
باداء
لنق
العيادة
ذبح
حماس
الذيب
المثال
نورا
رقبة
##اره
الشهر
كم
لسبب
عجز
تكره
طن
العقار
##طورة
خوار
يخص
منه
المستوطنين
الثلاث
ممتاز
##ام
قرعة
تتخ
قطعة
يحت
الاقوال
تعليم
بفتح
والصور
ليل
يغت
الاعلان
الصنع
##زمه
اصابة
الاخلاق
شفاع
للمشروع
بالطرق
انبا
داود
موك
جيد
والمساواة
##ولو
كثيرا
المتكرر
##طوي
نم
الظن
##طط
بسعر
خوفا
استكمال
يطلق
عبدا
##صلاح
##تراك
الفج
فاتح
##ديت
##ىء
سلطنة
وصول
فاطمة
القوة
العق
مولود
ونش
مثلها
ويك
مدع
المبا
كاز
الخز
نزلت
التبرعات
##بار
فنز
قالب
الصمد
المميزة
اسكان
##اصيل
الحا
جماعة
##اغية
يهود
يحتل
##اقين
الخيال
الصغيرة
عندكم
دفتر
الزخ
ويتحمل
تجلس
اجمالي
##نياء
##اليف
الغار
يبدو
بخ
##عتر
صنع
##ظور
##نيست
##داخل
مكر
الكبرى
احتجاجا
للان
والار
##ابقة
طلاب
ومعناه
ده
كام
##راز
اوله
مضم
وتوكد
رغب
الاحترام
مخصص
تبدو
حاكم
طب
العقد
المعتمدة
اخره
واحده
لتوجيه
يفنه
##اميم
وارتفاع
الانف
المستعملة
واداء
نقوم
الدرداء
ارتك
##يانا
ايد
بعلم
بمل
سلط
وبد
بتناول
يون
ذنب
ابنايهم
راسه
المخصصة
##كلة
ارضه
مصعب
وتستمر
##ديات
قبلها
يجوز
##ع
مداخلة
##الس
يزعم
ومز
نطق
عمر
##فان
جهاد
فهرس
الادم
حتما
حاجب
##يرا
السكون
شرحه
نبا
المنتظر
المحدد
المتجر
متوقع
والخوف
الحايط
الخام
تستمر
والول
البري
واتحاد
المحلل
كرات
بالبخار
كلنا
##رر
عندي
صحية
الاستمرار
حرة
الكريم
القى
كي
الانصار
امال
هزيمة
صفوف
تجم
فير
التنفيذ
##شيء
يتمكن
##رير
للمجلس
رسل
التمهيد
##رتبة
##ثيق
وبيان
غرامة
##خير
##قده
تامل
اثبت
ورجل
والعمرة
القيمة
الادوار
##فيز
##رفين
المتحدث
##ايها
##عاء
تبقى
لمادة
تكرار
##فيها
بارسال
تخل
والحركة
اعقاب
راحة
ثلاثية
##بيون
الكلمات
العرقي
لجمع
الحاضر
يخلق
اطلقها
التالية
يحمله
تطرح
العنوان
وعايلته
##كومة
رخص
##هادة
النص
الدقايق
العدوى
##طالبة
##وص
الاحتمال
سميت
ينفق
الباري
##رارا
الدوام
الريان
القبل
##ثور
وكيل
اعتراض
تراجع
رصد
##قاته
الصفة
الدل
لاكثر
الرسل
والصورة
والبيع
جريح
الرخام
مختص
##ومان
الصعود
يحتمل
النار
مت
وكثرة
##ارع
خروجه
##داي
ريال
الفكر
الباه
الشهرة
هبوط
الفاي
بالفت
استقلال
ارادته
البريد
متساوية
التقاليد
عمدة
جدوى
##قرا
##طاط
ومر
معد
المفاصل
##قاة
الغزو
توزع
يدعون
الاج
فجر
عالم
بالت
ترى
عمره
##قيقه
والحسن
الكلام
مكتب
يحبون
الجوزاء
والعلمية
الانسب
ايداع
الانتخاب
لاط
والصنا
##زرة
شعيب
كقول
توقع
الجزيرة
##ادق
محاول
وفرض
بعينه
يعطى
السكة
اوافق
##احل
##شوفة
##غض
اعناق
وول
اهتم
##وعة
ثقل
مسكين
واظهار
والاذ
الناس
امناء
خليط
عاجلة
##رك
والخص
##سه
لفتح
جسمه
##ابهة
قرا
يفعل
قاعد
##عاث
علية
ونرجو
الوسايل
بياض
المرب
تض
اجرى
الاعصاب
الالتزام
ذرة
امن
الرجيم
##وان
اوز
##ذان
اخترت
وفرق
الباطنية
##لل
##روا
صيدا
شم
##هلك
منافذ
توقيف
بانهم
##ظم
##سا
وكلاء
اصح
فعند
توحيد
المشب
##يع
تدخل
تث
القلوب
واعمال
جريمة
حز
جل
والحيوانات
فعلها
##كاح
وكتب
والحي
السمك
وزن
يقوي
واص
خيانة
البشرة
للناس
الفيت
للتاريخ
تجري
وبقي
البل
عذب
الذهن
غال
يحدث
##وج
صلاة
الباب
##زت
##لها
##يفه
اوفر
وانتقل
يجز
نتيجة
خلاص
وادخل
المستن
التوراة
##يرية
##تنا
##ريق
اتخاذ
وتص
##قع
##شفي
معلق
والحديث
الاحداث
ابرام
بصوت
مايت
##رابه
السنن
عشق
جريت
نس
لتص
يشغل
المعلق
الوصف
الرفيع
وبش
واخبرنا
الشرعي
الفضيلة
الحمي
للث
وبط
الانح
متصلة
للعرب
نهاية
الالت
تكليف
##ينيذ
بالمس
##با
الواضحة
ومكت
فهذا
##بى
مكي
المعتد
الطريق
التحول
##اعل
فج
##الا
حققت
زفاف
##نتها
محمدا
شبر
لتن
عي
##جمال
نبات
تصلي
الاهلي
استرجاع
##ياع
المتح
قبله
البشرية
ولكنني
الكرب
سهلا
حمص
العرب
الاصمعي
عاصي
##وسى
الموجودة
اكره
مدين
القوية
فرصة
##ايم
واهله
##لاص
##قود
الحاق
يصب
الاعتراض
مدرسة
##اموس
##قة
عقوبات
يمين
##اديث
وتوزيع
بالمشاركة
الغرفة
##راعه
##الت
الباق
##رون
##سيل
الانثى
نح
للغ
ماي
يعرفه
يمكنهم
لا
##ير
لعرض
نسبته
تشمل
الثنايية
الترجي
القنا
يخلص
عدوان
الموس
حب
حقن
اضل
يزال
الدماغ
لتم
يتقبل
تواصل
##صد
بدمشق
بمخ
دمه
اوق
##يزة
سوي
جليا
خلية
القضايا
##باراة
اطار
مخالفة
السرو
يحسن
وطنه
لبحث
##غطية
احتياط
نواة
فلس
وضمان
الاعشاب
قوته
كلمات
لحساب
البهنسي
وسام
التلاعب
القسري
قضايا
تبلغ
سري
##اسمة
ماب
ينطوي
بجايزة
تفاصيل
نمط
تحصيل
نتاج
يرضى
الضعيف
المتحركة
الشتاء
وسواء
حدوث
الصحيفة
تاثر
الاير
شيخنا
الاثار
نظيف
##حاكم
الفم
الخسارة
وحذف
يساوي
انتظار
السوداني
تقتضي
##تاب
للاصلاح
اشهر
##باني
زبان
للاستقلال
عندما
الاط
بمبلغ
باختيار
الاشجار
النظر
الاسراع
نصر
اثني
وغيرهم
##اطة
ينسى
عتي
التوجيه
ساكن
وور
زمان
جو
متفاوت
ابي
اقسام
##زايم
طلق
الانسان
همام
##ايتين
الموج
اساءة
للمرضى
الارضي
طبع
##لهم
للمومنين
مساحة
الزل
عاق
عاد
##قان
عدلان
##افظ
ينفذ
وحافظ
بنس
حراسة
##نيت
##ريخ
لور
الخطاب
سكان
##راحات
لدخول
قتيل
والاض
امد
##ليقات
وتط
مجهود
وعنده
الباء
العجز
مقدار
جي
وجوب
المتف
واجراء
خزان
##نابل
حكمة
ويص
##بوب
جعلت
وصفه
صراحة
توا
تق
الحارثي
يترك
نقلا
وعين
للتر
##وجود
##حت
قضاء
مخصصة
دراية
واعتماد
الثبات
التسجيل
##رافة
ذاتها
محله
##ايته
الخد
متصل
بلى
التوالي
##رت
ومنح
##كورا
وابنه
مناسبا
برعاية
نملك
القاضى
##فى
محمود
بلب
يرى
تتاثر
مشغل
ايلول
حذر
التعبير
تحسين
وحياة
واكد
##كتي
صيانة
##جير
كفى
كميات
بنق
واجتماع
طاح
##راحه
بتحقيق
الليث
ارواح
جند
الشرع
سرية
بشرط
بقوله
منص
حياتهم
امراء
النوا
ذاتي
احتيا
والبيهقي
##شاك
باني
حار
##حاث
##براء
للهجرة
كنانة
والت
والاخرة
اهالي
##هاجرين
كندا
لخ
وراي
الطلب
##اشة
بالمقابل
بصل
خلفه
تقتصر
بشار
##صرخ
رياسة
قير
##حقة
عليك
التميمي
رجلا
اللح
داب
باختلاف
الاش
الملايكة
اعتذر
##راهم
اريد
كان
المعتادة
وكيف
النكت
ادري
فبين
التاء
معارض
طوال
المدعي
بمج
كجزء
##غرق
بوز
##باح
والشي
##ازم
ديوان
صغ
تولى
ومرا
السالم
هاجر
##تيجة
##روعات
استدعاء
##قول
وفيها
وعيد
##هيري
يلعب
عاملة
عروس
الضمير
##راجع
بتاريخ
##جدد
مترجم
نوعه
تاي
##حمد
وهبي
الاشقاء
وعثمان
سيرة
التكفير
##ليها
القراء
فيما
اعضاء
الالف
حمزة
كلا
ربيع
اجابة
المترجم
الغاء
طالبت
لمصالح
مماثل
المتميزة
خير
##الام
##طالب
انو
فيجي
صوف
شجاع
سي
##يوم
البلي
الاعلام
نك
انت
المتاخ
عظمة
اتا
بالصلاة
بغض
والطيور
بمث
##نتي
بالماء
##ثال
##طالع
##فيف
##وقع
##وتون
احتم
عرو
والمط
مرتفع
لتوفير
##رم
محض
بالرياض
فايض
استقالة
وترك
يقلل
##نك
##يثاق
نصوص
والمست
لجل
اشارة
لاج
بنين
##جله
##ترك
وكثير
اباء
والسير
المرافق
مشار
##فتين
ومقر
والوجه
الجمل
لاعبين
استق
ارا
الخطوات
الهروب
##يمان
##كسر
اكر
عطاء
مكانه
الجسم
اليونانية
مطلقة
المشرق
فشلت
اعتما
##اث
مسج
امرها
بنظام
غدا
##ولينك
يلتقي
قل
يتد
##ايزة
مشهورة
ونن
الفقرة
يغلب
المكرمة
الاق
##رارها
الامور
جريج
الهد
ومختلف
للصحة
للمحكمة
هار
الذراع
##يرت
بالتس
المثالي
يملا
العسكريين
بسم
المتعلقة
الطرح
لكلا
سعة
فص
حت
الدهر
##اع
جداول
بعودة
المقا
العظيم
بقل
الكرا
بعرض
عاي
تحصل
الطاعة
الجيد
اللين
وينبغي
واخبار
##فين
##امي
##قيبة
طلبنا
بولي
ارجاع
التنفس
واطلق
##كنج
##اضي
##ران
##وسا
انيس
البداية
##ميلا
عرفات
تنشيط
الحصول
الطراز
وز
مومنا
جماعي
البدر
الصلة
##ابية
##ارتهم
والخبر
ويلي
احر
جايز
انطلاق
اورا
فق
وتل
تخاف
قصارى
ويمكن
##عيد
##جبت
تتس
بالعالم
متجدد
##قلها
التجارب
ونيف
العمرة
##وبون
تعم
باز
الجوع
بدفع
اسلم
استضاف
راتب
##كك
بسرعة
##صرها
التط
شل
للكتاب
##انب
اهت
هون
سلمة
##عراض
مشب
بالمجلس
##بل
الجلالة
##علاء
لوجود
بالنار
اخى
اظ
اشارات
لجان
##وريت
فانه
للخبر
حقها
ذهبت
وضعها
شاركوا
##حل
قران
الشقيقة
الثلث
##ريون
جح
بالقضاء
الاعداد
الحليم
##ضامن
التعليقات
خدمة
تراه
الرقبة
انتهت
الهييات
المفعول
رخام
الحبشة
بخم
منهج
احق
منزلك
حاضرة
بغزة
##ضع
بقي
كبير
سلام
المعدنية
الخطبة
ايبي
اللواتي
الجادة
ارجع
يوجد
الايمن
عالي
وعملت
يحافظ
##اخل
تقدر
وفوايد
##ورم
##غت
فش
##تحف
الذنوب
ادوية
##لمون
##اهي
وبهذه
تنوع
برهان
اعدادي
ارق
##طفاء
وقبل
وصية
كبار
تمام
النج
ابتداء
الاحمر
##فات
##شه
المستقل
مراقبة
يتمتع
السلطان
الوقوع
لاف
سين
الاكرم
واكت
بصفته
للفصل
باليمن
سمى
المثق
للقاري
معشر
##ابلة
##ريض
##بعه
انتهاك
##ظه
اكتب
##سلم
الحدود
الاوت
القايل
طرحه
بعضه
##تهر
##فاخ
النداء
بالخروج
ظرف
ربط
الزيتون
شعور
لمق
ومثله
وامه
بعب
معالج
##ورث
وزوج
ملكة
##وزين
والترم
الضعفاء
الثقة
رضوان
والده
الكي
ظاهرا
يبلغ
ليد
عداء
المهر
قلوبهم
البلاد
التسوية
بالضرورة
##وهام
خرجت
واذ
خلف
بالبا
ركعتين
وموضوع
ويلز
وكم
##لنج
##باع
امامة
واختلاف
وشكل
مسابقة
الراحلة
وسمع
العماد
حث
##به
##اصم
فتوى
والولادة
وبحضور
احسان
تحل
كجم
##نافس
##عج
##لته
كليات
بنحو
بقاء
##ايض
##ضيع
زاهر
دوريات
تفاسير
العجمي
الفاصل
لعلهم
للمع
لك
مصطلح
##خول
متعلقة
المير
معتبرة
##ورها
الزن
اللحوم
##نام
مرتب
التك
المفس
رافعة
ريح
والشعراء
##بة
يمسك
لتد
##رن
انصار
وكت
وكتابة
الوثايق
جلد
حاي
المطروح
##نبية
سال
ضوء
للاعت
لفظ
وبك
مازن
الهامش
تاثيرها
فكل
##عتنا
ورجال
يتب
يكتب
##حياء
عبق
الافضل
نسي
##باه
القوم
مثلما
اشراك
ضروري
النقر
فرز
لفايدة
يقابل
##بطة
اسس
المولود
##بهم
فول
##واف
المنشا
بصري
##غله
##هلاك
وسلام
##اعد
حقيقي
فح
الفتوى
لتغ
##مرة
واصلاح
يحملون
##رتهم
كرام
بالاعمال
ويقولون
شريعة
فليت
والحاكم
است
الاز
والمنا
مقاول
ياتى
##سبه
نهر
يتحدثون
اتش
##حان
الفاضل
العسكري
الخن
امان
الكوفي
محرك
##اهما
رد
عاشوراء
##بناء
الحص
##نت
اليهودي
##ايما
يسجد
الثمان
المود
لاب
احراز
اخذه
صابر
شجاعة
##بيعة
حسن
يتضح
شلل
##تز
عامة
دلايل
الاظافر
للصف
##خصص
منظ
وعدم
لغيره
الاعوام
نظير
اللغوية
##كريم
الجرايم
فضل
يرصد
المفروضة
حماد
المم
عنهما
قوية
##وري
قرانا
##عية
موس
مهد
ضيق
مجال
##مام
والبح
##اقم
##هه
حركة
حمدي
شباك
##سامح
##وفل
الصحيح
تقليد
شوا
المظ
المعسكر
وبعيد
الاضراب
باقية
اعمى
الفيران
واجب
فهذه
حقق
الافراد
يعتقدون
مفصلة
الافطار
احدهما
نعد
العو
لابن
فض
المصل
وبج
##يسي
اخيرا
##اسر
متنا
السلبي
##فري
فاز
مظل
فلقد
وذات
الملت
علاقته
يغلق
تناولت
العث
المسب
##غب
الزفاف
يشعر
يعرفون
الحنيف
يقول
اعود
تاخر
وتناول
لاعب
القيام
##ظهر
##بره
دموع
طالت
المعركة
المفتي
##قيق
رقص
العلوم
فاسو
اضطر
مرتبطة
بنفسه
الحصة
##بن
مرج
خن
انتم
ومنها
##تهي
سنه
وكن
نزاع
والك
فاه
##خار
معاش
##طيين
الطاهر
والرسم
يحتفل
سلعة
##بيرا
والنصف
المغاربة
وعدد
وطال
جريدة
كاملا
##لقي
ازم
التفاح
##ايكة
##خذه
المنظ
وتقد
متهم
سلوك
نمو
نعتبر
طرابلس
ملكي
##اي
النهار
##بث
##جت
توب
فالع
الهامة
رس
##ويت
بني
المسابقة
التدري
كراسي
علوي
التصرف
اجاب
##لزم
الشعبي
متع
لوقف
##حيين
لات
##عن
واز
##بود
تحققت
المساعدة
الاماكن
لع
والنقد
ثلاثة
المذكور
اغ
عدالة
للعالم
تران
بنسبة
العبد
السك
اقصد
قبض
##خه
##ذكر
المسلمة
صاحب
بذن
قرى
حرص
المستهلك
وسياسة
الذين
لوج
والشم
لله
يعيد
اضافت
واليه
##ونا
حيث
امثال
الضيق
والهم
التم
عميق
وتخلي
المامون
جرير
طلبا
##لمه
جرح
اسود
سف
المحافظة
سفير
در
##لي
مويد
مكتوبة
احصل
##من
##اديب
خياط
##انق
وكيع
جماهير
والمص
يكفي
حلب
يقدم
##يجا
الظلام
ايجابيا
##نتج
البصرية
جنين
ترتيبه
##حا
سريع
##حمي
وهد
العزيز
المزيد
دوره
الاصل
وجميع
##ودى
بنى
والخاص
اسلامي
محر
##صب
##امل
الوث
بالخ
يمس
توقعه
يرفض
والاحداث
##قل
اصدق
الاست
##يمي
والمجتمع
الطفل
##اطي
راد
تزوير
الحق
مصالحها
حي
نجد
فبد
##التين
انه
ولات
كانوا
ببل
حقي
النوع
افراز
الليالي
الانتظار
##ازة
يامن
معل
القراءات
الفتن
قاعة
ماجه
القب
مميزا
رسوله
واخ
مقالا
المقدسي
الانواع
المشارك
الاخيرة
التبريد
انتبه
وعرض
ونفس
اشياء
بقوة
تقصير
المواقف
استيقظ
نوعا
رج
##وفق
الحادي
نبي
خان
##جعل
بنقل
وضرب
اراه
توضيح
والاصل
الصف
فبال
للنظر
تزويد
عند
فاننا
##ساكن
التسامح
ومج
المفيدة
اكبر
العتي
##ايدي
مح
الجنايات
##جته
التبليغ
##لمان
لاقامة
ظاهر
كيا
التقديرات
يتعين
##رص
شهر
واللي
كرب
المتجددة
للاض
قدمتها
##وتر
البكاء
يجري
قلبي
زب
##ثرت
ونقل
احاط
الحضور
ببغداد
##بعة
وابراهيم
الاغلب
كحد
بيننا
يجمع
يعترض
يهودا
##ضم
##راه
هوى
الغذاء
منتظمة
تونس
ستع
##اصمة
##ربها
وقت
تجن
يزور
نشهد
موب
لوازم
##كينا
مختفي
تحليل
##نق
الكت
المنق
حيا
##رعى
مجل
##اعه
يعلى
يام
لدور
تقريبا
تجاه
##ياء
صبي
الاحرام
##عض
قطر
##ي
صد
##طبة
وطن
الشحن
##زاب
##كيم
##راء
لمدة
والاول
والقي
قاله
##اهنا
الحز
##ستر
منف
اوس
تقرر
لح
الحسد
فر
سهلة
##ايية
الاثير
##حو
##ذى
اشر
الصوف
الصدر
الملكي
بالتوفيق
##ديه
##غش
##فيا
فط
وون
علامة
يا
عرفت
سترة
خلفها
مسل
##نين
ايجاد
قبيلة
نقرا
##قايق
معقل
درجة
امه
ايام
كاتبة
والمق
بالمق
##صت
القابلة
قصير
مترا
##طها
نياب
الحرم
##ثمار
##ملة
بارب
وف
الهواتف
مفس
الجها
##دع
وسي
##رجاع
انحراف
سنا
بج
امي
بحب
الضيقة
قصيدة
خيارات
##ضاها
وجم
ادع
يشك
التعريف
مصاريف
المنصب
وا
لقتل
##ارك
##سام
تملك
##عاة
ميمون
حتى
بكتاب
عبده
بلون
ادوات
##نجر
ونا
الفاعل
المسلمون
المنهج
##غان
والفساد
اذكر
خريطة
ومالك
بشارع
موضوعا
لهم
##داوة
استخدام
##ركان
حديثا
يته
##ربية
اصابته
فكم
شرب
نصرة
وحديث
##فط
للتج
ويكون
بتونس
للمزيد
ربما
ابيات
##لكية
عجوز
هات
لي
##ورك
بنشر
انبي
التحذير
الاعمال
##ربيع
باللغة
وتوفير
##غل
رايت
تفقد
وغدا
الحلف
تحق
الحرير
##قيم
لعبد
##ريل
التراجع
قب
##غلة
صاحبة
الصيني
الصحاح
##اوه
امامي
ووجدت
مكانة
##قسم
##كسي
##الغة
الخفيف
تصان
##لوك
تعطيل
كتابا
التاسيس
شراي
مصيبة
الحمد
القمح
الالات
##ريجا
تطالب
حنا
ولكنها
العاشر
جميعا
الفطرة
اهلك
طمرة
كتابه
##نس
دلت
العلامات
##امله
حددت
تاخير
واعداد
الهادي
بتهمة
بركات
المها
شن
##خيرة
عماني
صنف
##حقق
مباركة
وجها
ونظم
فيا
اتقوا
الوريد
تثبيت
المغلقة
عارض
العاشرة
خطابه
ونق
التمييز
الصباح
القلبية
بحسن
وممن
##ايكم
للبن
##نج
##قيح
##ولاء
الدب
شين
الانبار
##شاط
جرم
وهم
ايقاع
صليت
اخي
تحدث
للاح
رحيم
الاصابة
خاصية
فطر
يور
المحر
لكم
عواد
عامي
بحسب
##وة
متح
القطب
زوار
للنق
##وبر
ايس
مايل
وايا
##ينو
حديقة
للمنا
العبارة
المقدمة
##وتين
يرو
##اتا
اجود
الوثيقة
##حيق
اخفاء
نقبل
بولو
##عبان
##ف
##نع
المستح
الاعداء
متوفر
روا
الطواف
الاكثر
الامهات
جمهور
##صف
لوق
##درية
رسولا
ونص
اقدام
الغش
نفوس
لان
الرحمن
وقدمت
المحرك
باضافة
الممل
وتغير
الخواص
بالم
السلفية
البحار
اخذ
والتط
متعدد
حشد
الرصاص
صوره
والاربعون
##هران
جنسية
ابيه
البيضاء
كربلاء
الظهور
اسراييل
الاستط
النافذة
مو
##كرين
اعادت
يرت
المارة
المعرفة
يليق
للن
حاتم
واصابة
ينبع
بزيارة
الكلاب
الر
باربعة
تلبية
ليف
خذ
انهى
##ويد
الحل
دينا
مشروع
المشر
##غرة
الهندي
ترف
الدقيق
بالصد
فيقولون
ولاية
العشرة
ابداء
##بب
تحم
صدره
يتحول
والظ
النفي
تضر
كاين
المصلحة
الترم
النبوية
ابدى
للط
##لمة
والقيم
قرية
باعادة
عسى
ويش
القران
عاصم
زياد
وب
النسب
الكث
مراد
معظم
المتد
انست
تضطر
مقيم
##لتهم
الصح
الناشر
نخ
مجلد
مساكن
سابق
ابلاغ
ديو
استمرت
لوضع
مشاركتها
##دون
المنزلي
تمثيل
##رفع
##اقة
بطلب
لهيية
##صالحة
وتذ
تاويل
التخلي
تفسيره
يهودي
عبور
##ختلف
توج
##رضى
الحقيقي
ويخرج
التشريع
##ثون
الثرى
##الاست
تحريك
الابقاء
متنوعة
قايلا
بوقت
الموحدة
##جزات
اذا
##غبة
ككل
ماري
وسايل
لمص
##وهن
الطين
##ثر
اسقط
تكفي
لعدم
مخال
للعل
وجهت
قايد
##ثق
خارجي
المسلم
ذو
اسحاق
المتحدة
مبت
وسن
نفيه
العراقي
يصنع
بديع
##قن
ساب
طال
ومسلم
بطل
فوايد
لوح
##زاز
كيس
فوقه
##فير
الحشرات
نسايي
بقلم
لاعت
شريف
والخروج
ويودي
لغير
فقر
يخفف
رحم
فخذ
المفتوحة
واستمرار
تستغرق
##خان
للفل
اجاز
والافراد
عبدك
العايد
راى
مثالا
##تبار
اثناء
اعطى
مراجع
ضرو
القرنين
المحلى
المتك
طبخ
الاجمالي
الوقايع
واهل
المياه
زراعة
يصير
عذ
وردة
فتن
تاكيد
جزاء
اضف
حا
##مة
الفيض
والطايف
دمياط
قدموا
ديس
فوض
فيهما
تقديمه
عليكم
##تصاب
الاستغناء
سيده
الكفاءة
والظاهر
عايدا
بقى
##خلي
الاوسط
##طلع
ورفض
القطيف
للب
والنهار
شخص
وخلف
فحمل
القفز
عروض
الفارق
افراح
يكتسب
##جرة
صحة
الش
المجاز
المعتم
الراية
المجه
والاست
بالاسم
سبب
يرحب
استقر
برد
قاموس
##رابي
الجمعية
خيال
وخفض
تشن
والتض
الايدي
##لس
##بوت
كاذبة
رجب
المدا
الصالحة
مغلق
المنخفضة
##بوط
الاحم
##صاص
نترك
قمنا
##ورهم
السعدي
امراته
الثوب
سريعة
اوقف
الدان
تعقد
##اليم
دونها
فكان
السودان
##ريع
مسك
سيف
ايضا
##وز
متن
للمج
اللقاء
فوضع
الكعب
##اغون
دف
##ود
الاجرة
##قم
يقرب
##ضوا
الناب
مط
خصص
##احف
باسناد
حافظ
رصاص
رز
مير
والخل
اخذنا
لتنفيذ
بحري
صدر
بعيدة
المضي
النظرة
برن
بيضاء
بدي
##ريجي
المهاجرين
يستمع
##بان
سبي
الموت
ومد
##قوبي
##صورة
##بقى
مكث
##نتين
##سفي
شرق
اشتهر
اج
وسنة
والمري
وقبول
##ثنى
الكردي
بايت
لماذا
ينتظرون
التامل
##ساتين
زكريا
وباس
شق
بمع
وقود
ولفظ
بينهم
البسيط
الروح
اسب
الاجل
بسير
##ذوف
تعتبر
صلات
نصف
##ظا
الخادمة
##والت
للف
هود
المنس
##طت
الحقيقة
تاريخ
اللحظات
استفسار
##خراج
بكري
بالقط
والعناية
##وليت
كذا
الفضة
##وفى
خرا
اللازمة
الاردن
هامش
والفلا
للتاكيد
المدونة
كانا
متقدم
ابى
العظم
يمتد
عندها
الوفاة
انز
وال
وبالا
##فيض
اجراء
##اقبة
اقام
##تق
واعل
لكنني
فكذلك
##فاد
##طنة
شعر
##داية
المرجح
##كريا
الاحتجاج
تجمع
تكلم
تم
نزع
اح
المهرجان
انط
حادة
التربة
ملايمة
تل
يتحدث
##اذا
بنفس
مخز
تكت
كون
نه
وبينهم
وخصوصا
بث
حنبل
##قتك
يقبلون
جدار
##علام
روعه
سيادة
وتصبح
الارض
اكراه
##مد
##وقين
الضعيفة
##ابلات
اوا
واعط
نخل
بانت
النق
غيره
والق
تعرضوا
قدرت
##مرت
لحالة
##صفية
##ااا
الاسعاف
شقراء
مقاتل
بالتح
الراف
سر
##ايرة
هني
وثايق
اعمل
مستمرة
الخيرات
اطعمة
تراكم
مستقب
##ثرات
تحية
غس
##واه
الت
يشمل
العادة
##رخاء
فحص
المترتبة
الز
##قدر
بالناس
بشبكة
البقرة
ميم
عرب
ومجلس
##بهات
حياته
ونقص
اسراييلية
واف
قاطع
##منى
وفاع
##ويج
حسنة
زه
نفوذ
المحترف
بمثل
المومنون
يعلق
المواشي
##على
وبح
استخ
##كلف
مكن
##اييد
الراغبين
اخطر
والعم
يدير
نهار
اخواني
التراب
اشعار
تعرفه
الذهب
##صفا
اخذها
##ابا
الدعوات
يرتكب
الجوز
بريق
لصناعة
انفسنا
افضل
اليسرى
##وزي
والا
قبلك
##لاء
طرحها
بالاخ
الاستعانة
قلنا
##ارته
فد
فهمه
بكل
الاكت
شج
تفريغ
سلم
الاخضر
##كاس
##جود
حاول
تمر
##ارا
يمثل
جهاز
الحديث
الالهي
مضط
فرش
كيل
ممكنا
نظرة
##هاده
فتفضل
انماط
لتحقيق
##ثه
محاور
العالم
جبر
##زمات
الجم
ينطلق
حدا
علماء
الفقه
المسماة
صفحة
##خاء
##ولك
الثياب
زلزال
زار
ونظ
المعل
شيخ
خف
الاسف
الخلي
مهدي
حقل
لكشف
غزال
المفرق
باهل
لوط
باحسان
بوس
جراحة
للسي
وتبدا
وبني
##خلص
الخراب
عقدت
الاول
الجيش
يعطي
الايسر
فمنهم
يخ
النقطة
رييس
المفهوم
ماض
##هرا
مشي
قدس
واحب
الضر
مبه
الدرد
بتعديل
##ذاكرة
اعوذ
الكرة
الشبهات
الذياب
##ريمه
يحل
ووس
ادعو
والارت
طوعا
جين
مرافقة
انع
الانذار
معروفا
نفقة
جا
لفض
##اطمة
النهوض
تدري
معلقا
تدور
اجن
عت
مجيء
امية
##ماغ
الاقدم
##ارية
لولا
بينه
نظ
##قيقة
##ادف
الاهمال
المنت
مميزة
حام
اولاده
المسافر
العامل
التخص
تحوي
ومضى
رابط
##حيل
الياسمين
الديك
وخل
والنسايي
عبيد
وبحسب
يذ
الحافظ
يلا
قديما
الدقيقة
القاها
الركن
قرض
المرور
اتفاق
تلتزم
حدثنا
الحسنة
العيون
الف
تجعله
بعثة
##وته
وقدم
بمصر
يمكنها
##ورت
##اجرة
اختلفوا
انثى
ينقل
##بتين
الاشتراك
الدوم
اتصالا
تكتب
كلمه
لاث
حرية
فاعلة
صلاته
بولاق
##ركون
سكن
##ايقة
حققه
##د
تفيد
##وده
للعلم
##فيه
##راعة
المعنيين
متفق
نكن
ويستخدم
كمان
ورق
توظيف
صباغ
بشهر
لانكا
وعلي
المقيمين
عزة
##بت
##ركه
مطر
##رس
ماء
ناهيك
وكنت
محجوب
اساليب
##جلي
وبعدها
والايمان
اكتسب
الانتفاع
الافت
الطلاق
وشعر
لباس
##وحه
بشي
الحصر
يشار
خبره
موج
وتم
##طري
##زهة
صمم
##ورين
مارب
الزاير
بالعم
##اصر
تراس
يفوق
انقاذ
المجاهد
تان
وقسم
وتمت
عساكر
البضايع
##ورته
القاهرة
المختلفة
##يبها
##فر
##همات
##ثمر
ببيان
بموضوع
##افو
القمر
والتحليل
##زاع
وتفسير
لعالم
وترى
بالمقارنة
##داة
##ملاء
بالات
عليهم
تعاون
الرياح
المحقق
وضرورة
فعلوا
يحي
الوف
قريبة
حرار
##علم
##سرة
وراح
##فلون
وعشرون
##وصى
قيمتها
منكر
يلتفت
حاولوا
وسع
##اءه
المستور
تك
##بيب
حافلة
للمغرب
للشراء
المطاعم
قد
نوح
لسانه
اللم
##فرغ
##بادرة
حبوب
الاتفاقية
والتطبيق
حواء
بحق
الحج
ظهر
ولكم
والحمد
##عمة
بعده
خلايا
متد
##يقي
العار
النقص
الامكان
النفاق
نصح
ذكرا
الحميد
##اهية
##ايخ
ومع
القماش
##كوس
يدعي
الحرف
مضاعفة
##تة
##روت
##لاوي
ملحقات
بمنت
المصرف
الاجر
وجعله
الاصح
##هاش
يختص
للملك
حبة
العودة
يواجه
##قطني
طه
شوك
اليات
##ينة
##ايق
المقيم
جعلنا
##قطع
الاصليين
اجنبية
##اعم
الحور
الكع
##اريف
استغلال
توصية
طبقة
##هنا
التجاوز
واسماء
الاستقرار
واني
مستح
سلمان
رمض
المسيول
والصد
اطلع
ابحث
النقد
وحتى
ودخول
بفضل
الاستقبال
##غار
مالي
والتقدم
يتميز
الحرمين
ويرى
النصر
بانواعه
##وهة
عملا
نحوه
##وزة
ويعرف
للمدينة
##سمه
زيارة
##لد
##ذاء
العوالي
##حته
خديجة
لاض
الزر
الصور
حملت
كسر
##زه
##سف
##بورا
والصرف
يرض
وبق
الجبار
بروح
حلاوة
المجاورة
##ليق
شذ
قايل
انفا
كبرى
##البا
والفي
الرويا
نظرت
ليس
اثبتت
والوصول
##ربين
وصلات
ايهاب
##كيف
وغيرها
والصحة
##قتي
لذ
المعاناة
شهرين
كلامهم
القياسية
والتمسك
ادخل
النقض
المحرر
##غد
بالمخ
ميل
وعلى
ترجمته
معا
فاضل
الاربع
فارس
يرث
الشت
يعمل
تحريرها
بحلول
حفاظ
طير
المذكورة
اليها
لحد
حالته
م
##بيحة
ونور
جثة
النبات
##ليون
ثقيل
##ادا
اثنان
مبين
توفر
وكلمة
القبول
##وافق
سياق
اشغال
وجديد
##وتك
##خام
##يانه
الاصناف
ملكه
ظ
##وفة
قتلت
الاستغلال
للاسف
##وظايف
انفصال
ابايه
حاضر
##بيان
الفصول
##عدل
##هاي
جعلها
الفرقان
الزبير
بمكة
اشته
المتوفى
##وفية
##تكى
ومش
الحيوان
تراك
ووصل
الطاقة
تتعلق
##ومي
ثمانية
##جال
العمى
##فضة
##رايط
وخبر
وبناء
نذر
انفق
انهما
القبض
الجماهير
##ضوء
تبت
وتس
الزكاة
عباده
##لث
الرهن
بالذكر
تغير
##ايص
ين
والمس
##كل
بنفسك
##وزيع
عاجل
##ريفة
لاهم
حراس
تعطي
##علوم
العوض
اوايل
موضع
بالمعنى
الكروم
ضاحية
وعمر
##بية
الدين
البره
ويق
عوضا
##رجع
اوبل
بيد
شبكة
العز
وطب
وافت
ستة
##راره
شهدت
وامام
انشد
##كيك
فارو
##طدم
نقلت
مقل
برب
##طوف
الاطر
ساي
بموجب
باسم
لمل
قيامه
جيت
##خيص
الكوفة
خطف
دجن
صغيرة
البسيطة
##ضيق
وظايف
الحبوب
##ايج
وصحة
الضربة
وانتشار
بانواع
هادي
ويضم
ووافق
##ذة
يس
والمملكة
##افلة
المعقول
##وتى
هريرة
لوف
##راة
المركب
شام
محي
روم
##الف
ليص
العقبة
ديل
جهات
ومما
لمرض
فشل
##طفة
المعا
عيل
##يعه
العاج
الصادر
المحتل
تغلب
زواج
لقي
##صيدة
انقر
باتخاذ
يرغبون
النس
الباقر
الجنين
يقارب
جبال
لهولاء
##بوين
للاسلام
الرضيع
اصبع
ويحب
خصايص
التقاط
تعميم
الاستن
البلوغ
##ابعة
داخ
للتن
قصر
نفوسهم
ضمت
شاذ
للسوق
##ابس
ممنوع
لطلب
والبي
خواص
امامهم
زبد
البياني
اقف
محل
قبول
التاكد
محسن
##ناق
النوم
المتر
نالت
جهنم
شاركت
وتعت
المراقبة
الناج
نورث
تصحيح
سج
سبعين
##رادو
الخليط
بديل
مرة
##وسعة
يخسر
الصحابي
للمحت
الودي
المفردات
لانشاء
السماء
هاتين
خرو
الوح
رعاية
فما
شرط
يسمع
برجاء
بقايا
##وغ
الخي
الطرق
بامراض
فور
##ايرين
قلت
ابنه
جهل
##اضافة
سنت
##فاذ
رابعة
##داب
##شوط
نوعها
اد
##لفظ
واكبر
خليفة
معارف
##ظة
##واحد
الموقتة
##اعف
الاتجار
حرمة
حدث
للر
وبلا
اللاحقة
وترت
بحاجة
##ايط
وتحمل
فواد
الانساب
ورفع
الاقسام
الاربعة
شقه
بسمة
فينا
للنقل
راشد
مليكة
##ويق
بالشعر
والعرض
##فيق
عمرو
بدون
والاسم
العادات
بجده
الياء
##ريمة
##اجه
##واهد
وله
فريضة
داير
العصافير
ازالة
وطلبت
##جاج
ياقوت
للدخول
ينجح
والحب
يان
واحدة
ولهذا
يسم
لسان
كوف
سك
والمسرح
العامين
الخالد
##هلية
عضو
الاعدام
##لك
الخليل
رشح
وثق
نار
##يطان
الخميس
الخلق
بارت
المعد
اساس
البان
قديمة
الاعمى
المرء
بالكسر
بتعليم
وقايع
مايو
التخفيف
وتتبع
بكتابة
##هاز
تول
##صيبة
##بغي
##واقف
##بالغين
احنا
تخفيف
رايته
انتشر
##وقات
الشغل
الغوطة
الزرا
النمو
للج
محب
ومال
##عه
جفاف
مال
وسب
##اك
استط
ويشارك
لاخت
شباب
وتمن
خوض
الوفد
اجعل
##ايتها
د
بهم
المصير
حجة
يتسبب
اتصال
##لع
ضي
##وكان
حقك
ازهر
يسي
الاصيل
الدينية
بالو
المرشد
خضر
يمكننا
راسها
انعقاد
الافصاح
ايمان
محتوي
##فعات
الارمن
##عدد
غذ
المحل
الخلف
بوك
##يهما
ادخال
حلال
غيرك
ادعاء
يومها
انب
بلفظ
كريمة
##روب
مضح
##ياغ
##ورخ
##اطية
وايل
الباطن
مقط
لازم
مضيفه
ضم
##ارتي
قبره
وجعل
اعماله
وهي
واعد
##خيم
مربع
دل
اشتراك
دارت
بمت
والروح
عتق
##لن
فالق
للار
متخ
شراء
طاب
وهذه
امس
بتاتا
الحول
حسان
مواف
الحضري
واصبح
الاجن
لذيذ
ترق
جزييا
هيا
تذ
اطر
عقار
سرق
العمال
وروح
اضخم
المحج
اللام
قراءته
يصاب
لصوت
بند
فاجاب
ترو
تحولت
تمت
شرعا
يحارب
يم
المذاهب
يونس
ارت
اتقان
سعادة
مختلفة
##كنه
الاوزاعي
للمس
المحام
والمتم
واتخذ
وكل
الصناعة
الفردوس
مسايل
نجاة
خاطية
##شاد
##املين
حرارة
ركوب
ايه
يوفق
مشاركته
يات
عبي
كن
زعيم
##ياتهم
صاب
السلة
تمهيدا
##يزا
انا
زم
##عده
يستقبل
والاعتماد
اخط
يحظر
##سابقة
##ايغ
##وطا
بعضا
عليهما
الطول
الدولي
الشاهد
يتوقع
امرنا
يسمى
التن
والبن
غض
المدنيين
بتق
محيط
وورد
##اتف
عنها
لاننا
الزراعة
تراث
خطر
اخرج
يضمن
قال
اشترا
لاش
سيره
المعلومات
تحقيقا
لاعبا
والوزير
##حيف
##واة
حينما
ضمن
المتع
التشري
الهند
##ست
سبقه
##ونت
##قدين
يعتبرون
##تد
سرد
الرص
##حتنا
معي
فنية
الدواجن
جماع
غرس
اديان
##يوبي
##قدة
الصعيد
صباحا
اليمين
ها
ث
باذن
باي
مخاط
فانهم
التفصيل
الطبيعة
##ورون
ولكني
الهضم
والمحبة
##واضع
الفصل
الديون
ركز
##ادي
الصع
##هوم
بالرد
بلج
مايدة
##ادى
فضلك
تعط
##ارت
ملي
احت
البيهقي
##رقوا
بامر
تتبع
والاز
قالوا
بسورة
يصعد
ووضعه
دعاة
الاقرب
فكلما
الغريبة
##قي
فاصبح
سنية
خاطر
##كام
##ش
##شو
يتعدى
نفقات
رمى
النحر
##طيل
يدخل
اولياء
البار
الحنبلي
الاجتهاد
يحيط
فمات
الاقت
الابت
##زج
والولايات
النز
الالم
##لخص
##شرا
تصف
ينتهي
##ضر
##حدث
يتاثر
يسهم
يزل
هروب
الدفع
السبع
هز
متى
##فاوت
صاحبها
##طح
الاعمش
فعال
احرص
التبرع
المرك
وجهات
الاجماع
النحل
ويغفر
نصل
المدخل
##شيش
المبدا
##زية
الباحث
وتبقى
روح
مخالفا
متسا
يعاقب
الفواكه
بالاعت
ويصل
بدم
الهاد
##شاق
المختلف
جاءه
رفيع
العبادي
يرون
للاج
##والب
##ابك
ثانيا
المحافظ
##طة
##الاد
تنطبق
يفت
الشروط
الاولين
##اربين
مشترك
فتحة
القوس
الخلية
والشعب
الفي
حسابه
انواع
سره
وحقوق
المبذولة
الاوف
الوسط
للسنة
الدال
بسحب
يقرر
الولاية
المشت
صوتا
المربع
للانت
##لال
لغوية
كاملة
هواء
يغفر
والاكت
##اضى
البو
فرسان
المعنى
الوزارة
##يار
حارس
متفاوتة
خطا
قانون
ومتى
نعمان
##افا
##بش
##هر
دين
##وية
بانشاء
##رسول
الديب
##ريين
عبدي
ارباب
يك
تراف
##كتبة
ارو
معينة
##متع
مستقل
السوق
لاحت
الاحزاب
بعدم
##صره
بلم
والاغ
تتكرر
قدرة
والامل
وان
##فوذ
##دوري
تسع
حدثني
يكلم
تتصل
صال
لنفسها
باكثر
قاتل
المعاملات
فرج
مشارك
##وش
التغ
الحان
ستار
مقاعد
محلل
ومنه
##طاع
##وكل
للخروج
عددهم
##يعا
##صى
##نته
احرار
تلقي
##ج
اقص
عارف
##شل
روضة
##ذاهب
والتعاون
خلال
الشير
الزب
شديد
النزلاء
##صاد
الكرسي
زن
وخاص
امري
تموت
المعارف
للاحت
الشيعة
مصرف
الالوان
غذاء
والمد
تصبح
##هلا
فالامر
وشدد
والصناعة
والجودة
##عدام
ويذكر
نصه
الفتى
مسلحة
كاج
غطاء
##كيون
لسكان
وتوفي
##وايه
المتوسطة
##جاع
السباحة
ولقد
عرفة
حازم
##الية
الفخ
بحياة
شرطة
الترق
رابح
والموت
المسك
يسود
قري
وبات
المالكي
ولدا
التجسس
نجح
الطريقة
صحراء
يث
##يمين
البلدان
ذاكر
ينبغي
مختبر
يظ
تاجر
توليه
الهلال
وعايل
الوحي
ثلث
والي
بالا
الجبهة
##شابه
##روش
##شوا
الاعظم
عادات
الجناح
تستفيد
سنويا
المسموح
المحاولة
اتبع
الحمل
اسم
##جم
نظري
السلام
اشع
تداول
صمت
للته
##طون
الجنة
اليقين
خضراء
لمنت
وزير
##ذه
##افات
وعاء
##خيل
وانزل
وظيف
تري
وعاصم
اجتماعا
شملت
ابتع
جس
##ركين
مشايخ
واتبع
وجهه
تحالف
لمحمد
يدخلون
##ويح
هديه
لعب
##ثلي
هدد
الميداني
طاعة
##زمون
كاي
بلدان
##سيا
يجيب
والدعاء
حكومته
بالصوت
اقترح
فرد
مضحكة
الاسعار
##فق
المخل
حصوله
وليا
يدعى
##يم
##تمع
الشق
القصيرة
ومص
##وعات
يتردد
والقوة
##ديين
والاتصال
ومح
ليت
طبيب
##اوي
ولايته
##وازم
مش
فيجا
##قدات
##كة
##منت
اثبات
تعبر
##ثلة
الرمد
اسيلة
بتن
##كنة
تف
##بوك
يحزن
الحادث
الشرك
وشر
قس
مسار
لينا
قتل
##رحة
الجذب
انق
اتباع
ليست
صيغة
سبر
اعداء
يشتبه
مواقيت
##سيات
درعا
##بح
خصم
يتخذ
التعليم
##واد
وقطع
العدالة
صدا
##نفذ
البقع
عراقية
##لفة
يخل
ساك
##ات
الال
ونب
تتوفر
السف
الطي
##اءة
معيار
واليمن
الغنية
المكت
اثرا
##بس
منخفضة
العر
يحن
والسن
للجسم
توجيه
الارتباط
بكلم
واضح
##وركا
الليلة
زيتون
حجز
ودر
النحو
ومي
عز
##زوي
##ظير
تضاف
تجرى
كفاءة
##جدي
علمنا
بلي
الاجابة
##فال
الانجيل
حفظها
##خور
الشركاء
##طا
##وارث
صفات
قاد
نقي
عقله
##ساس
الدمشقي
بغيره
دية
الوظايف
##طرح
تنسى
للاخبار
والرحمة
والمقصود
نخرج
القريب
اصوات
##وه
بالبحث
##اينا
ياخذ
##ارقة
منازل
البقاع
الدش
شكري
استر
يخلف
خطبة
بالعين
مركب
المصلي
##راد
##وانب
والامام
تقر
الشم
حصرا
علينا
ليو
ويوجد
يصور
حذف
##وعه
النبا
##ولي
السلاح
##تب
والمعرفة
شبيهة
سور
اسمع
وضعه
تهيية
مثله
كبيرا
عمري
وقتا
شرا
##طنا
##كلام
بل
مشاهير
##دن
بجانب
واحكام
والحرية
مذاهب
ليم
وكانها
فضيل
##يهود
الذكور
خلقه
رو
دريم
وبعضهم
يصلح
حية
وشباب
اني
اخذت
##هيية
بابل
##يتنا
بالس
طبقا
وسيط
##يسا
بيل
##خات
الملام
العمق
اهتماما
يوافق
وراى
عدت
يطل
صندوق
اقليم
معين
درهم
##قلاب
##هور
##ايو
بارتفاع
تير
نبدا
قاضي
المك
شهرا
بشركة
والنظام
##طع
التحية
##دمة
شهادة
فسال
##هول
العراقيين
معاناة
حاش
عباس
والاحكام
تعجب
##سل
المتط
انقل
ومرت
نسبية
السفلي
##كشف
يفيد
جوز
حيز
الصل
##زول
المدم
##لقى
لادن
الدفن
النظ
موافق
ثمنها
النسيان
غلط
##مم
##خم
تغيب
##باغ
ترون
الحسني
##ه
تام
لبيوت
##يفا
رغبته
ملاح
##حاء
القص
ملايم
العقل
الاتفاق
خاش
اعرف
##يران
طفلة
مصاب
عنا
السماح
لثلاث
الشهيرة
واحت
الموارد
غلاف
ترجمة
الاضحى
تشكل
والعص
يقد
فع
السمو
المستق
انقذ
تنشا
العايلة
##وايي
سرير
واخر
قام
##كاري
وقب
البق
والاعت
##صية
يهتم
قناة
سهم
المهنة
الرييس
وحل
للبنات
سار
##غرب
هما
سكت
يتفقد
وافضل
مراقب
بجد
##روط
سمرة
للاعمال
##ث
والجمع
محت
اسنان
##ادنا
والكتابة
وتنظيف
عدوا
##اس
الشكوى
##شر
لجعل
والحك
المنذر
ايتلاف
اتل
شاهد
الاسم
تامر
الحك
##كرير
##ديث
شع
شاء
العمر
لبس
نكون
اذان
##واجه
##رجل
العذ
##ثبيت
شاف
السيد
مذ
المرع
كافة
قديم
قم
قاب
للمص
بالعلم
##سوف
التعليق
المجالس
قيامك
##كسون
فوج
ترين
للبحث
للاغ
مظاهرة
ثمنا
الجهة
تبارك
##جاة
بتحويل
رفعت
فلسفة
##حف
##وايل
##ايع
عميل
##حية
##ناع
مصالحة
الرعاية
سوالا
##ياطة
هول
بالجملة
فقدان
وسبعين
امم
داخله
##سنة
نصار
##رقب
الاعيان
##عاد
والاحياء
##روح
##وتة
##سكر
الواف
حصلت
تكمل
برحم
تعين
النجار
ويسمى
وصفت
مجموع
الخدم
##قوم
الفات
##وافل
الاصنام
فعن
مسن
حكاية
المتهم
افهم
الكتيبة
للمل
انطلقت
مثبت
الكل
##حمر
وتسليم
عضوا
##بيد
الحكام
لمثل
الساكنة
محفوظة
الجفاف
##بيوت
##ونك
##ديهم
الظاهر
اتق
يصدق
اختلاف
والرد
الاعت
تقي
روى
للاست
الصايم
الزم
مروان
اعرفه
التسل
يكذب
##ثات
تثق
احتياج
السيوطي
##اجل
موف
##بروا
باه
نكاح
المتقدم
والمذاهب
جيوب
##الد
صفا
حط
عام
##فاهم
لزم
الضربات
طا
فنون
معروف
الحربي
يمتنع
فتحت
امتنع
##مينان
التصحيح
##دينا
مرور
الفن
مقرا
##ضلة
المميز
فاعلم
لاداء
بقدرة
تاف
انهار
التضحية
صحيحة
استشهاد
المايدة
##ح
تاج
التوك
الدجاج
الامت
##طلب
بمقدم
نفخ
الليثي
للاد
الباي
كمية
عياش
##اليل
يف
##ما
تتمتع
##فش
صحيحه
##ثري
للاخت
المجم
خفية
المدة
موق
##ادتها
الاخص
صياد
سيخ
##اه
انهم
الجل
صواب
شابه
البرية
يقوم
##نعة
القصة
موقعا
نام
لتت
مختلفا
صن
السود
بنت
قبلي
عشية
والض
فان
بيت
##وجر
الوداع
الاشارة
تصريف
##عيون
وحدك
وفريق
الزق
الكر
مريية
##غداد
ولكن
##شرع
##ريش
##ظافر
الاشخاص
##ديقة
حبس
وفك
الامثلة
الماج
وصدق
بقضاء
مستقبلا
الدمع
##وله
دايرة
##كم
##درس
حليف
تركيا
##ربى
يجعلك
فحدث
##سلة
##الين
##طلاق
##جزة
عملك
كله
##ضرر
البول
المدينة
وهذا
يامر
##اص
##وتهم
المسح
والاعمال
الس
يقود
القدر
يص
خاطي
##امون
والقواعد
##اهر
الامة
##امة
##ساوي
الحسين
المرف
وقتل
لرجل
وبر
الصرف
ياز
بضع
##ونهم
الجديدة
لهذه
عمود
ميون
وعص
الزمن
والتصوير
يدري
قبلكم
الاربعين
زان
نوى
البتة
تتعرض
الفرد
المشتركين
العليم
الرمان
الجديد
وعلم
ادق
تزوج
وقال
والصحيح
اليع
الاندلس
للتعبير
يسبق
والعل
الحرب
بلس
الثامن
يحظى
وجهة
غريب
ظله
يجتمع
عد
الاربعاء
التعامل
الاسدي
فضايل
##فعا
فيمت
يرج
وعلوم
اتباعها
موجها
الرمضاني
ورس
يدك
تختار
تد
يستعد
فهد
##ادة
##ثة
عايلة
المومن
منقولة
الحفاظ
ليث
والدين
شهيدا
والصل
المنخفض
##اعب
اث
القادمين
يخلو
##ضت
يتحرك
للحق
شريكا
المدير
الرزاز
التاسع
احدث
يضاف
مرحبا
فاسد
الخاصة
##شرف
##يتا
##افع
وسبق
المدي
النصب
للمق
رافع
##هدف
الرد
##هل
##قبض
##اجا
تن
اعتبرت
وفر
فعلية
##رفي
كف
الدرجات
اجد
دورية
رفيق
سقط
فقرة
حم
مشاكل
القيود
ذمة
بانني
رون
وسبل
اوف
نظيره
سمو
وفاته
وتعليم
الشان
الفرح
متر
الذرية
##قاص
ومنا
وعند
للتخلص
المتنا
معاقبة
نفسا
##دان
تو
فقال
عددها
اجمل
سرت
##شت
هي
فوق
##غول
مطا
فارغة
مقنع
المخدرة
نر
المساء
العقايد
كرد
والترمذي
قراء
##الهم
##قلون
##هورية
##يفون
والص
ببعض
وثلاث
الاكل
##احة
التما
##اتك
الجامع
##انيا
شغل
شح
نظمت
##لز
##وذا
حالها
عطية
##عدنا
المسالك
##فرد
ديب
ثروة
استد
والسكر
سبح
ضحايا
المصالح
جهة
##وراة
##افير
يتصل
موجه
كالن
ماهي
محترف
برف
مخزن
وشروط
طالب
الموا
انتقلت
شي
سوا
ورعاية
المخصص
ابها
التصديق
والنايب
حجازي
وصلى
##بر
المرم
الشاب
الفعل
##واتر
حريم
الوط
ن
##وتي
تراب
كمثل
لذلك
محق
كفر
الستين
الماز
الوسطي
##جزية
الاستدلال
عملها
##جرات
الشعار
الرك
التامين
فتح
بايات
##ثلا
اهمال
الفقهية
تبني
الشاط
##وسل
التج
البلاء
الطايف
الغالب
الصي
اجراها
##رح
##فضل
موثر
##اصي
السعي
بلدنا
##ني
##باي
الاخرى
امكان
##فيد
تعدي
الالهية
##واكه
قلوب
المسجل
وصلنا
حنان
##مان
تحتفل
لبي
سابا
ستجد
مرا
الاكو
##واحل
النبيذ
الافق
المحدود
والمت
عادة
تسهل
قبلة
المحاسبة
التكم
تعليقا
والزراعة
##ريد
تضم
الاصط
وبالم
الجوي
الرجال
الم
منش
##سك
واصحابه
عنق
تقل
الغذ
ماتت
دفعه
يرف
المتوقعة
متابعة
زيف
دقيق
وبدء
مكعب
الصادرة
باسماء
عامل
##رش
الاستماع
التوقيت
احدا
سح
روايع
معتبرا
واط
الصفحة
ليع
للاعلام
الحلو
خلل
تزيد
يناقش
فقتل
وقلوب
راي
والش
ماخ
والاس
معالم
بقصر
##مسك
والقى
اليكم
ير
ثقب
اجتماع
##ذية
##وكد
تاجير
فرحا
برم
سهيل
##تال
نبينا
لحظة
ساله
جزءا
##كث
الزايدة
صلوات
فنقول
القسط
المخلوق
انجل
الجما
واعادة
##شان
ري
اخطار
وضوء
قط
بصرف
دمر
##شقي
نافذة
المحتاجين
شقة
ناه
حكام
الوصل
ساج
فراى
وخلق
##الات
الحالية
##رفه
رمي
الجماع
##زو
والفلك
المصحف
اللد
واشار
لحسن
ينس
ووال
##ذ
تجارة
وبركاته
نمت
بالن
الدول
صب
##اربة
والعروض
الفوز
الثواب
قطري
متش
وانشاء
سفرة
كونه
اقول
الرجل
والمومن
قدره
ميلان
التنا
الانباء
الارسال
فاص
##جاوز
اطلاقا
والته
الموب
القناة
بخلاف
##بوا
تليق
##يبو
ومنع
ولو
المحاس
تشتهر
والارض
ولش
الشبه
الراوي
الدع
العابدين
الرومي
غيرها
لغات
حادث
ويخ
##جوي
عاص
عراقي
##عوذ
مكافحة
المعاصرة
المع
ومن
حزين
##خالد
##هرات
حنين
بنها
##ابه
الفاش
دعوى
عراق
##ريم
وافراد
نادر
الصافي
##تكم
استون
غم
تفضل
المش
رش
##افضل
##حاب
جسدها
اربعين
عماد
الشباب
ولعل
واحترام
ليصل
##طره
هاد
##امد
التعب
حبيب
جوايز
رمان
مفتوحا
##شير
الجري
##شم
##يمون
كع
وكنا
اص
الاولية
##كنا
امامنا
##داه
وتر
##ظلم
##ففة
للسفر
اضرار
محدد
حضور
يحوي
والط
الاس
الوتر
وتوسيع
##اما
التفريق
تسجيل
##تني
##ندت
الانكسار
المدر
المخرج
والبرا
رايه
منها
حقهم
الاذى
الفايت
قالها
زهرة
ابر
##جهيز
صفقة
يتحكم
رسالته
افعال
ثلاث
##الح
تلاحظ
العجايب
كتاب
تع
الشريفة
وحيث
فلن
منزل
النقابة
والاع
يضر
##ليين
جذب
لاطلاق
رومان
##ليا
المدع
وسهل
المستحقة
غزو
لزي
لصاحب
##جاد
بدت
يقضي
انظار
وقفت
##ليز
الرت
مجالا
انفجار
يربط
جرى
المخد
الرابع
الاستر
بحفظ
##الة
ومثل
##راس
القليلة
##كبة
##يزات
القصد
عقلية
حصول
طرفي
##علك
الارج
اتباعه
##ساني
استحداث
##راش
الحدقة
اسما
القوي
كار
المالي
الفخر
نشات
التقسيم
عنب
الحذر
شعبه
ايمانا
صل
فبر
نظافة
الاستقلال
لحوم
الطايفي
بدور
رب
هولاء
النصارى
مطبخ
##تداء
اعتماد
دست
##رث
المطلوب
يديه
اجماع
##حتهم
واخرون
وتجارة
التوت
والاخبار
وسيا
تكن
الرتب
يضيف
فوري
وبين
مذكر
الفلا
دي
بالامر
الشوك
مزيد
عاز
##فتاء
عصام
كوس
القرانية
اوي
مرت
خلاف
وحده
انعم
صعب
##ركت
##طيها
الية
الما
حميد
تواض
##يتكم
##غاة
املاك
خلط
المط
بدخول
الفلفل
عهد
بك
تحرم
##باشرة
##هير
حلو
بالسجن
فارسل
الدرب
##رافي
تريدون
مدف
اقر
ويتضمن
مضادة
تزايد
البص
دفع
##وبة
للتف
يشاركون
المشايخ
##عوبة
القصص
الاختبار
هدى
الاقبال
فقد
##بعث
##اديه
جدير
دلالة
بالقوة
كانتا
باتباع
الاد
للح
##لبن
##طبع
لته
سنان
يتعرض
الموض
نظرا
تعدد
يشرح
نقض
##رجال
مستن
اشراف
معلن
##وضية
ميثاق
##اهده
##شيان
الاشع
عاج
الاحتيا
##كلون
مجنون
طم
تبوك
طريقة
حامل
##رفة
##ماد
لليهود
ابدا
يوصل
##اسا
امين
##نية
باله
##حة
وبذلك
القول
وفقدان
جميعها
الخوف
يشتمل
الابنية
وعمل
##هرام
الديانة
ودي
الانظار
##روري
كلاهما
##بعد
يودي
الغس
والحض
تخلي
ودون
##الن
اطراف
هام
فيمكن
جمعت
الملك
المكلف
##رفت
والامر
طرح
##امنة
كثيرة
وحكى
توقيت
##قتل
ست
التقديم
فرح
ووجود
اجهزه
لاية
حربية
##مادة
يدفع
تارة
مقرر
وتك
فالح
##يب
الخيل
المشتري
العض
##خاير
##الحة
المعي
منتظم
حيال
اللوح
سبيلا
الافتتاح
##واتهم
الديني
ينف
الجزي
##راث
طاي
والعت
المغرب
بير
الاشرف
بالتش
اعتبره
لفت
بالسحر
الق
الجراح
السج
ذر
##فران
الزوج
السرير
يقصد
ودية
عفان
والتن
يحول
الترجمة
وسط
تومن
ولين
للصور
ضيقة
الرواة
تبعث
الراج
كتابته
##ليني
يتحقق
حماة
شفاء
باف
الل
الوحشي
فرق
قوي
اعتق
والات
بالقسم
حادثة
##شيه
مار
فهي
المار
الوق
القبة
##ياطي
التاج
الكمية
##نون
وتجهيز
##بطت
وتدعو
التقى
##قاسم
وياتي
وهو
ترتيب
متاكد
الجلوس
ولي
يتن
تتخذ
البه
تفهم
لعنة
عاط
مقدما
##شراء
يعتبر
تعاطي
عطل
المشحونة
التاصيل
تقود
##لكات
فذكره
بالطريقة
كال
##ياة
ورايت
اتينا
##يو
الشرح
العقرب
##لاك
##ثني
##لاغ
الامين
اعتمدت
امامها
الحقل
##شط
##قتله
دكة
وظهرت
##وافقة
الصعب
تشهد
السيا
الموضوعات
##غيرها
دع
##الوا
##حلف
الاشرفية
الرمال
بوضوح
##صيحة
##رول
##وصل
شك
تفعل
وتاتي
اضاء
والبا
قزح
علق
##وا
يكسب
بمرض
##اد
فمن
بولا
اشد
مرف
المخ
مسلما
بدلا
بلغ
##ولد
المقبل
تسقط
غرض
##افة
واختيار
تفكر
##سارة
##رمان
##اطرة
##امات
موضعه
وصلوا
حلي
صعبا
القير
العلوي
العمل
مبد
واثبت
الحم
الوهم
تتعدى
اعتقد
المسند
##ضاح
كثرة
حضوره
مولاي
اخر
جلس
والحد
اسهل
الاحيان
والتش
بارد
##طاء
##وحى
اذى
خاني
الفرض
حصل
معكم
نظيفة
كشفت
##واضعة
تستعد
ساعد
##يتهم
وسفر
##غيان
واسا
تط
فقبل
##حوا
احدهم
##حدة
الجو
##بيرة
الهجوم
وشد
ويجوز
كذلك
الحلول
المعدة
##ريكا
نظرنا
الص
وح
ورسوله
لعدد
وج
##مع
لكنه
استم
##نيه
##ابين
تستدعي
##نانير
البخ
##اجد
اجمع
فيكت
افلا
مخط
جيم
##كز
نهج
بالي
##ضيف
##اور
بش
هالة
##ينت
اقبل
والرواية
الزينة
##انك
لمجلس
وقرا
دقيقة
الوليد
واعت
غنية
ارسل
وجدة
تخصيص
البراء
الثابت
الانتهاء
الخبر
السيل
##تمالات
عيش
وسيع
الاصابع
مشه
قصد
دو
يستدعي
للشيخ
الصيغ
##فعة
انغ
طويلة
##وسف
والكثير
يخالف
وقض
الشامل
##سى
وم
##ليس
##شرة
اقامته
##ضب
فعالة
بول
بنز
الخالية
ماذا
لقول
ترجع
##يوط
الشر
##اكير
##اطا
القدرة
للض
عصير
فجاء
خاط
هال
اسهم
تثبت
##يعة
الديوان
ووضع
قوة
العبر
الواسط
##ادون
العالي
الشراي
##راءة
التكليف
##خف
الصفات
المسيب
بكت
بالتف
##سطين
تضمن
النفقة
كاف
المعادن
وضع
يرجى
##شيد
قدما
واربع
##عاج
التلق
بتوزيع
خطوة
نجران
القراءة
قصة
المحم
والمراة
##نيا
كلثوم
##سلا
وينت
رابطة
طفلا
السايق
واحسن
قبي
ولدي
دخولها
اعضايه
امتد
##عة
محدود
عزل
الع
##فقود
##حقين
ملكا
سمعته
الوان
الايم
الماضي
ومست
المتصل
توفيق
طايفة
واسعة
الموتى
##اهم
فكر
قسرا
الاسلاميين
بالشرق
##كنات
يصر
منحة
قليلة
بام
تخالف
الجملة
الاطباء
الشايعة
المعت
##كاثر
جلسة
القرء
##طفى
والجن
ولذا
الطويل
والست
دافع
واسعا
##طرق
العظ
##رعه
##طية
المعاهد
السابق
جانبا
الفرع
ينعكس
الاثناء
رواتب
لاعداد
الشخصي
وها
فانت
لتف
الترا
##حب
المحمد
وصور
##اذب
الط
الملاك
العش
نفسية
تنتقل
ظاهره
##جين
لكني
البابا
بالغ
ولك
##صرين
واجبة
وابي
تخف
بم
ربح
##قدم
##كا
##جع
والعلم
سباق
الشعر
وحضور
حالات
##مت
الاذن
العظمى
العا
بتوجيه
وجودة
شجر
##حيم
##افحة
وسف
الهمزة
ليكون
يكف
صه
##هره
للتم
ستين
جنة
تحكم
ذراع
الافكار
البدل
محافظة
السلعة
ديك
المشاعر
حربا
##رده
لرسول
الدار
والهييات
##زان
القتل
##شيخ
##جاعة
طوب
##تا
مصحف
تغطية
اعتبر
يحتاج
الامراء
خاسر
قولهم
##ارضة
بانك
فينبغي
بوت
المريي
الرباعي
ترج
##صقة
##وضا
ابلغ
باقامة
##غور
اغت
##لق
البسط
##دية
واذا
ويدعو
##بيري
##ودي
##راغ
للحد
مرخص
##زيد
البراءة
##كاة
لبني
الخيارات
الادنى
##اجية
والراي
والتغيير
الامن
##قطت
المتق
بصحة
الكندي
معدودة
فيج
رجاء
الانع
العهد
##ياب
الفاكهة
##فوف
كثير
المتس
##كوا
جدي
الاشكال
الاراء
يسقط
##اكا
##وسيا
اود
الاخت
للافراد
ونصف
التفاول
يحبه
احمد
البد
لطيفة
الصوت
الحزن
الطواري
مضاع
ممت
الاية
رص
##اجة
توضع
للرياضة
قرون
الموضع
بخبر
للعراق
الاهتمام
##ظات
واستخدام
عبد
مواعيد
سداد
##وع
واختار
والطل
زغ
##راهة
السلوك
اوقع
فتاوى
النضال
والصلاة
الكلا
للدم
المقدسة
والمعنى
بثلاث
قومه
طي
يكت
حقوق
اليهود
جنود
علم
الفريق
تغني
هاك
وحم
تجدد
المحس
المشركون
##واميس
ورث
تند
المنهاج
مناخ
اللي
الميراث
##ون
الكفارة
بالعب
حاج
وحفظ
ابد
خرجوا
##جمان
اصرار
##ابيب
حو
بيعه
##ارث
##كافو
عاقل
السلك
##غ
الفهر
رات
مسبوق
##قته
##ستي
معلومة
النض
محفوظ
حركات
يدرس
##طيه
شاه
ومصالح
مدر
وتعود
يستند
##ابر
يع
ارم
ويصبح
حولنا
##الق
جسر
هاني
محلية
بالطايف
العين
طبيعيا
الير
وجعلها
فعندما
والسل
تسهيل
##ومنين
نتحدث
وموا
فذهب
المنع
وعق
وقرى
مساجد
المشار
ترد
يتزوج
##ناه
##اج
نق
خمسين
بنفسها
قدير
##صريح
طاقة
الخصوصية
فانك
المصور
واصب
##حول
اتفاقية
ملحوظ
##وضحت
بلعب
واي
براء
ابني
جدول
والع
وجهي
##فد
والمر
والذين
رجاله
##ومية
##انع
##اقه
ولل
##فتي
عنكم
السلمية
الاستفادة
مما
النشاط
##راص
اعطاه
##يان
العفيف
ايتها
امام
مبكرا
اخضر
فاق
الموازين
قتلى
##نوب
النصوص
المشا
وتعديل
الوزن
صلاحية
يغضب
##خة
مصادرة
كوز
تعبير
##سطو
افتتحت
##ملكة
الحيوانات
مجالس
تسرب
الصامت
علمه
درد
##وجة
بقط
الخوارج
الزيارة
الرحم
تنتج
##كيل
##تف
##تحت
##راته
بتصميم
الناظر
ستف
مكروه
الجيوش
تحتاجه
لاصقة
##افر
بالعراق
والاراضي
التاب
ذكري
المصن
وين
الحوادث
بت
##قلب
عياض
تحدب
بريط
يحضر
شكل
##رورا
الزور
بالله
والقضاء
##شام
تضع
##لكة
##ريبة
السيية
##وفير
##اهل
رع
جنا
اياك
متهمين
الحماية
الاخوات
خار
شرع
فضيلة
يويد
تحض
قضايي
السفر
محج
الانقاذ
بحديث
##ري
##باش
ملا
##قرر
##باشر
خشب
تبحث
الفري
مسمى
بيتي
باعت
يعترف
الوقف
رغبة
اعترف
الاستحقاق
يارب
بشدة
المرسلين
واصيب
انضمام
##دل
##ك
##ضن
الجوزي
محلات
##غوط
اقراص
حبان
شري
وطالب
ويشير
المتم
والاصلاح
ياس
اللبن
وتارة
الوها
واشهر
##يجار
بدرجة
##شن
صلاح
فس
##شاف
التعصب
بلدة
##مط
فربما
حلها
نوع
الطيور
منوعة
بشهادة
بمح
قفز
يكشف
##ينية
بلا
الطبراني
وثم
حضرت
تميز
الصدور
السمعية
مقار
##ذاك
لمتابعة
والتي
الغربة
##يس
الاث
خطوط
الطاير
ماع
الرزاق
الاجراء
يكونون
##اتين
##ايحة
راجعون
جميلا
النقل
بالترتيب
##قات
لمنع
التقدير
قادر
نفى
##سنى
يقدمون
والمدن
##زوم
تلك
تقارب
مسا
فلك
والقمر
##يفان
والتعريف
التسليم
تمكنت
الحبر
النجوم
جاز
##غالية
موخرا
بلاد
ذكاء
كافر
##شرت
ودخلت
اير
##ضون
المسجد
##اند
العصب
الاعتراف
والاج
ولاة
ميا
##اصل
الانص
بعضكم
المصدر
امامك
##رنج
##ندي
##ريف
الانث
باس
القديمة
يغ
يقدمه
اولية
قيم
اليدين
تربط
رحمة
مستقبل
عزم
حارثة
##كو
وعزل
الراجحي
ودين
لعم
توسع
##يدها
هش
تسمى
للنساء
فدان
جبل
للم
الزيادة
انفاق
##صوله
ولكل
لانها
النيران
المدافع
والترك
مستعمل
بوف
لهما
الفحص
شر
عن
##رارة
الثقفي
الكرم
الغيب
صورا
واستن
السيرة
اليهما
عشرة
عناصر
وروية
يكثر
بحر
يرمي
والشع
باليد
واثق
يوخذ
ومض
الاور
بناء
وتض
الاراضي
##اليت
الحض
##رة
فلو
وثمانين
السد
ببط
لغز
##ايه
نير
الحية
##زون
والد
معاملة
##طوط
نعمة
تحي
لاخذ
بنو
##منة
خالي
حالي
البلاي
##لب
مصر
رشد
للمنت
اللقب
الشيخوخة
##ثل
السيدة
سو
بخص
كلب
والحسين
##بليغ
معه
مزرعة
ر
النعمان
##جيل
##هدة
بتغيير
حجر
منك
الابد
كبيرة
صديقه
البلدة
الشعور
السر
فاع
الاعد
مشاهدة
بالليل
يبعث
##وسي
شعري
وقانون
ظروف
##يفاء
الترابية
يعيش
يعود
باد
مغل
عقيل
بالمع
يسكن
اعطاء
ويس
اكرم
##وجات
يقومون
ملعقة
الضلال
بلغت
المكسور
وبالت
ضابط
والاجتماع
عظيم
بدل
التد
العضو
وخير
##سمت
##ويش
##جح
##ودان
اقتحام
بلدية
##رجس
للحديث
الامساك
قلق
##ستين
السكك
باعتبار
العيوب
خطير
الحكيم
##شيم
الارش
##اعرة
##هم
##فس
تفرد
والاه
مرجع
الفرات
اعمالهم
الاساس
##كر
مقب
الالتحاق
##كينات
تحدثنا
اليومي
وحدثنا
لصف
قلي
##رضة
والجد
فالي
##زي
بوسع
##اصد
جراء
وحزب
روية
حج
سبحان
شبيه
يشتغل
##يبه
##كورة
وتسعى
والفكر
##فار
فوجد
ليلا
راضي
وتضم
انهاء
##اولة
خبر
غداء
يعط
ويعت
##دتنا
##باو
ملب
الساحل
الاهلية
روت
##يادة
بالشام
##ودع
مخالف
اهلا
المرجع
اداة
##كرون
ضحك
الدم
جميعهم
##دور
فكتب
اقرار
الالب
تبع
صفوان
بالقرب
ويمنع
يفعلون
تحتها
التفاعل
تصفية
##ربما
لونها
تعهد
قتيبة
القضايي
الاقتصاد
تال
يتصرف
التاجر
لشروط
##اكل
##طلقت
##نن
مواطن
##شع
الامل
دوس
الرباط
فية
بلوغ
باحدى
##بغ
بالبي
ركعة
البطل
وتخفيف
##اسبة
##ايى
فلابد
الادعية
حوامل
من
العداء
الوسيلة
##وصة
##تو
##رباط
اقتصاد
لد
برود
والفقر
##سوا
##رفا
الحالي
##باب
تكبير
واغ
##نوا
السهم
حلقة
للتنظيف
والشعر
والرا
غالبا
الجعفري
بتس
المختص
واصل
اشكر
رابع
##كورات
بينها
امتدت
اليمن
##حدر
وتجد
محو
##قطب
الكنايس
اتضح
##بي
للال
ليها
##قبال
صلح
دغ
وعاد
تعود
ويبلغ
اجرا
لج
انشاء
تاثيرا
عربي
ورك
الشديدة
تدرك
بعضهم
##واجب
قوايم
يذكر
جسم
##ماعة
##كمل
ويعرض
الانتهاك
صحتها
بالفتح
عودته
الجايزة
يدر
##عمرو
##فو
##بدع
الجاني
شدد
عليا
رويت
يسهل
مكلف
اسواق
اصلها
اقل
يصرف
جال
تسير
البيرو
##تع
ولله
والج
البيعة
معتم
واست
يفترض
الحامل
ورو
نواب
مرم
بصدق
يتم
سنتر
##واقع
اتف
الفترة
جزيرة
بالدعاء
مخلوق
##علقة
##ضيات
خطاب
دخل
لحركة
الصحف
طعن
متف
الضحاك
مسقط
وعز
داخلي
الراحة
##ار
المسل
والفرق
لدفع
النم
تنفي
وعاش
لطف
بحجة
والحق
امتنا
##برك
مزع
الاجسام
تحظى
##برن
بالالت
الادارة
اكياس
نارية
البند
المعلومة
معسكر
خس
يومن
اليز
اقالة
اغتيال
دايما
بالاغ
ربنا
##شرات
##باك
للفوز
##الار
والبد
اعلاه
ويقال
بلسان
##طلوب
عقل
ولف
للمط
وسوق
يوضع
وجزر
الشراء
##ابرة
البيان
الضرورية
النعم
الامس
مجرب
الافادة
اجسام
تلت
الرازي
تسمية
للملابس
سعيدا
السريع
##نيها
خطط
للبح
##ادث
اوضحت
##حتاج
##اوس
كلفة
وراس
الموفق
افاق
امنوا
##نتو
يقف
##سمان
الجميلة
خل
ردة
استرا
الشايع
##سيين
##وط
وانه
اعلى
بار
يحفظ
خصي
والخدمة
سرور
واسباب
الكمال
املك
##يسور
يميل
خد
يلقى
فرعون
الهاشمية
##وعية
سمير
كاتبها
##غيث
كوم
المطر
مب
مرب
ووج
اقرت
تنس
التقويم
الجليل
تستند
جنازة
مطب
البا
والمتابعة
كره
الضحى
بر
يستفيد
المكاسب
اصلا
##باق
الدينار
حشرات
##ظي
الظروف
##نتهم
ضغط
تبر
##واته
##نيع
ينتفع
عدنان
سلة
كلي
خام
كانه
##ظف
اشارت
نهضة
سلطان
يكلف
تبعا
الكتابة
للمت
قتيلا
##قر
بعم
الفرا
غريبا
الشباك
##يدون
##وبية
##مو
الفت
حفظ
عايشة
الشروق
؟
باند
والحج
الملا
البادية
سبعة
##اير
سدي
حالت
فروض
يمد
##جو
##فذة
اصحاب
فوقع
يعملون
بالاشتراك
##لامي
##اشا
##ادته
وكفر
ويقع
الصوفية
خطرا
معجزة
المراجع
يتح
بثلاثة
هوت
##حاد
الجبن
منق
التوسع
الصيغة
##رامي
الشارح
يوثر
الدية
سنتين
والموضوع
والادارة
الده
بالتع
الاب
عاليا
الموازنة
مفتي
روحه
##قوق
للتعليم
بمال
##تمام
اسطوانة
الجواب
نحن
المنزل
ووقع
بخصوص
سمح
انته
غضون
الاع
باغ
##رهيب
عروة
الجبل
يسعى
قص
يقبل
اثارها
##تس
ترشي
الحديقة
بالحج
الاتحاد
نفق
الامومة
فقير
واليوم
ودقة
وصفة
الموم
ورم
الجنسين
تنطلق
##ياس
الة
ذكرت
بلقاء
##ريعة
لبعض
##خين
ستكون
بخل
التحق
تسور
مجم
واد
بحم
اعتراف
معبد
الالية
وني
يطلع
ظلم
يولد
جان
الحرية
المقدم
متاخر
الاحرار
##در
يش
الشو
للمستقبل
ويسعى
الاعتدال
نقط
بادر
##بري
##عداد
حدد
ماجد
ثلاثين
البرد
وجاءت
والوقت
اجبار
العمالي
ونحوه
##سو
##انيه
يلحق
بزم
الجماعات
صر
مد
##لا
والانحراف
شمس
قناعة
وعرف
السين
التدخل
يوش
##ريفيا
##قى
وفاة
رتب
كوكب
##هولة
علنا
العل
صفة
##صير
المهمة
تستطع
الخالق
التعطيل
تز
التوصل
حقيقة
بابها
داو
##راح
تنزل
المشهور
كش
وار
الحرام
##وبا
بابن
يبعد
قلب
اعمالها
الثلاثة
باع
الجلد
احداهما
الاباء
يرزق
اليت
اموال
داع
يمضي
صانع
واخلاق
وجوده
زاوية
تتم
يديك
وقواعد
اطلقت
##وافي
بنيت
اخت
تتعرف
اصب
بالغة
##صاف
##رجات
لمختلف
##ومون
##ريته
ذه
تباع
الترتيب
ناحية
بلدهم
يجلب
##قاتها
الجيران
وحول
بطرح
اليقظة
##اوم
الرضا
ان
اوغ
تحميل
للمح
##طور
رضى
##جس
طرا
متوسطة
##روية
الجوهري
حياتك
وللا
نفي
##كى
##وجبه
البخاري
طريقها
بروز
يوقع
فاتو
للجيش
مسي
وطبعا
تغطي
##متاع
جينا
##سح
مهما
##امر
تزيين
اناء
الشيرازي
وجود
مريم
متميز
##اطع
##يخ
ارش
شبيب
لاتمام
بالاعضاء
صدم
العس
الموظف
ادر
للطالب
وتسجيل
##وانية
رواية
##تهد
انبانا
الامير
لمع
وهكذا
##هرت
##وقف
والناس
##تمس
الموذن
##وي
قلعة
ونحوها
الخار
اصحابها
مر
والعد
يود
##حر
فايد
بخدمة
لقم
سليمان
##وات
التاويل
ذل
استطيع
النت
النظم
الني
كوبر
زوج
والبحر
داف
والغير
يحب
الخامسة
##يا
خسارة
شهد
والدينية
##سس
لديه
موجودة
وفت
##عق
##وجب
##رتيب
الرضاعة
تهنية
خصوصا
يظهر
##خب
موجود
بصدد
الاخرون
اكت
##ياك
تصب
الحارث
وبم
##ضرة
عندهم
والموث
وتخ
السباق
الكثير
للشعر
يتذكر
بفوز
استشهد
##تها
اصناف
والاشخاص
##طوبة
##ذور
ذكرناه
وتحقيق
النقود
يخفي
##ربع
اعجاب
ارسالها
بالاسكندرية
النقيب
يشهد
لقواعد
نض
فاج
##رفات
الامثل
تيم
##يزون
والفر
تحذير
وجواب
دماغ
القرط
الغنم
المماثلة
الاولي
واخراج
##رين
نزل
متب
وانها
زبدة
انكر
صام
لعن
##ناز
لاخ
##باء
شهداء
ونقول
غلق
اعطا
عصرنا
##وام
##ومه
اتوقع
الفلاح
رسالة
المعين
الجرح
الوقاية
حك
طريقا
ضخ
الذكاء
الغزالي
خص
وحس
تخريج
النط
اس
نشرها
الاملاك
##قاها
الصناعات
استفاد
##وفر
بالمح
جامع
والقران
##وسية
س
وسيلة
##وقيت
##ارب
بيس
##ناط
التنبيه
ايها
الحو
معاهد
اتس
وتحرير
مني
##حكم
منصبه
وحرص
تسمع
##وعها
##ناده
##هدا
جانبه
##لام
وابن
وحدها
بيده
##تيك
مصورة
##زله
ضده
##جون
والحكومة
جمعه
لهن
والنا
وتريد
ارتدت
على
المشروع
بحفر
المحبة
والمخ
##ستا
فماذا
يشفع
ورد
والصحابة
استبدال
الكهنة
عين
فرا
نشره
يدها
واخرجه
دمشق
الايتام
##ونسي
والاخلاق
واسب
##طن
سبيل
##وتا
البرج
##وليه
المعم
طعاما
ينال
وسلامه
جنية
مترو
الشجاعة
تقلي
بينكم
تسي
وبلغت
سنوات
ومث
##ذا
##رنا
المساجد
الشمسية
##ايشة
الهذ
##ستمر
لكثير
##هة
##اخرة
تنتظر
انتها
القلعة
##عان
الكلية
تاب
##اق
زوال
طحن
للاط
لنفس
بالاح
العاملة
اسعاف
اطل
فيد
ثن
بقدر
صيف
ثلاثا
##وقية
يفصل
نلت
العادي
والرج
ارف
هاي
نفسي
بحال
العقوبات
##قش
اجز
الواسع
كليب
حزمة
وراءه
بحذف
##اطر
##سته
مستعملة
##اشي
##ليو
الجهات
الميت
بكلمة
المشاع
الحس
مقال
القافلة
لغة
##يتين
فالله
في
يشترون
بلاغ
الخارجي
بمساحة
الاعراض
احيا
ثمن
عظيمة
الوديعة
متفرقة
##تهن
الزهري
وكبار
##حق
##بداد
مج
اكيد
انظروا
##قيقية
الرس
الوردي
##سلي
الزوال
شيء
واجن
البخار
##سامة
##ومة
الرش
##مار
صع
المستع
قاض
تدمر
##مله
دواء
يستلزم
مشج
بكال
حدودها
واحدث
فاين
لود
اذهب
القضاة
##صلا
يدور
البنفس
كافية
الزواج
عدل
الحف
المواهب
يتصور
والمدينة
رفع
الجانب
لت
الترب
التور
للطي
موتمرا
لتعليم
سير
الطرف
##رقا
السماع
قح
واعظم
تحت
وقته
تنقص
مشيرا
##طول
لايت
##كوك
لتع
ينشر
##كاي
الوصول
الصغير
صادق
تهني
علقمة
ومعها
راض
كرك
بذ
اثنتين
لابت
العوام
الاستثناء
السوم
سبقت
التعلم
الاما
الرخصة
وبارك
مطالب
فظ
عايل
ولست
##حين
للمن
المحتوي
##صرا
فراغ
اقرب
العي
المشي
سيل
مالية
تسوق
بتح
والغ
اصول
المدعو
مباشر
اخبارا
شاك
##قب
التوافق
##سلسل
##طلون
اليس
##علن
ببن
النع
هكذا
تخطي
اختراع
يمكنني
سافر
ممرض
قولا
صابون
خفض
مختصة
فاخذ
عزيزي
وانشد
للجن
حدود
المصد
حق
##مون
خز
##ذلك
قصص
خبرة
##ايز
العزة
##يمة
##خرج
القابضة
##ازل
فل
النك
##ينها
السري
لاصحاب
المرمى
اي
حماية
مده
الواجب
للحرب
صيغ
وقول
ابنت
لاضافة
ويد
الام
##رقون
مسعدة
كالف
فسم
اذكار
العشرين
فاقت
بالاش
فتنة
الاصوات
##خفف
تحته
##رينة
توفيت
فنجان
القاسم
بالسي
ذاته
الاذان
التاسعة
لزيارة
المحمدية
وسير
مسحوق
##كره
##تمر
الفاسدة
شهرة
فبعث
الرمز
معتمد
يحق
وبدا
ناح
افراد
##زغ
التى
##صرت
ناص
صادقة
تتوقع
##وسيع
وي
موقفه
الغريب
يعاد
القرية
عشرات
المث
##اسد
##نزير
رك
بمص
السرية
شكلها
بح
الخلاف
اعتمد
بالذ
مشكل
بدين
وضعت
##يناء
##ختار
##راحة
##لمس
العقاب
اخته
##حث
الوعد
كتيبة
والحكم
يوفر
الجحيم
اربد
والمجالس
فرط
التسا
مستقلة
الجواز
المجهول
##وعي
##همت
##ادقة
وافادت
احم
تشت
ومل
سبل
فكيف
نيل
تكشف
اشت
##تري
وقوة
الاذكار
##وظيف
قدم
##عى
لكل
##لفت
ك
البلدين
الاغ
البرق
هيثم
قادرا
##لاش
مناظر
وعروض
اختر
الحاصل
الرسم
لنقل
درا
وشاهد
واذكر
يحرك
صدى
مظهر
##قلال
توفير
تت
والفضة
للغة
ريب
والشيخ
##لو
حبا
##راعا
واقتص
الاحجار
الكنيسة
مضمون
والتعب
##ء
##ط
المعدن
تنزيل
فجاة
منهم
تكلف
شهاد
وابل
ننتظر
##فا
والباقي
وبيت
لانهم
المبيعات
تحويل
اهم
جهد
القراني
##ضور
ضحية
يترتب
التجار
لقضاء
الكافرين
دراهم
ويبدا
عض
شديدا
ادم
المعروف
##يفة
لنيل
زمزم
حاجات
اصغر
لال
احص
##كرة
يهودية
بارك
قافلة
وانظر
حرق
فقلت
##داع
الاختي
##عمل
الوس
الغيرة
يمنح
كلف
بولاية
للذهاب
الزمر
سوال
استقبال
##علي
فانزل
لرو
الالتح
يعجب
المريية
فكره
اليه
رجال
لتست
التحكم
بتحديد
للسلام
الخصوص
طاقات
الغر
وكر
ممل
##فاض
مشترين
##ذرون
براءة
شيي
##ودات
الكال
يسري
اال
##تك
الشامي
يرسل
الجنس
الارادة
اوساط
المطاف
احدكم
الرج
اف
عنك
مكرر
يوجه
والسلام
##ديا
قذف
واضط
وخمسماية
##قيد
لعقد
وتصحيح
الرابطة
يسجل
وابناء
والسفر
قسط
##انه
ابعاد
##ماك
النبي
يب
الخطيب
العذاب
خط
التعيين
##ودة
اثرها
##جد
فرك
المحتملة
كول
##حار
اضع
القانون
مناس
انطلق
اسر
بنص
##اتهم
الكبري
السميع
يرتدي
##لالي
المتوسط
وعنه
يدي
ذكرهم
##وازي
يسار
وظيفة
انصح
##بيي
الثاني
ويبقى
تحب
يعبر
##عتك
قبلت
والهند
##ابله
الارجح
درس
##ذف
اليسا
الحاض
##عار
خر
الشخص
لحفظ
السجن
البغد
سماك
احتفظ
##ة
الصعبة
اغلقت
واسلام
يتهم
##الش
الرايع
مصف
لمعا
والخاصة
يقتل
##ياج
العبودية
والغاء
##هار
المحلي
والساب
##صلات
بالكتاب
الطلبة
سيحدث
قرن
الاض
كاد
فخ
البت
المنار
يحدد
منفذ
مجهولة
يتعارض
ولاء
المنك
الشريفين
مدم
اناس
وعلق
##ولية
تساوي
##طيات
الحروب
يزيد
غياب
عج
بيان
##فتهم
المصارعة
##سبة
ونقلت
##واهم
الوالد
قوام
بمعنى
الجر
##الله
الامرين
السير
والاعلام
بالاصل
يسعون
##رقت
الطاعات
وسجل
وافني
سببا
لازمة
والحرب
##اتة
فريقا
الرض
##يكا
بعنوان
اسعار
خشية
##صون
الجد
المرا
والفن
##اجات
الرغبة
اينما
ولاد
وتلك
لكثرة
تطهير
تزداد
تدين
الناقلة
##ياط
اخاف
بالاب
علمي
البعثة
مطعم
لذا
لتخ
النات
##غون
##حنة
محس
اعرب
الحاجة
لل
شمال
واصد
الجامعة
العطار
تعا
يفوز
الاوايل
بوب
منزله
كافيا
صافي
الهيكل
##حتك
دني
##اتب
فند
عشيرة
تكاد
الوجود
##ربا
الث
عنه
القدس
الموازي
منعا
تنم
افي
النفوس
قماش
المبين
##جاز
استش
##فارة
##فاف
دال
##وصية
ايا
القح
بالمد
واثبات
انني
اق
المسار
التمو
العالية
##ورو
وفاء
الخلط
الهزيمة
شهريا
متزوج
البينة
##غر
احضر
ارن
ويقدم
اولاد
محاس
حف
بطول
##اعات
سنة
الذهاب
المقر
ففعل
رقيقة
انتهاء
يلاحظ
محظ
والاد
##دب
للتخ
##ريحة
وبعضها
الضم
ويعمل
فران
##ستهم
فيم
نتج
بالاضافة
القبلة
مبني
بفت
كاست
##صرى
بالانسان
وشملت
حارة
توزيعها
##قلية
الحادية
المخالف
ياتون
بلادي
سواه
النظام
التمتع
تعارف
##خال
##ارو
طهران
##خرة
التواب
تستعمل
تكرر
لاجل
##عيم
وفتح
##يت
فعلا
زوجتي
##طنه
فطلب
الاصغر
راح
مولف
وبها
للاش
الفعلي
والعين
عظيما
رجوع
##سار
والكن
مستودع
##عب
تهتم
اخاه
تس
سالته
##وى
اكثر
كلما
الشاذ
والدليل
بواس
النبل
الظهر
بمنع
وهنا
ونط
نصي
الحقيقية
خلاله
فات
المختار
وانما
##بك
متصرف
ساف
مقاس
سيارة
ارس
للمراة
الجريمة
الارد
نهب
##وكيل
رايحة
بزيت
الحال
فوات
اخلاء
الانفال
الطبخ
والمك
يتط
مومنة
النخيل
ولهم
داعي
استماع
لخلق
##وره
النيابة
##ابي
بتوفير
هنا
وقوع
##جور
مستمر
ص
الكبار
##واني
##جلب
المطعم
تمنع
خارج
##اعي
الشد
انباء
اللهم
فالاول
معم
السرا
توقفت
اسرى
موكدة
بظ
##ضى
تحس
مماثلة
المستفيد
##عدى
لمناسبة
بالحضور
ولوج
##ماه
واجبات
##هارة
زميل
الفرو
فود
الحريق
فساد
عب
الاند
حول
القطار
ايز
والعراق
##اكين
لذوي
حضر
التقوى
والمجلس
القايم
معركة
مسافر
وتسبب
كوي
الاسط
اشار
صحي
واربعين
عكاشة
الفقهي
واهم
والقدرة
الكلم
ابناء
النووية
##غي
ليتم
الحجارة
الفرايض
##وير
عنان
قدرا
##دينه
##اعدة
##شاب
مارس
السرقة
ارتفاع
وعم
##اكم
##يء
جرا
متس
بالكثير
ملتقى
تسببت
##شهر
ينوي
##ارير
المخالفين
##عور
وير
رف
##ديدة
المري
سهام
الجمهور
الانحراف
##بال
ومنطقة
##سع
##حتها
لبيان
##صول
شرطا
تركها
عالية
ومك
بالقاهرة
يعم
قبايل
العدد
ومخت
مثلي
جلالة
اتجاه
للحي
والتربية
اقره
##صي
فيه
لام
##وكة
وكما
تقم
##شوف
فقيه
المدفوعة
المنتج
خم
##كاية
يبكي
تلقى
طلحة
ظه
نبيه
##افرون
الهرم
##جلوس
ميراث
ولدت
يد
##سله
##صص
الغناء
المنشات
الحيض
تحمل
تسبب
قبالة
ويغ
المشهد
المحب
المقت
بالقتل
فانما
ومشروع
وتجنب
بنات
الثمن
والامان
الانسي
اخرها
##علين
عال
##ضج
العجب
##ابق
غسان
وصيانة
##يقية
##يبات
الفاء
سايل
##افن
عاليه
الطور
عجايب
صنعاء
##فرقة
وحينيذ
النادي
الفقراء
والشام
##كذا
الاحمرار
الارها
##صان
تريد
واتس
##يسير
العبادة
يبقي
مخد
الظل
مبادي
والامن
غ
تنتشر
##طلق
بالكلية
##حتين
الغابة
الخاص
البعث
المجل
القيس
الثمانية
شفت
##خصيص
الممت
صبر
اليماني
##ادن
##لاعب
سم
الفراش
اسكن
تلقت
مولى
##وثي
تاسيس
عود
اصبحنا
##جيه
جير
وسيت
##ضمن
##لج
التض
تحضر
##وو
اللذان
ناج
##حصل
كس
لاختيار
طبيعة
الزه
الفحم
بان
جام
للما
اورام
قارب
سيم
##برم
رخيص
##افيا
##اضرة
وختم
تهييج
وشع
بالتعليم
اجه
الاختصاص
الخبرة
عصابة
القطر
واور
القم
النشر
لعلم
التعاطي
##كال
تكرم
ويشمل
الشيطان
##تما
##وسين
ابنا
مطلع
##ايمن
بالدور
الواحدة
وبما
الموافق
تعويض
القط
وعب
الصفراء
الترويج
الاناث
وتراجع
يتف
جنبا
الانشاء
وشمال
مستقيم
عدد
السم
المعرض
بهذه
تصلح
##كتب
ويز
يوقف
الطيبة
حديث
ارتفع
الوحدة
ابج
الحسنات
##كيا
لديهم
##رقية
الاسود
المال
الملحق
وراق
توث
##ولت
اكتر
ادنى
راق
ليه
خاصا
##حاح
ادريس
ترميم
قايما
كود
بوصف
بطرق
نجيب
وممارسة
اللون
تمثال
معز
##يلة
يو
الراتب
للاعضاء
بداية
بقضية
مشا
و
الخوار
التوحيد
تمه
اداء
حض
فتقول
المسيح
والامت
والحم
ماية
بيانا
لسي
تطرق
ومق
##ركة
الرف
كليا
##طاف
قوله
المقص
##تياز
##عات
وشك
والتعبير
المبار
##برق
ورع
مشددا
صادر
خروج
بنما
ميدان
ليك
تطل
لطرح
زرعة
التفت
الولاء
حكم
الموز
خلص
اقصر
##جلس
يقوموا
##لبة
اضيف
ولغ
الساب
بهاء
التغير
دورا
وكس
التقط
##ضية
##يوش
فقرا
التس
امراض
##ناف
الفول
المفيد
##ديب
تقبل
##ثوم
التميز
##اين
##شروا
الاشت
جار
بمعرفة
##الها
اوجب
وليام
المستد
##هدايا
##قق
بنعم
للحج
الحرص
ارمين
وليس
##راسة
هدي
بض
فندق
سيدة
##زيل
الارتفاع
يستخدمها
جناح
للام
للعي
##قها
اشبه
##قدا
تجاهل
##اسي
لايجاد
تعت
##لطة
تفعله
شكلت
باولو
##تهاد
اليهودية
وتتم
امتحان
المعتزلة
صالحة
خبيرة
ايف
للرجل
البراز
ذم
تمل
تغيرت
بمشروع
مسجلا
##اتمة
##واها
تعالى
لط
سما
قدرتها
منزلها
راغب
للادارة
الكب
والنح
##ظري
الفوايد
##يتان
وبقية
الضروري
غزل
الموسم
##ادها
وحسن
بيري
الترج
اته
صغار
نغ
مناطق
##اثير
##ونات
نفعل
مقاربة
##بدال
باقي
وبي
##قتين
تامين
سعيها
شيم
بالايمان
جيف
تقرا
وخمسين
فاول
##شك
قبضة
تلخيص
##وضح
##عني
##احبة
وامراة
تطلق
اسلحة
##اسلام
توضح
مفرق
##اتم
ولاي
بثمن
موث
متضمنة
مفيد
بتسليم
حرصا
##يتي
جامعه
الماد
المخرو
قلبك
وجمع
الاجه
للتقدم
##كف
الفك
بيوم
لسل
بالاتحاد
تدا
واستقرار
##احت
##تهاء
الصن
قف
احمر
الاداب
ابراز
مصرع
ذكرى
فذكر
ووض
بالاخت
##دام
جعفر
##كنت
تمسك
ني
وفعلا
خيرا
الضرب
زاد
لكون
غيا
##امن
يقل
بصف
خض
فروع
وكالة
ميت
الاسماء
شوم
موته
ميس
عسل
محف
الكبير
ايقاف
جثمان
ينتقد
##عتهم
##ريب
والابت
##اصرة
##لاس
الادوات
علما
ولن
فقم
##قتص
قايدا
##واية
البطالة
##جرت
بالدخول
##عير
بريدة
المان
سعي
لوال
العلوية
صديقي
الصلب
فراق
الدارقطني
وطنهم
الاحت
##زايد
الحلفاء
ورض
وابو
الغامدي
لحام
ورا
ويلت
واق
قفل
العمالة
##وابق
سفيان
##ثبت
تفويض
##يدان
الخاتم
##وث
##عمد
المشكل
بانواعها
غيرهم
##مود
المرتبة
الفل
اوصى
##بيت
##قد
القصايد
النفس
استح
بقسم
وطريقة
يول
##ابع
الخضر
بتقديم
والخم
##ضاء
##وضي
منسوب
الاستث
##مق
المطب
الثم
##حراف
منت
فلاح
الجمعة
##ادهم
عظ
موقعه
والصف
وضد
الابل
جديد
اختارت
##الث
جاه
ملم
كانون
سيس
والى
الهداية
محمد
##صور
ويعتمد
الحبل
انشا
جاء
اختلفت
المجمع
حين
موتم
الابدية
اللحم
المفترض
والواقع
سوداء
##ادم
لاصلاح
وليد
ايت
الثمار
الحاكم
مغني
خدع
##وبها
##صدر
ممكنة
##وثيق
##ويع
حى
لقمة
فيت
مفار
##زيغ
المنظر
شهاب
استن
قاعدة
خيبر
وكيفية
##غى
تعالج
باحث
السراج
ونايب
خدي
الدايرة
اخرون
يكرم
والذى
المبعوث
حساب
قيد
##مي
##لحة
شهيد
##ولياء
تعطى
وانخفاض
سيلت
##صوص
بينك
قررت
تعمد
هجرة
البني
ذاك
الاسواق
يتكرر
زكاة
##هاض
للشي
##غة
حمد
منطقة
##قية
اصيب
استطاع
بالاك
##حظ
للاخر
الواردة
مشرفة
والمسي
##رابة
للصح
وانط
قرر
##روس
وبقيت
النفوذ
الوجوه
##بع
والجوال
اصدقايه
مفيدة
اعراض
علي
المنازل
التحرير
المدرسي
العت
يصل
يتضمن
ضرب
شخصي
اظن
فهو
##عمر
جما
الرشد
بكاء
##طب
المعاني
موضحة
تدريس
الثوري
منصب
للاخرين
الاسي
قياسي
اوه
تستخدم
لاز
##ابح
##ونة
المشاهد
ذكر
مصرية
غلاب
##ايا
حوض
منظومة
ابل
هاج
الترخيص
وربما
##ليفة
##وخ
بالج
واعلام
##ياز
##ظيف
فعلي
ناجي
الفرار
الفتاوى
حقيقيا
الاسرة
باش
امير
مدارس
منهن
مرتفعة
الاضرار
يبقى
لسنة
##ضعف
والله
تصغير
جانبها
الخيرية
سوى
لاتخاذ
الخليفة
رجالا
تسال
##ص
ويست
##جاه
بالحياة
مضي
سليمة
المالكية
عيادة
طويل
الطويلة
اهتمامه
والاقتص
وغير
بالض
فوت
الراهن
غلا
الربو
##ظهار
بالجن
##جدات
مبينا
الحزام
المتعاقد
##اخلي
شرفة
البحرية
اعمالنا
##طيع
اضعف
لغرض
الوفاء
شاس
جارية
ربع
الدواء
الوسيط
##كما
##بز
##ظيم
خ
##ياغة
##اكمة
ليغ
بالتم
بالاس
القليل
##الم
##جها
##ورج
##يل
برز
لفرض
العبادات
لوك
##ضحك
الصلاة
لول
يراها
اوقات
يفرق
يبت
سرقة
##انيد
الثقيلة
التكريم
الاعب
##كاني
قاسم
ربك
لون
غصن
اقيمت
##وامل
اشجار
للخارج
محبي
##بعوث
الامثال
##عاية
##وفا
بالسوق
##قال
ضخم
الصلاحية
حتي
الاستغ
لقط
دورة
تساعد
السل
الفعلية
ثمان
التمر
الخلفاء
##اذ
##قديم
تتحول
الارضية
برفقة
للبيع
واين
##صا
وبالف
لمزيد
##رج
البذور
القضاء
لم
اخوات
الاعياد
الاستهلا
تعيين
صلواتك
الخض
##وس
بالتج
ارتكب
للماء
##ن
##جمهور
اللحظة
عوا
##داول
شييا
الجنون
غام
راينا
##قلاني
##ها
##كرمة
##ماس
الاستعمال
##يزي
##ويض
يعرض
الروض
الاولاد
##خن
فيكم
##رفوا
الشرب
##سانا
##فيان
الجراحة
##المون
والتوجه
صوت
سنن
تكل
الاشترا
خلع
بوع
المني
لعلي
للنشر
اصحابنا
يميز
الاولى
عرق
##عله
##او
##واق
خارجة
دوا
هيبة
##شب
الصمت
واسم
لند
العقدة
حلوان
ينص
نستطيع
##سامي
مرمى
والجميع
##يسرة
خزيمة
منهما
الهاشمي
##لاقي
المجموعة
تميزت
للمه
الخف
معبر
##عيب
عر
##ناة
##زق
##روان
القيم
##واص
الخارجة
تقطيع
بتطبيق
واصدق
التجارة
الحلال
ارحم
بيعها
السي
المدن
والعرب
تقوله
السيي
##بين
مستهل
الغفار
اش
الامامية
ليا
قول
ينشا
##وهري
الضغط
لاغراض
رم
طاري
##اهد
طبق
##ان
الحضانة
ارط
شداد
##سلين
##دى
##دال
##اش
##بهة
وبعض
مستقر
وبنات
##حلل
اتحدث
اخلاق
##بيعات
بذلك
ظن
جدران
زحمة
تتناول
الصق
لتجاوز
حسين
الصحيحة
مسند
الارهاب
مقالة
صغير
السليم
سلف
المنه
البال
فاف
الاسراييلية
موكدا
الاسلحة
يكمن
مادة
##نبي
والسي
مرسل
واللغة
وحدات
##منا
##دار
سواحل
بجامعة
##اعا
وجب
احسن
##شعر
اميل
فيكون
الشكل
تفجير
كثافة
توصلت
اوح
توكل
##عام
صفية
##رط
يتقدم
##قيه
قراءة
اطالة
النفسي
تحتوي
التواصل
الفرسان
مرفوعا
##وما
الظلم
الثانوية
الشه
للجد
تقف
تاو
ووجه
باختصار
##صفح
لجميع
حاف
الفلكية
الاثاث
فخامة
نواحي
##ابى
اطفالنا
##خلة
حقا
وعليك
يتطلع
الشام
عموما
المجاور
تكفا
مانع
والمن
بسي
تشير
اسفل
تقسيط
الفضيل
وقر
##ابها
قالو
قار
صغر
##وء
والاقتصاد
صحبة
##وفو
عربية
التحصيل
##شرين
حداد
تشكيل
##هب
واذن
تمتاز
يقت
##اكي
تحد
ينام
بوص
بز
##خلل
يقين
##طق
##ضاءة
وتجديد
جبار
##ادير
باخبار
يفعله
يحكم
وادخال
شجع
فيس
العام
زح
تاكد
الامراض
ترجم
لفر
سل
##رمى
شدة
حد
الفطر
##شون
##كري
بنج
قضيت
ترش
بالمغرب
##انها
طالبا
والنشر
##الخ
الليل
حجرة
معارضة
والسيد
فيهم
الامم
##دات
البشير
الاستسلام
ناف
##روفة
##باره
داس
##ليان
المتكلم
ففي
الثروة
فراس
تصدر
ولح
يستحب
يمكنه
وتعم
##هت
هدا
مقبرة
##فيس
بامكان
##حاق
فحسب
سبيله
العجم
ادفع
بايدي
الابناء
التق
##عا
وبالله
##قدان
عاتق
الدف
الناشية
موثرة
حرك
ضيف
ومهما
##كتاب
الحكاية
##ضلات
الاعرابي
المرج
##بون
وواصل
فيزا
سمعة
شارب
عمران
راك
##والى
اقامتها
هذي
##غوا
الرواية
متوسط
اعض
##انته
اشهى
##عو
##كيلي
مايية
اوضح
##ظرة
ويجب
عليم
راج
الفاسد
##طى
مسم
بعدهم
استيعاب
##جواب
##ونج
##وال
عثر
محكم
لحين
فوالله
##كوري
السكن
خرق
اخ
والموس
ورغم
بين
مرارا
جبران
اصاب
تجهيز
اكثرهم
بلاده
ره
بادي
نعم
##ناك
##ياته
##ماء
##ازى
حجاز
يتعلم
المورد
##عاب
اع
المعلوم
##تيبة
##وسان
يصح
الموقف
اقب
المز
##بض
منة
التصميم
شهود
##تش
##التي
سعد
الزجاجي
الوج
##غاف
الشافعي
الحكومات
يستطع
والشر
بفر
##سم
##باحة
امنة
حينها
رواه
##مل
تربي
لقوله
##سلط
البس
غالب
##زار
##ذكرة
ايست
مساء
المتفق
##اتل
##انا
##يعاب
الدرا
شكره
قدرها
##بلغ
غروب
الشمس
التصرفات
##خاي
##حيح
شرح
##يكي
العاب
هزم
تتفق
شخصين
والكشف
العلاقة
##بير
دينه
##ظافة
قبلهم
حزب
##راقي
ارادة
واقامة
عيان
##يناه
عش
استعماله
والقط
احرز
القرطبي
غنم
واكل
نسب
وتق
بيوتهم
مغربية
##نيف
##هين
والعدالة
واختلف
##شكل
بالوان
المشج
جمعة
والاهد
##طر
مراه
ننظر
استعداد
التقي
##ذج
بمش
لاند
ومدينة
صلة
تج
ذهاب
الثدي
انتق
للاول
متم
مك
المره
##الفه
حوش
سببها
والكلام
الملوك
الزبيدي
ام
المجرد
وارج
اقوي
رغم
الدخول
وبينه
ببيع
والاخير
##لافة
الجدي
وجه
لعلكم
يطول
استخدم
قناع
##يافة
للاصابة
حمى
الروم
لامر
##تح
وجمال
عمي
وجرح
معرف
##فيت
##ظهور
تبين
الورود
اخريات
جه
والعمل
الساق
مكاسب
العسكر
الغال
يعين
##موا
##يسى
قريش
واع
ويعلم
ب
يجي
##ليب
##اسل
كثر
الازهري
صلب
اصالة
شركاء
قرب
رخصة
##طقة
يق
##ارعة
لقب
المباشر
##س
يقاتلون
##وفه
##شيح
وانته
وصولها
وفيما
لرفع
واراد
سحر
المستخدم
الترمذي
يكفر
اخيه
فردا
قيام
اليمنى
مكانا
##روم
وفق
الخياطة
معك
مواهب
يغني
##امش
بدءا
سمي
داره
وقي
يتعامل
ظالم
والاربع
الاحتياط
منزلة
##وعظة
المسمى
##جيم
فاض
قطع
الشكاوى
باص
توبة
بشكل
وللم
بتم
كتابة
##هري
##هاد
##ردة
ناس
الطبري
مصمم
زاير
عمه
القرب
والتعديل
مرح
##ضه
##كنز
المولد
ديار
حصن
للعين
بلال
امارة
مباحث
الراش
مدافع
وتحدث
التح
المكر
وجوه
حرام
##حوم
وانهم
تحقيقه
ولم
واعتقد
المفروض
المنتخب
عري
معاذ
ينصح
انقطع
##حى
##صاب
اعترض
اقوم
يزرع
الغنى
تجديد
فنحن
هيية
عنيف
الصوم
التبر
مجلس
لمعاينة
الانس
والرس
ثالثة
فذلك
الكليات
اتجه
لنفسه
وروي
وزوجته
ووص
بالاع
المدنية
باحت
##عيدة
##راخ
بدء
المحاكم
فخرج
بمن
الكواكب
الجارية
تاهل
بتط
لشرح
##جزء
المراجعة
بعدما
##فيك
جنى
اسمايهم
يفرض
يده
بيتك
حزينة
##وكالة
الشكر
البلدي
مظاهر
واض
##وزع
والعطاء
سا
خلقت
##ربه
ارج
##ساب
الصادقة
المقارنة
الاستلام
مفت
النكاح
الهيثم
ومو
##كوف
بص
الزع
القس
عطف
العرق
العظام
العثماني
باخر
##ربون
وتضع
موجز
بحيث
العدو
السلع
المصنوعة
##طيف
الصخرة
السبب
حيفا
المفوض
يختلف
الرطوبة
لحضور
الفتاح
للامة
انتهى
جوال
معجم
وارتفع
ماضي
امانة
ضد
ساعه
##سن
يجعلها
الماس
بالانت
##يول
وكون
مفع
للد
وط
كرا
مهند
رحب
معيش
كالد
##يمم
الصورة
كبري
##هادت
الجبير
تفت
مصلحة
##رايي
##هد
##ومن
اجرت
استعمل
##دف
خلافه
صلي
البالغ
##افى
##هان
عباد
المراة
اصبحوا
تساقط
للوصول
مدرس
مسرح
مطابقة
قتادة
التعويض
للوقوف
الجنازة
بقطع
##عمه
بمقت
فيصل
شرعية
والمه
##ريقه
شار
تقتل
المقابلة
تشهده
##ردون
مطال
كنا
التحرك
باعتماد
تعزز
قدوم
نظم
الموق
يقوله
المصريون
لش
لازالة
مطلوب
الاعل
##وايد
قت
الكري
الاسلوب
##صين
الواو
##لان
مكانها
السكان
العد
##وازن
الضيافة
تمثل
الجدران
امر
والجواب
يضيع
صديق
تناوله
ولدها
##زع
المجتمع
ساري
المستقلة
غرف
##طالعة
والتر
تقلق
بالف
سالت
##عانة
ادى
نصيحة
##تمد
##تهم
##سوق
بالضم
فقط
الفر
شورى
والجماعة
عشرين
وطني
الاخبار
البستان
الديانات
وصححه
للي
فكري
تخ
يحد
حفر
المتنوعة
سابقة
##رقات
##ريس
عينه
الغيبة
عميد
جديدا
تنفذ
سويد
الخلل
انعقد
قدامة
عنوان
معاوية
##طيم
طر
الطارية
حرف
واقام
ارتد
يشارك
الابراهيم
يتبين
لطفي
فيو
بيج
##وبين
بيز
البصري
منطق
اعضايها
##بته
وارسال
اصابت
دعاء
مكافاة
الفريقين
##ينا
تختلف
اللا
الجميل
اسبابها
كبد
##برج
##حيفة
كفاية
اربعة
##فذ
اسمك
المحد
يحلف
وتذكر
توف
##حها
##عال
ويوم
اهد
##زعة
ساير
المده
فاتى
ارسلنا
تشويش
##وسات
القاه
تاه
تره
فرجه
يضعف
المب
وايد
مكاتب
المرو
مجانا
بالاتصال
الهدف
##نيي
يذهب
اللولو
الشقة
اللغة
وارد
التدبير
الموصل
تغي
##مرار
تشارك
##ديس
للاع
ونسبة
المنصرم
ابقاء
المجد
بصير
المبالغ
الذاتية
الحروف
##سيان
الاستد
مقاطع
الخروج
الاختلاف
النجاة
##الاب
تفرض
القبط
##برة
##فسير
واصفا
##وفد
مدنية
##خت
غرار
مرشح
حملته
##ونه
##مى
اليومين
الحارس
يوصف
##اطس
##لاث
وصد
فقهاء
منا
وبالن
الاكس
العم
##غطى
فيفا
##سبين
وتقل
ويزيد
تصوير
##جابة
وبسبب
فضله
##رتين
##يدات
بالعكس
##داني
يجد
الاحد
نظام
حسنى
يظل
##وت
خصوص
للتش
الصالح
##طير
حقيقية
خال
قولي
لقطع
يستحق
اوصل
كبيره
التاني
##اون
والثلاثين
مستحقة
