##حاد
مستحقة
##لاء
برات
##مان
شيخ
الرجال
الاسرار
بعضا
ويذهب
##دع
مستع
شاهد
عربيا
الار
##وبه
سبحانك
العماد
##فعة
سعيها
##موس
##عاث
باللغة
بالضرورة
وباقل
وخدم
ماك
بتحويل
بلدان
والادب
##دق
بد
##سامي
اسرع
غال
والف
##ذري
ليس
خلال
مكتوب
##انى
##عنا
##كتابة
يعلمه
عايشة
اخو
والبن
تستقبل
مراه
البكر
##جله
الاستماع
المغيرة
سط
فروة
اذان
بى
##ظيم
الخطبة
عمل
الجديد
نفس
وحركة
للمست
الاور
رواية
ارز
الحم
ويرجع
يكمن
مايية
الشريفة
تنطبق
مثلما
##ساد
بسط
تراه
اصح
ويتحمل
الصوفي
##تهي
شرف
المحس
والرش
##حى
وحكم
تصل
يدرس
الفقهي
تلو
امسك
قوام
توقفت
الجانب
يعط
ضمير
يحظى
اتهم
بانت
قفل
نعت
والكتابة
نقلا
حلا
تفاسير
##رتهم
الري
والعلماء
اقصر
عاط
##مية
##دين
ينقل
بطب
##فش
زكي
نتايج
##اليت
##همة
بموجب
الحكة
الاشت
مستد
##غد
##اما
ابا
تسم
شهداء
الجها
تصغير
توزيع
تبكي
تحريف
عات
طير
الظهر
الماء
تيس
الصدق
فجعل
بلى
توري
توكيل
##بيح
المخد
##راره
##وفت
تا
اقامته
الجبار
ترتفع
العقبة
نير
وتبقى
وجهة
الخيط
الاطعمة
##امنة
تعالي
خ
##تيان
نعرض
ارضاء
الجميلة
##وكل
للنبي
تقديمها
الاجراء
كافيه
امتد
هاي
دينارا
لزوج
العذاب
وضح
والصورة
##واهد
جهاد
جواب
الجامعة
تبارك
لاداء
وتيرة
لعلم
الطي
تمتاز
حايط
##ضيع
يحاول
##يرين
المنصور
رقيقة
قتلى
لول
منه
الواق
امرا
##هج
الجهاز
صغيرا
##زيد
مصالحة
فينبغي
القدر
مناسب
سببها
وصلنا
البحرية
ماية
##اعل
##برت
والاث
يدعون
##قاتها
وليد
القب
##ودات
بشدة
##غاة
##ايا
امرها
بولاية
يظ
عناية
يوح
قدامة
استضاف
للهجرة
محيط
انما
برفقة
ووضعها
عامة
ويقولون
##اتك
السايق
كونها
وتصحيح
والصلاة
الكريمة
افراد
##ركي
الجسد
الابت
تز
بشراء
بالمخ
وبن
لدور
السور
الثالث
##ظا
قلبك
والتدبير
الافق
##راكب
يعرفون
والس
##صوص
وكم
للعي
اسمه
منخفضة
الاضحى
ضحايا
##الب
ويسمى
المعنى
##شره
المخت
حاش
حت
سافر
تغيير
الهذ
##خلى
مضاع
ظهره
وتلا
طلاب
عاب
الدرس
مايت
فاعت
تغيرت
الاحاديث
سويا
قدر
الرياح
اصيل
الاصلاح
ودع
ومنه
##نز
رفيع
كجم
لاصقة
##فض
رييس
والعروض
##كنج
وموقف
##تاء
ودود
كوبا
الابار
##بز
طلعت
##ليو
وسف
ميمون
تغي
بداخل
ذو
فقتل
والجماعة
شتاء
التحالف
ترجمته
الوفاء
خليفة
لولا
الحشرات
منت
يشتمل
خفيف
الدش
بحث
##بق
الحكومات
عاي
ومخت
فتى
الموقوف
##طقة
قراء
قاض
ويعتقد
فلما
صرح
تنا
اسيا
ترتيب
بامكان
##حيا
دورية
روب
##زوم
الشرطة
##ايى
ويجعل
لمشروع
##طالعة
##ا
##برين
قبلت
##ضية
صر
الملك
الصامت
لوال
الاموات
للسيا
##اريف
ذهن
باعتبار
واعتبار
المفيدة
##وفر
امتي
##والب
بمز
منذر
اذا
شديدا
يتوقف
##احم
وسفر
##نع
والسكر
عداد
تحتفل
##نو
مركب
يفصل
الموافق
الفح
النض
##ايبه
معشر
لسوق
طاح
معرفته
خدع
##حقة
جلسة
ويقال
لين
حدث
ثعلبة
##ديقه
الايت
الادباء
##خلا
الخصم
بنفسك
اشته
عنا
قصر
مرب
مرخص
ثقاف
##طن
اطلع
ونوع
##ض
##وبية
##جام
يراه
##رقه
سلمان
##وجب
تسمع
اعيد
مكر
يتعلم
مطر
الرشيد
ويترك
ثابت
جدا
حسابه
##غط
نقلها
الملحق
الجدوى
سخ
خاص
##ظرة
##ويه
فهذه
غرار
المطل
الجرا
خرج
##يل
والاتفاق
طبقا
الاستط
##ضح
والاثار
##هلاك
البنات
الروا
والاز
مقارنة
##اذن
معصية
خادم
يس
وجهان
ناع
##ياط
وكتب
المدف
الذاكرة
الفات
الاسنان
وها
سلمت
مف
حرمان
التد
الامد
##وءة
اوافق
دل
استي
الاعمى
القسم
المنذر
الاج
فست
##وسة
المبيت
انظر
يرفض
والاصلاح
النقطة
اشهى
المطعم
نل
وش
##ويش
حذاء
عدوا
نهار
ارهاب
سهلة
حولي
والاحياء
سمك
##وسى
للصحة
لمادة
الضم
التس
والمحبة
طرفي
##حد
الميدان
وصفها
فقد
لتح
التحية
تنفيذا
يمتنع
غرفة
ركاب
تكونوا
##حتهم
جوف
والهي
##رده
ظهرا
##نط
ينال
المطروح
وطن
الدارقطني
باللون
##نيه
فالاول
للاض
جدلا
مسعود
ثنا
المشرق
دايما
##زا
ليعمل
كثيرا
ازور
##كار
وبر
ومث
فيقال
الانم
اظهر
##جاز
عطا
##باق
تفاصيل
المحتملة
جبال
بالناس
العجز
مرض
ورق
##داه
الامثلة
الحيوانية
وصحة
قطرات
شهيد
امتنا
الين
السام
##ني
الارش
دعوات
##صره
##تمون
الليالي
اشجار
لاي
رسالة
بكل
المك
##يزان
الصواب
والتغ
بمعرفة
لغرض
تدع
وغير
##اوا
ضوء
واح
وعندما
العث
ديل
##بهم
والحياة
##اطا
العمراني
خاطر
اكمل
كتابه
سنت
الحدقة
السند
##رجع
الطبري
انتها
##وهة
##عي
عروة
والحد
التحتية
##ناف
يلقى
جرا
يغلق
بديع
النصوص
والحكومة
طالبة
##خط
##يمة
الاذى
رحمه
واحت
الاجنبية
اماكن
الان
القبور
واليه
ففيه
لبس
مستقبلا
##وارب
بتنفيذ
ازداد
يمكننا
يتحرك
مودي
القرن
وضمان
نوت
##رمون
توكل
ذكرا
البرو
فلس
خراسان
##راوي
تحقيقه
وتقد
بام
سليمان
بفضل
محتمل
شانه
يجلب
ومست
##طلب
دينية
توليد
بعقد
مضي
الاشارة
اشارت
##ليقات
معارضة
اوضح
الخلاص
يظن
روي
تخطيط
##اب
اثر
العوض
المعقول
عليم
فرعون
مرح
تمنع
##باشرة
المحدود
اولوية
للجد
غرام
مرمى
##عت
وعمر
المتت
##ايشة
زل
مشيرة
والحل
اعتبرت
سالت
النادي
##ن
جز
الشاي
لشركة
خض
عصرنا
اصغر
الاذن
تبعث
تكن
الانوار
كاج
بالتوفيق
تب
##ذرون
##روي
##صق
بمخ
عهد
وقبل
حارة
كالت
وصلت
شاب
فاعل
يريدون
رضا
تنتهك
رسالته
المع
زياد
##ابون
والانس
يجدون
والغاء
ساك
مكاسب
بالعب
الفرد
فندق
لتصحيح
اعتبر
فالع
بمقدم
صب
حث
سلع
ضر
بلي
ويطلق
##كلون
خد
ولان
##قتي
تصريف
يخبر
القيم
##بحث
طيبا
لفر
نقلة
##ومة
ماي
النصر
استش
##راهم
الميزان
##راك
تشن
المالي
عاش
الفلك
موته
وكنا
واقام
وسل
يفهم
##فت
الحروف
وروح
##سرة
والعشرين
##وعب
##وانية
اخرون
##كات
والز
زيد
انسب
الالات
شروط
الواحدة
اعادت
##دال
اكت
##ابو
النهار
الجفن
ننظر
##لاج
##ربما
دور
للاشتراك
لاج
##جمة
يبيع
المقرر
داره
##ماد
وقام
اقس
ثلاثي
اشارات
ليلة
ياتون
مقيم
ماخ
##كان
الاط
بنين
##لا
##ايط
ومحمد
##وكة
لتحسين
##روج
الارباح
وور
لنفسك
الترج
الفك
وكثرة
حماة
فخم
يذهب
انواع
الطالب
الزمن
كثرت
الحادثة
##وسم
##فقود
##كرير
التركية
الحو
امرك
##امنا
وحدة
المعالجة
الثور
الاحياء
المجر
الموازي
##يء
المسلم
انتم
المفاهيم
##راتها
اى
وبنات
يمنع
ولله
##يفي
##هاجرين
اض
زان
حزن
##الد
والنف
وظل
مراجع
ثنايية
اسوا
##اعر
الاسفل
فضة
بمقتضى
##كين
##بعه
وليس
فاطمة
##غال
اهلا
##ظلم
ايجار
البنا
##ديك
##التي
التقلي
التاصيل
يعارض
الول
البهنسي
##اي
الصلوات
عددها
محرك
ون
ستار
ولاية
##ضيه
تث
معها
رهن
السوم
مخلص
الل
حنان
ايف
##حقه
تفاقم
للاس
##كاية
المعاني
##تيك
واستد
التي
##يقا
برب
اخل
انطلق
المبر
##مرة
الغيب
زال
وتن
رمزا
اناء
##يعا
اعطيت
مارب
عمال
مكاف
الروايات
بالار
##امر
نافع
طل
الاسواق
نارا
بحال
ونه
قرر
عيان
انتقد
السر
##ربيع
الصوف
اعوذ
والتعاون
بقطاع
الاوف
بتسليم
مصن
تجمع
الهند
ممار
ولولا
##رقة
##واتيم
فصار
القنا
بيت
##وقا
الحبل
دقيق
هدا
المتوس
المسايل
خاصا
للشيخ
وبمجرد
ساعات
احل
مست
##خص
##خدم
##ران
##خول
الكبير
مصاب
##است
حفاظ
##وبات
حصار
اقصى
الحز
ذ
مطلب
عنك
الغم
والسف
مدينة
لود
نق
وقعت
رستم
##فية
للمسلمين
##اية
جدير
اظ
البرا
نزل
بالتعليم
وكتبت
##ناقض
المنصرم
صغ
سع
نتم
تنتج
##ايرين
الخطوة
بو
بالان
معج
النز
استهلاك
للتعامل
للبشرة
##منت
افلا
القطع
العبد
فاني
جيوب
قديم
حضوره
اجعل
تهي
تح
درهم
يقيم
قارب
فيجن
والتخلص
##قلون
مهر
للتقدم
حاولت
ويقع
اسد
المتوقعة
##لاط
الطايفة
تلزم
اخر
المحكوم
فيصل
وخ
العمر
اعوام
شمر
بيانا
السالم
الاوايل
بالشام
الثرى
##قلب
وبالفعل
##ثرة
ساحل
تخريج
انك
الانتقام
تشاهد
القصة
ايمن
الملوك
زح
اوبل
اثناء
للنق
تخف
شيطان
الفري
##وثر
بعنوان
بلس
الدعوات
وعضو
فتحة
الرمض
##فاظ
الانتصار
##وهات
تضمن
القطان
هش
##واتها
امناء
##قسم
ركن
سعيا
الحايط
عليهم
ارتفعت
عص
جعل
النخ
بنج
##اقبة
والث
شاة
##راته
غط
موجز
نهج
الاضافة
##وانا
يخالف
بري
القاضى
لكني
الاقلاع
ويمت
حفظها
##خرط
##ماض
خوف
ضحك
النص
##روها
مواجهة
شدد
تواصل
##قالة
للتق
الهاشمي
مدرسة
البخاري
فلذلك
ينتقل
واستمر
خام
عقله
السب
رقعة
عملت
الم
مزرعة
العظيم
رجوع
لحساب
محبة
الفرص
الدر
متهم
حقل
الصافي
شت
بحقه
مدرس
محب
نقلت
تقسيم
حروب
العمال
حكما
استد
##اعى
وحديث
##يقظ
##ارف
شاركوا
اللام
الحجاج
يحي
ومع
مقار
حيا
يستدعي
لته
مفقود
المقدس
لاننا
المشروع
نب
##البا
السنين
الضربات
نام
المبذ
##كنه
يده
بتلك
مال
فهولاء
##واع
وهذه
الاثير
حصن
فلسطين
##يين
يدفع
اللم
والمج
الزيتون
ذوق
امد
قالا
املك
كبر
الترق
والمدن
تلم
عمان
##دو
##وخ
يعقل
دراية
لاعداد
جند
الاية
الرحم
والطيور
الخط
هذين
الظالم
وانتم
عادت
منازلهم
سيش
لضمان
المبالغ
بلدا
##ابات
ايه
الفردوس
فقر
رجالا
تصح
والمعنى
حدثنا
والنار
بصيغ
يقرا
والرس
والفكر
الذه
اخته
فضيل
الديك
اختلفوا
للدور
المصالحة
##فع
فق
القليل
الازهري
الشهيد
جنود
صغير
##اريت
رفضه
يرتبط
والرا
السرير
العلوية
ولذلك
كيس
التجارة
والتس
الابط
منفذ
الديني
الاذان
##تكم
عش
تقت
نسخ
المحلي
تحذير
المحمد
المزاج
امة
##اتا
الفراء
المشت
##اها
ولادة
يفقه
فار
##وثة
مستن
ايمانا
مرور
تابعة
الجامع
والت
بتد
##ليله
الاستعمال
وكر
السلم
عارض
##ربت
شخصين
##شا
ليل
مستمر
نفوسهم
##راص
هيبة
يشك
سمعنا
مخصص
عواد
حياتي
طايفة
لتحقيق
دواير
كفارة
تعبر
##عنة
الرجيم
##ونة
وتصبح
مدين
وعلق
فطلب
والجل
النمل
يرصد
لتق
شجاعة
الايمن
بالمق
وشف
العيش
ذهب
يفت
نهاي
يوف
وال
##زين
والشام
والدم
والنس
وتب
##جاب
##زغ
نفيه
##كاة
وابن
##روح
##حيح
هجوم
خديجة
##ولات
فمنهم
الشهور
الرجل
بعث
النون
والتق
فرض
الزوجين
الاجازة
نقدا
وهو
كي
موضوعا
الوقوف
##اطس
الغزو
المشكل
يبقي
##ومنين
طعاما
المجرد
ارت
##حون
المتعارف
##وزراء
المحرر
لكنها
ضياء
عدم
عراقية
##وبي
سمر
معه
هوى
##سمت
وامت
##طاني
متابع
الطين
##باشر
كسل
##ونج
##ازي
##حلف
الحرس
يديه
##واصل
##يح
نبيا
زينب
المناظر
الكت
المحت
##ودا
السقوط
يجعله
واربع
محترف
##كرا
تذ
##نوا
عيش
الاشتراك
الكبر
التدري
الذكر
##لى
قصور
فلك
وبدء
تظهر
انذار
##ماط
اليوم
##غض
استطاعت
امان
عمار
بحفظ
وجاء
استخ
المستاجر
يسلم
بلغ
والنظر
الدلالة
يرسم
حرية
يتحمل
العامة
منى
بيك
الصدقة
##تهاء
العدوى
الغيبة
اقدم
##كلة
الخضر
خارج
جنية
وجدوا
فوايد
##افيه
ابنت
متساوية
منعا
فاه
خضر
الرية
ثبات
ليص
معظم
السن
اركان
برعاية
الايل
نشات
##سمح
والنشر
العزل
الحكم
اكن
انتظ
بعرض
الارشاد
بعضها
حاكم
المعتزلة
الدهر
قدمنا
شف
الفض
بمنت
طراز
جميعها
##عق
ثماني
قلم
بنما
##ايمن
##وصى
التابعين
المهنة
جنى
##نج
الجب
##عد
فراق
الانقلاب
الطاهر
نظيف
تقليد
رفع
الوتر
##زار
فالص
تسهيل
الجراحة
الخالية
وعز
يونس
اوف
الهر
والكت
ترخيص
الربع
صدق
الكور
والمكت
ولا
سبيله
الظروف
احيا
بالاج
التجاوز
لبي
ملغ
الينا
##جها
الحادث
وصدق
يخاف
##روفا
بمس
الاقسام
البال
عميل
مومنا
الشركة
البقع
##تناع
والمور
مجموعة
الاهتمام
حقا
يثبت
القوايم
قبل
لاجراء
##اشق
ذات
البلا
على
الجار
لاثبات
##طع
##رجم
ذنب
تعمل
##جواب
قريش
فقم
المذ
المناضل
لحقوق
ساس
سعد
##ايغ
كانا
مبت
##شاور
نترك
الحاق
لمعا
##ديو
اورد
ومر
العلماء
##طيية
ياسر
افهم
خروجه
الخلط
عيادة
لدينا
السمك
وطنهم
##طورة
جلوس
العكس
##عام
بالمت
يكر
خوفا
فذكر
الهوى
وعلا
والرياض
##صم
ناحية
الطالبة
##خر
شعره
مفروشة
خلفها
وما
اتقان
##طرح
التر
بالعمل
نسي
قوايم
المفتوح
ترافق
النقل
##زت
المتصل
العش
عملوا
اثاث
مقدار
بعينها
بحب
الطلب
للاعت
الضمان
الملح
بالمش
درجة
جرب
متعلق
العاب
منطق
اعاد
ومرت
بتعيين
العلم
ينفق
غطي
ومتى
عذب
الثانية
##غي
لقضاء
##اصيل
##تى
##املة
ها
##لتين
يظلم
##قاب
اللطيف
البيع
بمال
فالف
ماهي
##ليا
الجيدة
قاص
بعضهم
ملك
##وبر
الدخل
يخل
##هات
فلم
انمي
عوض
بتطبيق
##طلح
ليث
فيكت
##رص
##حنة
اضع
سوء
انفراد
نارية
تكون
الاسكندرية
تره
وشملت
بالتش
تقوم
بالرياض
يقضي
حقن
ودا
##هره
تاي
امراء
نال
وبيان
نزهة
تطلع
وعايلته
المح
##ارق
الجهل
تذكر
##هي
للمش
قراره
الساق
##ذة
الغناء
الزهري
##كشف
متعب
##زله
واصدق
فكان
ثلاثة
فليت
يكلم
ونقل
##لام
الجوع
##نتهم
المخصصة
وظهور
لحن
اجود
الزب
وضعف
انكم
بالاحت
القتلى
والخروج
لجمع
##رفون
جراح
##منة
##ولى
خاش
بالاح
الغربي
جريج
رون
المتع
زهرة
الجيم
فوضع
والصيانة
الاخري
##ايها
قتل
##شارك
الصعود
النبل
وقلوب
لقد
##بض
البلي
متزوج
##هوري
##شرت
القبة
ورث
تع
استمر
عي
##لبين
لوقف
##شون
وقاية
ولدها
ترجم
عاص
فكر
اواخر
##واض
##عدم
##داي
صدقة
##يرات
شهيدا
نهى
تقريرا
يود
##راخ
تعامل
والم
غريبا
والستون
يطالبون
##وس
تستخدم
تزيين
بسم
##التها
ظرف
الكمال
للبن
سي
##ليه
طريق
##ورد
المنزلي
##غلو
عقول
فليس
الاوسط
ربك
ثانيا
##الدين
وتقوم
لعبد
منكر
تمكن
صحة
##جرا
لتجارة
لتص
##هاش
يعطى
العباد
مشغل
الخيرية
المبا
##زز
##ثه
وحصلت
##اييد
جداول
شيخنا
تعد
انقطاع
فيد
تملك
تط
ابنه
وقتا
##رد
عالية
المستم
تبين
الن
الكتاب
شيي
متوفر
التغيير
امتع
##وبان
فمن
كافة
كانها
ممكنا
وخدمة
ترق
الانطلاق
بدين
وجود
##لالية
اظهار
ضلال
باتخاذ
ويشمل
بارز
يستجيب
قدموا
##بيس
لنا
بالال
مقاول
متوقع
##ليح
وفق
##ابان
##يمون
باغلاق
وذوي
باربعة
البه
خلافه
الاعد
اثاره
قالو
تسب
المعاناة
بلد
##كذا
نواة
فربما
واقعا
جزاء
بيع
قبلهم
بشير
كذا
شركاء
##تيبة
فيمن
البلد
الاخت
##مله
ملف
فيا
##صيدة
والعين
##فساد
دما
لتعلم
كمال
##حقاقات
تستدعي
##براء
##ريون
##رحل
اغلب
##غول
وياخذ
حولنا
الذكاء
القابضة
المذاهب
الاش
البحرين
يزور
الركاب
والتنفيذ
ووال
وغ
الحرم
مفار
يرض
##باي
##رامي
##قيقتين
##عيم
الجريمة
مخ
بعدم
##اوى
العربية
حصر
راتب
والفواكه
الخارج
حققه
اننا
كن
لقم
القرانية
الحل
والاحكام
والدينية
يفسد
نفذ
خلا
كالن
##ولين
##رفه
عو
السين
علمنا
##ردد
تتعدى
اسباب
الانكليز
واصفا
وتعود
سال
مث
شمال
الموتى
الشد
##باش
##ياف
وجهك
الاعداء
صباح
اختطاف
تكاد
طرابلس
وابلغ
الواض
تحكيم
تنطلق
الاوس
يسجل
السهم
##طفل
##ستك
لتوفير
اخبره
الموضع
حيث
ارتد
##بداد
بيا
وحذف
وحافظ
تهتم
عتي
ونقص
بعين
بالاف
بنسب
السخ
البح
مقالة
الطاعات
التى
موعد
العظم
##يفه
والرجل
خط
قصيدة
ادا
شق
##طلاق
صلاته
##صبة
بالعد
والحكم
محاولة
فكره
نقد
الحذاء
لمصالح
ويبدا
اال
##ادير
##الون
بش
الاجتهاد
##رتك
المرء
تعبير
التقويم
تشير
للقران
بالقاهرة
خلفا
التراجع
الديوان
التفاح
##يوش
##امع
عباده
الكريم
ربي
المت
سليمة
الشام
##تب
##ليد
فعلى
المحلة
سمية
اعلام
فهم
##عوبة
اخوه
##حده
هامة
حجاز
اطار
##وية
داود
مقرها
اجرى
الوهم
النظ
فف
##وسي
واج
والدة
##غبات
##وف
عرضا
الخدري
سيكون
والتع
جابر
للتر
معلومات
الرضا
مز
فسال
##اجيل
وثمان
احكام
اثم
هج
مسافر
يحمله
ويحيى
ثقل
والحن
بحضور
قدمته
للاسلام
##زور
والمومن
الحادة
##برا
الطعام
##فاخ
##وسيع
مالك
يقم
استغل
عاصي
امامها
احرز
كول
اصحابنا
وغيرهما
فاقبل
اطل
##هير
بالب
يربط
عايل
عايش
الفاعل
والمس
العاشق
استلم
عاشوراء
ونع
الشايع
الخل
وزعم
##ارتهم
قبة
بفرض
الرو
صيف
المه
ماتت
ابتد
##باقي
مرد
الخف
مبعوث
##خفف
المعلق
بالسجن
مما
##واو
ايقاف
نظام
بالاص
اسبوع
مرا
##عف
صبر
##عك
محف
بلف
الجنود
الحقل
والانحراف
بحالة
واعط
بق
قدمه
واسماء
##غه
##ازم
ابنا
للمستقبل
##طل
لاطلاق
الانحراف
النبوة
وشك
اباد
يت
##يرا
توص
تكرار
##هيل
يقام
انتقاد
شكلت
المنقول
والامت
تاليف
الغامدي
المض
لمح
التكليف
الوسطي
اسرته
المكاسب
للحي
الاستغفار
الفرقان
##وجد
ويف
الغابة
كاملة
##اءت
##وقوف
##ورو
بقصد
مباشر
وهن
جنيها
##اعف
حرف
تجاه
##ويلا
الجزء
الداخل
الطويل
##فق
درا
والري
وبلغت
##ناسب
الكعب
للقسم
ضم
التلف
بالت
##وتون
الجلسة
الملف
ول
الفقه
الاولين
شهرا
المشتري
الافتتاح
وت
اجرة
##طها
يلب
يوصل
تغير
حداد
الثلاثاء
جالس
برقم
ويضم
تقدمت
اطر
##يجي
الوث
ونحو
الاستيلاء
##رتي
اليمنية
##ويات
##رو
والاط
الاستراحة
السق
##زون
##ميص
يوما
حنيفة
فع
الغاء
تمكنت
جل
ضمن
##ذكر
قبلة
##فظة
##لبن
##لهم
دق
صدور
المعا
موت
فلت
متميز
##شم
يزال
والمص
اطلاقا
##سيات
والاسلامي
الموس
##همه
نفسه
والصيد
##اقين
مراكز
##اهة
##ياس
##وفى
لجميع
والقواعد
بلون
بالمس
##وض
يقبل
ورد
جمال
هن
اليونانية
للتص
المثل
بيوم
براءة
ادعية
حاجته
موث
زينة
شارك
بوج
ونسبة
بلج
##هرب
شم
ال
##ة
سري
ومعرفة
الاه
يستغل
المتعلقة
لما
الاسد
ماس
##جاعة
##تك
واثبات
##جاح
السعدي
الطارية
لعلوم
العمري
الحرير
##ضمن
وتمن
يعملون
مشهور
بابن
معتم
طوب
وحدهم
قميص
الاسرة
نقيب
اصفر
تشريع
والفل
يجلس
الفاضل
##شابه
الطال
خاف
حكايات
وعي
ولنا
ثاني
سيده
وحياة
حسنة
##نكر
القلوب
ملت
يمن
بالاست
يخشى
وبيت
متفرقة
##اعدين
##وع
الجهاد
##سته
التفريق
المفتاح
المرسل
شعب
والعنف
المحيط
عثمان
##لالات
يقبلون
##عيين
لعقد
##قلت
الزرا
##قي
لج
وظايف
##طوبة
صيد
يهودية
ط
وتنظيف
ادق
لد
طلبة
الجماهير
الفن
المرتبة
ياكل
البيضا
الحديث
وسياتي
صع
جريت
اتقوا
الايمان
المنح
ر
العلام
فاب
الضر
اتخذ
حولك
##كرمة
يخفف
فريق
فروض
النشر
##ديات
الاعمش
واحداث
##لقي
وارتفاع
باذن
كنت
##ارتها
المفيد
الحديد
قصيرة
عيار
تعال
##قش
##اجع
الحاج
وشرح
##خامة
بكتابة
تتد
المطلوبة
توب
##ديه
القطب
يقتضي
بوضوح
والذ
وتص
ملا
السريع
المنزل
ناي
البنفس
اصبح
بعيدة
##حياء
ضل
##برن
طرا
الصب
رش
وبهذه
قصارى
يرق
##لية
يستند
##طا
ايديكم
يع
لزم
تمييز
الحيض
مقدمة
الفي
الخليفة
السعي
العص
##روه
معبر
##ادون
##فيس
بالحياة
القلم
اوله
قومي
موكدا
##تاح
##اكي
تستعمل
زر
فاقت
الحسني
عواقب
يحدد
ونص
غفر
بقدر
الثقة
المفهوم
##عكس
تعذر
بدعوى
البارد
##ربيه
لانقاذ
لاتف
##ولت
للمجلس
الاسير
زه
الخمسة
##اله
جنب
المقبول
##اسب
الاشكال
متس
الهدنة
عل
قيود
مشاركة
تزيد
ايلول
مشي
الترا
اطلاقها
بعثة
ويدل
بنق
##كاثر
##دها
العجايب
##تمام
بحد
نسخت
البلوغ
الحث
المتميزة
ابعد
رف
مدن
بالكلية
اللغوية
يجتمع
##ار
النووية
##دينة
##طفة
##تق
نيت
اسما
##سبة
بحرية
والهيية
اياما
كالد
ومل
وداع
##قات
الصاب
##فسير
خريف
قمع
##يناف
##ويض
الاولوية
لهن
والسن
##سان
الاعدام
افق
مجه
الرازي
تقع
بحم
الجبال
وتعرف
دينار
قضيت
منزلة
النار
الانجيل
##روء
##طلون
مهند
##لوا
مجنون
يتجه
وتفسير
ابراز
المتعة
القفز
بلم
##ضمون
لث
المتد
التبرع
قرعة
منعت
الكا
طهران
لجان
بهذه
فهمه
##تراك
اصبحت
عقلية
وابناء
للنهوض
القلبية
المجتمعي
##وروا
عمري
التذكير
وصنع
غيرهم
العت
##ارية
النسايي
الفلكية
تحظى
تقريبا
##وفين
اللق
بلق
اسبابه
ابنتي
##اند
ابداء
##دية
انج
دان
##امير
لك
اللاتي
فاخ
لصف
يعيد
القايد
خلايا
والتج
اريت
بتجربة
المام
##هلة
##زاع
فلاح
استعمالها
##وحه
بالحي
بنيت
الشاب
ويذكر
كمن
محي
متفاوتة
صياد
الضمير
المعالم
الحرة
فغ
##اسير
للاطلاع
##لمة
ومعه
محتملة
##يلية
شح
وباست
واط
##انو
القبلة
واشت
الشرعية
##رب
والع
البينة
الثابت
الارها
يوقع
سنن
##واجد
النمر
يليق
اولية
##خرفة
الذى
تتابع
##قطع
##شرات
اسامة
عداء
مكانة
اربع
ولاد
الرزق
والاتحاد
ودية
##ضن
افريقية
لجعل
قاد
وكس
##ضلات
اختلفت
والص
الاعلى
تعمد
رك
بالاسلام
المتكرر
معقولة
لانشاء
رواتب
واخ
##حف
للاستقلال
بمع
افاد
##زهة
الكرب
بجده
قرق
للاح
رجل
تغلب
##لاعب
خطب
ويقدم
وحضور
ومن
منزلي
الوك
سجل
نه
بدعوة
دي
الطرا
السطور
لاعت
اعمى
يغيب
وعنده
المخاطرة
بمقتل
تجاهل
جهل
##كافو
كفاية
وند
منز
التهم
وهنا
الوجوب
##واحي
##زة
اراه
عفوا
شخصيا
المراحل
وتمكين
الابرار
الاندلس
سوق
سلطة
التين
موقتة
تعطل
الكر
عت
بالامن
ضرو
قضايا
ي
رعد
طور
المعتاد
الفراش
الاعلام
اساء
##قطني
قامت
يمكنه
الاجماع
قررت
بالعم
لرسول
##قيم
لتنفيذ
مذكر
الواردة
البيض
##يعاب
وطلب
##ادة
وتبدا
والظ
براب
ضح
نجد
اخوان
الاصم
##ذاء
التقى
علوي
قبايل
تنفذ
سرك
للمل
طلبه
##ظافة
طحن
النبي
شييا
التسل
##واضع
##ويف
وكثيرا
خروج
تفتح
والكلام
التالي
##دا
دفاع
بك
باحدى
بره
##علق
البعثة
بالبوا
السجن
التفت
##راث
الابواب
يطلع
بعدة
##اخت
ينجح
السطح
اوت
##تة
مخت
الاوزاعي
تر
واصيب
والمنطقة
التسليم
السف
يطالب
جاء
اللحظات
##بلغ
وردة
##ايية
القياس
الطبراني
المشترك
وتسعين
نصرة
المعارض
##سار
السمعية
الريان
الطلق
بنت
للمن
الهيية
ويخرج
وتنت
هييات
موثر
القريبة
المارة
##لخص
##فذة
سيرته
يرجى
متاخر
وسهولة
##يبة
القذ
تتحمل
عينه
##داد
الدالة
محاسبة
ويمكن
يسعون
##تموه
##خام
استحقاق
##عني
والقط
معدودة
تشويش
يتح
يد
فهما
ووجود
المتوفى
ستين
ونح
نهاية
##كرت
الاقبال
بترك
مكتوبة
السموم
الاولياء
استفاد
واسب
العبر
متقدمة
تنمية
##نيي
واشارت
ومقاطع
##وقات
اوسع
وصح
قن
يبدو
قالوا
الترك
بشري
بالاسم
الكبرى
##كش
هندية
تقطع
وسيت
##بليغ
بجهاز
ادخلت
والمسلمين
والطبع
يفعله
اخره
##رنا
##شرع
العط
ير
معل
جسم
نفقة
قايل
المصير
الاخذ
جايزة
جماعة
هوايية
والاق
البعير
فصلى
##اعد
الحوض
معكم
الود
مماثل
قوة
##داة
فقط
يتس
المتميز
##طنا
سين
وجهين
التاء
الكار
##صفه
##جوم
اثره
الازهر
يويد
##قطب
خارجها
منعه
طرق
يدافع
المحرمة
الالغ
مبكر
الصادر
جلس
الفصول
##حيف
مجمل
وتبين
قري
##شفت
والامير
##جح
كرك
سامح
المج
بالاعتماد
وكيع
##حدة
بيتها
نصه
باعمال
تستفيد
تجربة
##كاني
يفسر
مكرم
##ناه
الاجر
الستين
ذاتي
اللحوم
تلق
واما
دير
انهى
داخلي
مفرو
رحمة
##لكة
وجبة
زاهر
لسل
والكشف
البضايع
باذ
ظروف
الولي
باليمن
##ابط
موقع
ونط
كفاءة
##الار
المدين
عماد
نهي
لتناول
##وحي
اصحاب
ايها
الروض
شديدة
##ملها
الصغرى
موقعه
شعور
##ذكرة
اليومي
##وارد
##قاء
كو
الشيخوخة
راك
حقها
فوات
علاج
##ثمان
##هارة
##جس
شرعي
قلي
رغبة
ترك
نوم
الحكيم
الموجه
دراسة
القصيدة
الض
المحتوي
تدعي
محض
##وط
شابه
طفلة
متد
##شاء
الفرز
الرواة
الكفاءة
وحل
محر
تلخيص
##طين
الحسد
وانا
##انية
احتجاجا
غلق
##حك
ارسل
وحصل
التاج
عمارة
الراحلة
##طنه
للاستخدام
##ايص
##صول
##افه
##طيه
اكمال
متم
##ايتين
وواصل
باسم
بالغة
حماس
يقوموا
جبريل
استعمل
حصلت
##عمد
شاركت
الة
السلف
فضله
تدور
##الغة
ووق
واتمنى
##كسون
المعلومات
حديقة
علقمة
السموات
تسليط
منح
##ثل
شعر
النوم
يتمتع
عيد
وحتى
وس
عندي
اقامت
اصالة
الايتام
الخطيب
الكث
الانت
##شهاد
وتنفيذ
##فاع
زواج
كليا
تتمكن
والصد
انباء
ابل
كريمة
عشية
##فتين
##يبان
بلغة
##كاح
يبق
يمني
المكسور
هاد
والصح
##علها
للحديث
طلي
المنعم
ذكر
نسبية
محل
اعمدة
حرة
الصداع
##ذاكر
##فوا
والمقصود
الكري
يجب
اعم
المبيع
الكذب
محكمة
احدهم
##قتص
الهم
تداول
وتل
الشي
نجران
##ثر
##جر
يعرف
راع
بثقة
الامور
جمل
الياسمين
ليع
ياز
بواسطة
الحربي
تامر
ارواح
مثله
بته
المعروف
لاحدى
يصيب
يجدوا
واثق
عليها
الحص
اخيه
النزلاء
سبا
بمرض
##موك
##هرا
بمه
المفعول
##زو
كال
وعن
شام
نبي
ومنذ
فخ
واني
الدف
يخ
موز
المتاخ
توجد
##بيل
شاذ
ومايتين
يشعرون
مكانه
وافاد
طرف
##فى
انهاء
الاساءة
اعترف
لشع
ذكرته
ود
خشية
بازالة
يعيش
طبقة
خيبر
كلاما
صناع
الحد
الفاتح
الصغيرة
شعيب
الثقات
##ينه
لقواعد
الاخوان
تثبيت
##حاث
الاسم
##اتر
بون
البالغ
لبحث
##ورت
##طت
يتحكم
الداير
##زام
الوداع
حاولوا
الضيافة
##ياتهم
##ضل
##طو
##نبر
##نزير
اشت
حاملا
بثلاثة
عاجلا
الجزر
مستوى
لادن
المتن
منفصل
البياض
عر
لزي
قاتل
##عاله
احسان
##هر
##جتمع
امل
##وضوع
المشاركين
بروز
تقود
فقام
والهييات
يتمكن
يتعامل
الصنع
درب
وصار
استن
المستق
التجار
##ديي
التعصب
##تهما
الاعم
تعارف
تركي
يشتبه
عودته
بفوز
##تكى
ملخص
يفعلون
غم
##عوا
عزت
مصحف
##شوا
استار
##ذور
حبل
صور
ضده
بنات
##صلحة
الاخرون
يقال
يعتقد
يكت
عمي
##ضرورة
شد
يناسب
ودم
##ريحا
شار
ويجوز
دين
##يما
للتنمية
الغز
##هاده
النس
##ريش
عروض
طلب
جن
كحد
الدقيق
لمحمد
القدير
ورفع
العودة
دينهم
خبر
##قود
ته
##تمالات
عابدين
للاز
نواب
الزينة
##ابر
قلوبنا
عظيمة
الاسما
الفردية
لصحة
مطلوب
ترج
##يناه
نصوص
صباغ
يعت
خدمة
##ورف
واقف
الاقلام
والبا
واعلنت
##ليات
والمذاهب
##عدوا
والاحسان
داب
اولاده
والعمرة
بالحب
الدعاء
فحمل
وكشف
نفعل
الصحراء
سلوك
جدار
##لان
اضافت
الحمراء
الشمالي
##اجات
##افيا
الحروب
لقط
محو
حصرا
التواصل
نجوم
تذاكر
##يتي
راينا
تسوق
يحم
قيمة
بالمل
المنام
كس
مهدي
المقابلة
##اطمة
منزلك
##دار
لزيارة
##يناء
حريم
الحاجب
يهمنا
تراث
الوظيفة
الحداد
القطيف
##كينات
المقد
التاكد
##ادت
والفلا
الكبري
تنص
الزمر
حددت
البالغين
اعتبار
المو
ليح
مرات
كق
مدة
بحفر
الكنايس
العلي
مقاتلي
##كث
الهج
والاتصال
المحي
الرس
التقاط
##رابه
الاشترا
البيهقي
الموافقة
وري
قالب
والوجه
مترو
ووجدت
##ادن
بالخارج
الغام
رقم
رابح
وبعده
صمم
حية
##جارة
##ورك
ملايم
##امته
بقل
بارد
الكافرين
هدى
لطلب
وتم
فوق
شفت
تجلس
الجميل
لمختلف
المنهاج
الوليد
يزيد
الليل
كثرة
جريح
الملام
فبعث
تفرد
الشركاء
حما
السواد
صوته
##ندت
ليالي
##رش
والقن
وانشد
اش
##امه
##وء
الظهور
الكم
قولك
##ورون
حاد
فيهما
طر
##فز
اكتب
المغاربة
الزي
العنق
النات
قاي
معلقة
نصار
عس
بلص
##ند
الابدية
الملا
شرك
لصالح
##سباب
خل
استقرار
عرق
سهام
ملكه
لانك
عنب
##ايو
##جهيز
##نيف
يهني
دال
ويت
الاحمر
صدر
##حت
المفروض
##شفة
وول
المحدث
المخدرة
##طاف
وجودها
العزم
##سال
مها
##ريفة
وقاد
الجذب
##حر
والقضاء
مدارس
غر
بتعطيل
التنا
العليا
ولقد
##بار
بجماعة
بلاك
##ايدي
انكر
الاغلاق
##لته
حصول
شكره
ليبر
الجفاف
##يثاق
اجسام
الياس
##برون
للتسليم
منع
المصمم
حامد
##صفات
الايات
وللت
موه
شقراء
ملم
وخلف
الغسل
بيس
بالفر
واتبع
انواعها
الالة
وتواب
ديس
##صيرة
هود
خالية
رفعه
##فرت
لمل
يوجه
##لال
جح
##ثون
الموق
راعي
##ويم
تسبب
##جرت
يقد
##امى
جديدا
لغير
اضعف
##قتك
المالك
هد
المسمى
##زر
القيود
خمس
مخط
لاث
ترا
ويلي
درو
المغار
اولاد
سارت
##رعه
لجماعة
##حقين
رحل
للتم
المتعددة
فالت
جاف
العدو
كنا
ابنايه
الحلبي
نايم
##نك
وحسن
بدا
##يته
##فهوم
ولكنه
##خب
##يجا
وار
##جو
واص
لاني
اذكار
العيوب
تال
خاط
ربه
وارج
س
للمس
##مر
لوف
بارب
كنتم
حلت
علام
فاز
واختلاف
الاتفاقية
##تس
عرف
كانت
تعيش
##لالي
اقوي
غازي
##طوف
الشان
##ياغة
يز
فيس
تعدد
اقب
جانبه
للبح
يعترف
تنفيذها
الجذور
واخبر
##واتم
##سيس
##افت
عملك
تور
متن
المختصة
اتباعه
اك
الاضراب
الوفاق
السابع
مبادي
سجن
لاست
فواد
الراء
بنظام
ساير
قناديل
يذ
العدد
عامين
بالوان
المجاورة
##سو
الماية
وعاش
واعطاء
صريحة
ثوب
كثيرين
القضية
مدر
##واتر
محبوب
تجتمع
##اصرة
الزم
الاصمعي
##رايع
والخل
##وكد
واخت
وعد
وعمرو
مسلحة
يث
زع
لضعف
وستين
جهدا
مقب
##قيب
بطول
##ورها
تاجيل
حرصا
يغضب
يحدث
مراقب
##ابق
المستعمل
استيقظ
توقعه
عاليا
##صيلا
##صبح
اشراف
الامعاء
الاوز
بنز
باليوم
منس
حسابي
التنظيف
وايد
الانسي
نج
البول
تنقص
##انت
حقك
حصد
زي
جادة
نياب
الخوارج
بوس
حماد
عصره
##روب
##اخل
##ظهر
بارض
##رير
##ذي
بتونس
الفوز
المل
مساء
اوه
يتصور
الشوك
يصرف
##حين
وذهب
اديان
الاصيل
غانم
##ستها
##يادة
الكتايب
زايدة
والاداء
الباه
##يهود
##خلي
بشان
فرص
##طري
الفواكه
استيعاب
الجيد
سجد
جملة
جسدها
##بول
##سف
الالتحاق
رسولنا
كبيرة
وقي
سجلات
نعرف
الشهرة
##كريم
##موح
##فاضة
بقرية
للمخ
جري
ناسا
##جلس
مركبات
برود
محتوي
والمست
##افير
اجد
المعتمد
فخذ
##تيال
المنه
##اكد
اصابت
واذكر
ترفيه
تقسيط
الهييات
لينا
ذكري
روا
##سيد
التمو
للاد
محالة
امير
لفض
##واني
##تمس
رحمهم
##زوجة
##قسيم
بالنار
اثار
يخطب
المعادن
##ابور
##قبول
حار
دوام
وبارك
والدار
##وازم
مادة
اوساط
##رف
مض
سبح
العمالي
الموجودة
##ورين
اصرار
خطيب
الصعبة
##ضوا
ع
الحفاظ
ار
نسبته
بكار
المستوطنين
##اجة
##هز
الادوات
فوجد
قلب
رحيل
وتعم
وكما
قدرها
ابح
رخيص
تدعى
لعام
الوثايق
##نافس
محط
الشار
##ريف
الرح
##برس
مومنين
زكريا
ادن
الالتزام
##عمة
وطبعا
زاد
المستحيل
##ي
##ضت
وجعله
قضاء
ربما
الابناء
وتوسيع
موضعه
##قم
تجرى
قوي
حالته
حملها
شابة
والات
السبت
مبارك
والبرا
اللط
بالش
متحركة
ظهر
الانقاذ
للانت
حام
احدث
الوارد
اشك
##اصد
##ورى
الجوز
طلبت
بها
##حل
عايدا
بكلمات
بتصميم
الذين
ورس
والصواب
##بيته
##دمة
تعزز
##وعه
##خير
الوالدين
فتن
##علوم
شنو
الحج
يوت
##زع
اصلاح
كبد
وتاريخ
وجعل
وقطاع
المتوسطة
##وفق
الطايفي
ينقص
شريك
هال
##اعا
القرم
الده
بمق
المكاتب
شورى
يلاحظ
واذا
اعرف
مكعب
ويقوم
واظهر
الاسي
الفكرة
##ملات
الش
وتجد
عنوان
الجمع
بانه
سيدة
الملكية
قرن
المرغ
يعطيك
اسماء
قدرة
يرفع
بسرعة
التحليل
والمن
##فوذ
وشمال
خيانة
حيو
وجعلها
النفي
##اربه
اسلام
السابقة
للط
الضبط
للال
بمثابة
بنوع
تسويق
##جته
##ياتك
##ربح
الامنة
مجرد
بامت
مختلفين
والقصص
البارز
الفقهية
انش
##اييه
تقديم
شجر
البصر
قوس
صلاة
##وكي
بسي
المخالفة
السماوات
الراتب
لعب
##رورا
الفين
النصرة
العايلة
المدعى
ادنى
العشاء
ابلاغ
الخطيرة
شر
ظهورها
عيوب
بطاقة
البادية
نحت
بالصلاة
المجمع
الرسالة
##يد
متخ
مثل
شك
السوال
الله
بالبي
اللغة
##فار
يتضح
وبين
الغيرة
معنا
وبالنسبة
والمغ
##يلها
رايته
الاطلاع
##حيم
ياخذ
الشقة
وكنت
البشرة
فمع
المدا
دخ
لتحويل
مرزوق
البنية
الحرص
##ظايف
خصوص
فالش
##ومان
صورا
الحزن
هون
##وغل
وبسبب
وتظهر
فيما
النحر
##سمين
والرياضة
##عدل
لجهة
توقيف
الربح
الغر
حرق
العد
وشكل
##كيلة
##نيات
طاي
لتغطية
هلا
كراسي
لاه
المعتم
بلاد
##ضاع
للا
حافظ
##والي
ركعة
وللا
##ذه
##يزي
##ون
بعدهم
نظره
معاوية
فتكون
باني
محاس
وقتنا
تقدم
الساحر
##يتة
ببيع
المطب
الاستلام
##اتمة
فقيه
الدرا
كوش
يمشي
الثقفي
انساب
التحصيل
البصرية
وكانها
لانهم
استخراج
اتت
منازل
للرد
##صان
##صاص
حدة
يواجه
الخاصة
عشاء
واضحة
يخلص
وادى
بقوله
الموازنة
الطريق
الرضاعة
##صب
وبعث
والبرم
القضيب
وحمل
اهله
انظروا
مباركة
##مون
تعيينه
موقتا
ثمن
الفور
يثير
فيفا
##ليس
النخيل
##قدم
النووي
غصن
قرة
اسكان
الكلية
نفط
الواف
##يزون
ومو
##ينية
لطيف
فاتو
اشترط
يقوم
سير
لوجود
##اوي
القلعة
المار
بكلمة
وصفت
خلافا
حضور
غناء
##طار
تحول
##تياز
سمعت
##متك
##غيب
لازمة
##تحف
##بهة
عمره
الفقيرة
##ظير
تشكيل
غنى
##يوط
الجاري
نفي
الجهد
##ويد
نس
متفرقات
الاسر
عامي
التمهيد
الركن
زمانه
فنز
المومنين
##فرة
بغير
ونايب
افطار
جلد
بشخص
النه
وجها
معن
ايتلاف
لاعادة
وثايق
السيية
مختارة
##غب
معالج
صوت
الراس
##ومات
بينها
##صين
ولمن
سليم
ايديهم
موق
فروع
النجار
للغ
بالا
تنتظر
الحزام
لانها
نو
سرق
ويحب
اضافي
##تام
##ياز
المهد
الحلق
الحب
##نيع
موثرة
زين
الكرامة
تمام
##دتنا
غزال
لاظهار
الرمد
##جزا
ويتم
##بير
##عو
قايم
شير
وردا
انعدام
صقر
وبالم
حقهم
مشاكل
الرق
مسبوق
العراقيين
فتع
الهي
حرم
واختيار
##وكان
الظلام
##هوض
الدرد
اسالك
ياقوت
مرشح
حبيب
سيما
اعتاد
##نازة
اسمها
التكريم
مده
والحزن
تعتبر
قرانا
اجه
احسن
خفض
يحملون
##ريج
وصيانة
شكر
تنتشر
شات
المايي
المدينة
النظري
خزانة
للز
فشل
مستحيل
النب
بح
حقيقي
المعظم
قلعة
القر
العج
والسبب
##يت
الهروب
كبري
الحرف
عابد
فجاة
كوف
المخلوقات
جدي
المعادي
عظيما
تستطيع
اتمام
صحيحة
معسكر
موض
واه
نبيه
دايم
الخطة
بالمست
فكتب
بوجه
المرع
مختصر
##تمكن
##ياطة
ناه
##رقون
بلال
عجلة
سبعين
شعري
##رافة
##قوط
وطلبت
##واط
واسباب
وخير
الانتهاك
التحريم
خصوصية
والشروط
التقي
واير
##كلام
يتفقد
##شاة
البث
بنفسها
وسلوك
لاضافة
بالمن
وبهذا
فيش
##طالع
الخصايص
الغنى
والرب
##الع
هناك
الكون
المشركين
برحمتك
ماض
صبح
والاح
جديد
والابت
المهمة
نافذة
بمجرد
لكنه
حفظه
الملايكة
محمود
بصير
يقطع
عضو
لر
تصنع
التحقيق
العلاقات
التط
مشه
##وزو
وحسب
##اعب
والمل
يخرج
##غيث
الشريف
##اليم
الكب
##لهي
انز
##غطية
قبضة
يشمل
والموقع
##ولون
ابر
##وايل
المومن
##ايرا
اتذكر
روج
النكاح
##فران
بلقاء
فورية
##عالم
شان
اخط
الليثي
لكل
التف
شلل
ساي
وجز
عرب
مجموعه
##طيها
##اديا
بسب
الحصري
يوجد
ايكو
مولف
وراس
الحجاز
عري
يجعلها
الطل
وعشرون
اقرار
خرا
الوجوه
##ساوي
##ايبة
##ساير
مقا
بحرف
زرعة
امره
##وذة
المور
تمزق
عم
زرع
وامراة
##ثبت
غيابه
##حق
الوعد
المساواة
##علن
الاعضاء
بدوي
سعيدا
فط
اطول
##صرف
فاول
اعادة
يعطي
ضعف
العيد
يحيي
##جاع
مجهولة
سلفا
البرم
##ظة
الزور
المستقلين
اللوح
فماذا
بتم
الحجاب
ثروة
والخوف
المدير
بغزة
تعريفات
سد
يسم
الرواية
الكشف
حارثة
بيضاء
وملابس
مرارا
اليماني
ونج
يوجب
الجودة
جناح
##ثور
##رارا
سابق
##ديل
حربا
الدقيقة
##لحة
الكو
ووقف
##نتان
##اضر
الصفات
معلومة
##ويح
مطب
زب
القديمة
##نوع
اليمني
##قلية
قدوة
وكت
التوك
مسكين
##ذن
راسك
وبد
ليم
قاعة
##خيص
بولا
##ثرت
الوطن
قولي
##قصاء
وامل
طبر
فارق
مانع
##وايم
محرر
النقب
للملك
##ضير
فرغ
حينيذ
مفتوحة
##ثلة
اتفق
##وامل
خش
اية
بوضع
##دم
الاهم
الثقيلة
خيارات
ثلاثين
بيتا
##يانة
تشري
احنا
جدة
ابايه
عملنا
قتلوا
حم
اذكر
والشي
فارسل
الاختيار
معني
##ظهار
الشجرة
التنزيل
المدخل
الرخصة
والمالية
بعدي
تنفيذه
تحديد
الكفاية
التاويل
جماعي
المميز
##عن
العراقي
فش
##انب
مفتاح
مرسى
تحرص
التلوث
يشتغل
ويزيد
العريش
مشاركته
الشمسية
متح
##كنت
##تين
ايمانه
الغياب
ببني
يلعب
والدها
يصب
انكار
##لول
وض
يراد
دقة
##سيا
والحرص
للتس
بلدهم
##راق
اضافة
المنافق
الفلفل
##ف
المشارك
لاخت
انضمام
التميم
مشت
الحميد
وفدا
المقص
##سوا
بطرس
مدح
الادمان
يتع
وقفت
تقوله
جلالة
سان
##يراد
بانواع
فاخذ
مير
حرج
##هة
الاحيان
الحافظ
ويغ
##صايل
##صدير
القن
الخلاف
##كاتبة
##ازى
مق
اجزاء
الضرب
##ارين
ظاهرا
##بان
الايد
الكثيرة
تسير
##يتهم
ترم
اسبابها
الوحدة
فدان
الهواتف
النع
الشك
التناقض
الجانبين
##وشي
غاي
خطابه
قياسي
ومنع
اقص
رفعت
##صام
اهانة
الوصل
للزوج
الكره
فني
وسين
##لة
يتنا
داخ
اعتمدت
املاك
التخلي
الاصل
الشباك
والتجارة
##وعها
الخد
ادت
الحضري
حرار
الجلوس
##شيد
تاخر
احمد
الفضيلة
ملوك
بص
وقالت
يوم
الدقايق
##باب
الفاتحة
اليهما
صواب
القرب
الطفلة
نعتبر
##وعة
عقود
بالفعل
##فسهم
والمول
قلبها
قسرا
للات
صعبة
اسكت
دخلوا
والاكثر
الفاش
البي
ووضع
تنظيف
##دينه
الغير
##راوات
اوضحت
مرتبة
برك
استبعاد
##سامة
عكرمة
##والات
##صيب
بدور
بالمدينة
مشار
كود
يكشف
نط
المده
مثالا
السكك
دراهم
##هدف
##هرت
حرك
فلسفة
وبدا
حفل
اشترا
لصوت
الشابة
نفسا
نظيفة
حان
##صا
الجمعية
مند
الانق
##حار
القيام
للمه
##قاذ
مسايل
ولدت
انتظار
المتوسط
بالمعنى
الوز
العالم
لمشاهدة
لبعض
شه
تحصل
المبين
كان
اسواق
##ضامن
##ويس
جواز
وتابع
يدخلون
##خلق
العبارة
صحيحا
النبى
لعدة
##سنى
العرش
##بيب
روايات
خدي
##ى
الخطا
عب
اعمال
قرابة
والاخرة
باحث
الاورام
##ظه
الحارث
ياتي
شهادة
يضرب
تزوير
##ايف
الزايدة
تطلب
واخبرنا
سل
الموال
حبيبي
وكذلك
انفسنا
الهندي
ليب
طا
اليون
يستحق
للدعوة
قرون
نهر
النبات
##نة
النطق
خطبة
السماء
انزل
حلوان
لدين
العملي
كلها
خلية
شريعة
الشكاوى
فيغ
ينت
اعلاه
وارت
بالنظر
##ارها
حادة
يضع
القضاء
مفصل
اولها
تصوير
##وضحت
المراجعة
بينه
انتشارا
اقامة
المنظ
الفعل
##فيد
كلما
روح
لذي
##غوا
##ذلك
رعاية
والاغ
الفقير
فيم
الحاصل
##شي
اليع
علمت
تفصل
##ليل
صلوا
##ايخ
وهد
للبل
سول
ربط
دا
الحضرية
لسد
الصمت
يحل
عبدي
مخز
الحنبلي
المحج
حلول
معتمدة
بالقسم
حص
الاتجاه
قلوب
ساكن
يشاركون
الشديد
##قاسم
حسني
بالث
العلامة
##ثا
وزع
الماج
##ريق
الجيوش
حظر
المدع
ولوازم
المميزة
امريك
عينة
يكثر
للاصلاح
خواص
وتغ
الاوقات
منفعة
بالدعاء
##ابلات
ودفن
قادر
امر
العقار
غرق
ترتب
ص
لتج
##كلف
الينابيع
هزيمة
واقع
معاينة
خالد
الوض
عالم
##طيط
تلام
##ربط
حلقة
##ريها
##ونا
لس
##يي
والخط
المقبل
##ركم
##فه
خيال
شقيق
فاضل
تصان
جاد
##اميم
العل
والمجلس
الباطنية
مصدر
باتت
##طرد
نر
وفا
الضربة
هوت
الاسماء
الجه
داعي
طبق
تدين
الهجاء
فاد
بمص
##ماع
الجدران
##اف
هنا
حط
##وتو
الكف
حياتها
وهل
الصدور
للتاكيد
مقال
الاخرى
زيف
رايك
الثانوية
##حالة
مواف
لعلاج
الفعلي
الاتفاق
كلمته
المسافة
الاتحاد
تتكرر
##رقوا
##وقين
سهيل
موقت
الناق
ومنهم
السلع
احرف
توصية
##كك
الموضوعات
الاوامر
بقط
باغ
يتطلع
لاق
تحسب
اوجد
المقيمين
##ارا
يظهر
يحبط
اعطي
الاداب
واعلام
العنوان
سوم
محفوظة
##حاء
الثوري
##وعظة
عايد
الجذ
يخفى
بتج
المغربي
القسط
قيد
عظ
والرواية
##ناز
الافصاح
العطاء
الاسلام
الاملاك
##ضحك
شبهة
مسب
رامي
##يلون
بكلم
##كينا
##ظام
تاف
سكن
روض
بموضوع
مخالفات
قرارا
مام
انح
والحب
##فلس
##فاق
فاس
تعادل
##عرف
##ذية
وثم
وعمل
##ارع
الوان
محاسب
ريم
بالشرق
مضمون
الثمان
توضيح
وطالب
فسوف
صغار
مصير
وعلى
مجالا
##روسة
قبي
السليم
السلوك
##عتك
##عيدة
الخبي
معمل
##اذ
المطالب
العروض
##قاتل
الواسط
ويخ
##فذ
المرضية
والتوجه
دمه
##زاز
يعذب
والمسا
ياتى
مكتب
الاعي
صلات
بالليل
مم
المنشور
##قب
تقريرها
تطل
خر
بالكتاب
الانصار
المقدمة
##وش
ففعل
المرسلين
فتوى
المستخدم
تفقد
مسح
الصايغ
السع
تنف
##ضب
سهم
اوم
المعجمة
##داخل
معروف
وجن
علاء
الانظار
عندنا
الخصوصية
##كت
الكس
القرط
للمنا
صفحته
الشدة
تسل
##واية
مهاجر
ويودي
شهرة
الابر
والنقد
اخبارا
الايدي
قمر
اللعب
النقود
والروح
الكافي
احاديث
تكت
فز
##بعاد
صابون
والعطاء
مد
وحم
يتصرف
حقوقه
صلي
صوري
وثلاث
الاقت
##راج
للمص
هشام
رب
##غا
استغ
السلمية
الشيوخ
عمدة
البراز
##باط
الغار
##ياء
موافق
الاعوام
فينا
المعد
##برق
يلتفت
الخز
لسان
##ادتها
واطلاق
الميت
ارى
جماهير
ورحمة
وقراءة
اباه
للمحت
ومعت
والمساواة
السفر
للق
وادخل
ابنته
العجل
##لك
يشرف
انيق
فبلغ
##صلي
ومدينة
الحال
فن
غزوة
تونس
##باهه
والتي
شوب
##قوب
##بيلة
##تا
قاطع
العصبية
عرفات
اشع
واثر
##ركون
اصلية
زمل
##داول
الكرام
والما
لعلي
##ونه
الاجرة
اغلبية
##لر
مط
يرتفع
##اعت
انخفضت
##ج
تنوي
الدية
##هن
اسنان
الرحيل
الاصلي
الفرع
والاج
زميل
الاستف
والمعادن
السباق
مشروع
متسا
اليهودي
ابرام
لاري
لايف
بيز
الاولاد
المشهورة
نادر
والجمال
انتشار
يعتبر
اخبار
للاه
##ادى
##رجان
بالع
واسم
وجودة
##شيت
الطبيب
والعت
##قطاع
مشاهدة
التردد
الباقي
تستمر
الصلاة
وانتهى
التص
##اعة
سمعة
دوا
المزمن
سمير
لديهم
يظل
مضم
ويم
النط
معدل
مقدم
للمتر
ملتقى
##ولية
الانفلات
اجلها
ويحتمل
والاحترام
وتخرج
الفتى
الاربعة
واعتبر
وصلاة
العون
البلدي
اقسم
القلب
##يكي
نون
##شاب
##سة
الطلبة
##ملاء
الوجه
اسحق
الياء
##ضون
نزول
الاكو
النقابة
المزع
الضيف
الادعية
محت
السوداء
الراعي
الاناث
يتوجه
صفر
ريح
عليكم
##ايز
صديق
والعقل
##جلب
##ذان
التامل
##سطو
##قلاب
الكافر
وكتاب
العافية
الجن
الغرفة
جلي
لان
امنوا
حزب
السادسة
الركبة
الحكومة
##راحه
انعقاد
فيمت
الاعداد
##ره
سوا
مسيرة
هالة
اسقط
جان
يقتصر
قولا
لاع
للتاريخ
للشخص
والهند
ودخل
الناشية
الاسب
الخيارات
وبالا
##جاد
##وو
الاسيلة
حمدي
سق
يام
##كوم
والوزير
رافعة
عبرت
والفن
الموقت
فقهاء
يستطع
فهو
الاولى
حتما
حاصل
##يزه
فالله
المكرمة
لشرح
بالانسان
تزور
اعتقاد
##هرات
سباق
الانسان
بقاء
والبر
تستعد
مرتين
بقايا
الوسايط
امتدت
اورام
##اعدا
بالسر
تجارة
جزيي
سفرة
##تمان
##رة
تكثر
ملايمة
وسكون
يملكون
تقد
غلاب
رقبة
##اثير
##طات
واشكال
السلمي
زجاج
اشراك
وسر
مزع
مصانع
##ونس
المساعدة
قيم
##اعون
ل
امس
المسالك
مقابل
وترك
دون
الخان
وعند
النفسية
مجاز
اشرف
جدد
راش
المغت
##زم
شكل
الارت
يلبس
وظيف
الواسع
هيا
تقلق
فتح
قتله
سك
##وك
##مام
باس
الحنفي
وبط
المهرجان
مطالب
الاداة
السارية
القرون
واسلام
قبلها
حدثت
امارات
للاعلام
##نقل
المعن
مكن
ينا
العمل
مواط
نجل
سيد
للذين
خيمة
ومنت
القسري
يكن
الجعفري
##جز
يدير
صان
##تان
تحق
##داية
المتداول
عجز
بينت
الاثم
امه
##بط
رخصة
##قلها
يكف
ضربة
قطعت
متوسط
وحدها
اصد
تعملون
مماثلة
طريف
الغزل
الناشر
اليسا
توافق
عبادة
كيو
كذ
وصال
الاتراك
تهديد
النق
ترى
##وفه
موقفه
محقق
النسيان
والترك
اد
والاض
مايو
##بروا
##راغ
##ايتهم
ارد
##ولف
بالك
##صلا
##امية
خب
لل
الاعراض
برسم
براف
كري
عدة
شهد
النقدي
##واب
تصويره
خريطة
##وصية
##ربع
تقتل
ضياع
##فادة
الراش
فرط
##لزم
والوقت
##فضة
الارادة
راي
##اثر
كل
القطن
تلا
العصافير
الصحابة
امانة
مباحث
اعقاب
الحجم
وحين
بحر
هروب
عقوبة
##حلة
وقاص
بالو
البحري
هذا
تحمله
باك
يشعر
بالخ
##ناوي
الهامش
مختار
الغلاف
لتع
##دي
تتهم
ايز
الموت
راه
بالقرب
سمى
الايج
عاما
مختبر
صدا
انقضاء
الطويلة
فوقه
العبادي
مكافاة
في
لاند
تخص
استمرار
كعب
مناس
ارخص
وفقدان
فقل
بوصفه
##قبال
عبي
بخبر
##دان
##خل
شغل
مخلوق
العايد
##يبها
##ريل
لحام
ثن
حاجات
##اربة
فانظر
سبل
بلت
##لد
الفهر
وصلاح
##ويب
كع
والاهم
##هورة
الكتب
واتباع
##قتل
##فاءة
##ير
واخرجه
العقلية
البيضاء
مريية
ولك
المعرفة
لوم
لهيية
وحالة
السكان
ولح
عمران
واخذ
مشتركا
تبعا
بالجن
للاط
يرو
دف
##فتاء
هز
##خلة
##صريح
##كف
الفحص
الفخ
قتيبة
جبران
انسداد
##ثلي
فعلها
طب
حققت
يقدر
##ودية
##روز
التعاون
حجز
والفت
##ريقة
قالها
##ور
اكل
الموصل
سرف
##ياع
خارجية
##ابين
الاشياء
القاء
غسالة
علامة
والانسان
لمتابعة
##خاب
كرامة
تقدر
يته
موطن
التجزية
##والد
اسطوانة
الوالي
الخواص
سنة
حول
رجعت
الغرب
صديقي
وذاك
##سفي
##ايته
##برة
ترجع
الحماية
تخلص
لاغ
##انع
تحديدا
التهديد
فقه
طعمة
فضلك
والتد
##براني
تست
اوح
##فن
##عامل
ذاك
صنع
فكانت
اليمن
##نى
الرجوع
شملت
وصناعة
نت
مشروعة
والقلق
##رق
والحسين
الكوكب
فبد
##سبب
الصلة
##غو
##باغ
مغلقة
ذوي
الب
يتق
##التهم
العدالة
##عان
السياسة
والفرق
##يس
استبدال
قوته
يتفق
تعطى
الواضح
ورك
المعز
كروية
الشن
اهلها
##ضافة
وتتميز
الشحن
الانواع
البدنية
تلاحظ
اياد
الشوط
اصله
وتذكر
الكوفة
قدمها
جوايز
عنقه
طول
##ذاك
والحم
شريكا
ترو
الخيار
##ظيفة
الفم
طارية
تترك
بمد
قدوم
بنو
افعل
وعرض
وسبعين
##خلص
وصلوا
الصغار
##طرق
الجواد
لست
البدي
##واز
اسر
لانهما
المماثلة
ورفض
انس
محذوف
الحارة
اعلنت
وحز
بكت
برحم
عزيزي
المبدع
وتاتي
انا
الاصبع
##اسة
مره
فاسد
##حة
اضطراب
الموضوع
ويتضمن
وحده
ورب
شل
كره
فراغ
فداء
الامثال
وسي
المسل
عالما
ونقول
وكانت
فاذا
مرشد
بانفسهم
نستطيع
الاعتدال
##الين
محم
الامارات
والرد
##علقة
سبيلا
##عاب
##كيك
ووز
##يبو
والحرب
ودعت
يضل
##واحد
امرات
خاسر
ثقب
وصور
المنهج
##اضي
البتر
نعمان
اكس
يف
مصرية
مثلها
بسحب
الساعة
عرض
اصلا
##يدة
انتهاء
يساعد
للص
وهى
##احل
الصابون
الموظف
تاكد
ادراك
مضى
صمت
مخاط
قلق
شوك
بالامس
الادنى
##راض
السلاح
اعمالها
##اغاني
بريط
مذاهب
مميزة
##ظات
وعاصم
البلاغ
رحلة
تصور
جميل
موي
تفضل
ويعلم
##اني
الخش
بايدي
الحديثة
تسمى
واع
بمرور
التور
ينطق
سرح
##احبه
عاجل
##يب
اللغ
حرمة
قبر
##جنب
الباء
##ايرة
للاستمتاع
صحت
كالف
فضيلة
##مني
ومشت
اندر
الفنون
##عمان
واستقرار
الصورة
البصري
اساءة
واذ
والايمان
المادة
لمع
سلب
##طنة
الكرم
وكلها
المجموعة
وبركاته
نز
فقالوا
حمراء
ينمو
##قدار
يحد
لقيت
سيس
وبث
عفيف
كلاب
والاب
والاص
##وخة
تارة
بقيمة
##جين
يسجد
تحفة
الالهي
والمصالح
والعالم
الواسعة
الرمل
منصور
السلطان
##تدال
يصور
والخلف
منحة
التجسس
السباحة
##رته
ليو
واز
الاخير
الكبار
والرم
هني
جرت
ترض
ني
اسلم
اللولو
اسمي
اصط
##خدام
خطة
مسابقة
متوسطة
تصفية
##كتبة
الاخلاص
حب
الضعيفة
المعالج
الحياة
##افعي
الموارد
اياه
شور
الشراي
##رور
##ضاه
باف
##ديق
ادلة
المعاهد
القراني
بدرجة
جني
وبل
##فلت
مجاري
قسط
مزيد
المسا
والكن
اعضايه
ولات
وقطع
الكليات
الاصرار
كنوز
بوا
غرب
##جاوز
خص
هت
اسقاط
مفاهيم
يطي
##شط
الطرح
الرب
احداهما
بالحق
عض
تقف
نسبيا
مارس
اخي
بنصف
بتس
بتع
لقطع
عاتق
صدى
##جسد
راغب
##همت
بعدها
والاجتماع
التخص
لاذ
النسخة
المعاملة
والعرض
فكيف
درعا
مراتب
حذ
##لاح
التخلص
##هو
الدجاج
طبعا
فام
بالنيابة
هكذا
صادقا
قاري
حامل
حالت
الفلا
##اويل
والدر
المصرية
النفقات
يشت
يقودها
غدا
##ثاله
##ومون
فتحت
مرضى
ينبغي
##شرة
المشاع
يهودا
والثاني
باول
حلمت
ووا
سحق
الرضيع
##طور
الموب
والكرامة
رحاب
والمه
ابج
الاخيرة
يتن
رع
##بهات
بغض
يكتسب
تاني
بوب
والعلم
المسلمة
للحد
بتح
ممنوع
##دمت
شجاع
وطب
الزر
تغطية
يبعث
نح
##ماوي
تضيع
وحرم
التربة
منا
يرتكب
عبده
وكي
فريقا
##اءه
##نياء
بلادهم
عناصر
##طف
بالتم
##دة
لش
ابوه
شج
ينزل
للتط
المان
لترك
##اس
ممكن
##يرون
بصره
يوش
الرد
از
الوقت
توليه
##يتون
والعدالة
يفترض
الزخ
##وون
لوضع
نسيج
اود
بوقت
اطلب
المحتمل
والاراضي
الاستقرار
يولي
كرد
فيها
##فارة
البسيطة
بحقوق
الرف
الرسول
التسجيلات
كتبها
ماهر
الاديب
وزم
اهم
رسوله
##نيين
منهج
الافتاء
اسرار
استماع
واثار
تهنية
اتفاقية
الجوف
وقف
قاس
سدي
حبوب
اوغ
لهما
##كس
مجن
فتحي
لدفع
##اربين
##اعم
يل
##ذات
ارتدت
الناحية
يموت
ونظرا
الفعلية
ترميم
تقدموا
واليوم
والله
يشترط
##ايس
##رضين
الشب
يري
المفر
مواهب
السلامة
يخطر
اقرت
##قيبة
وشروط
وبلا
مبني
تلف
الطراز
والمشاركة
واثبت
اعجاب
اتجاه
اما
مظاهرة
للجسم
مستوطن
العراق
المتحدة
رمز
للمرة
المجم
##ريمه
ترون
اخترت
البدر
شركة
الشخصي
ويط
للفوز
بلو
##ضرة
الاعتماد
وايا
مفرق
وافني
الضعفاء
##خد
##قتها
تمكين
التدخل
المهملة
##ابا
معناه
##قرار
السماع
نيابة
ح
المد
العق
اصابة
لعالم
يتخ
للصف
يقسم
محسن
لحضور
القرنين
ارادته
جوي
توه
معاون
##بيون
المراد
يشفع
الحك
##وعات
شرطا
##ومن
اتى
يعقوب
##وه
والصف
##واله
بالاض
ونست
##وقاف
شوم
وصن
معالم
زعم
##بطين
بوقف
والاصدقاء
التوقيت
يعلق
العثماني
##اصمة
وتست
متهما
ذل
للخدمة
للخروج
الجري
دن
انني
وكثير
لبل
بلغت
الطواف
عبدا
محلي
##رايب
##ييل
والاخير
القاري
الايجار
تلبيس
ارجاع
الوسايل
المق
سيرين
الثدي
وتس
##عار
واكثر
الحركة
كرسي
قطعا
المشاركات
مروان
الحور
زمن
العلامات
توكد
البحار
وفيما
فيكون
##ورة
ند
##ريقية
كافر
بتعليم
##ديم
افاق
المنازل
نشاط
المعنوية
الصيغ
يعلمون
الملاح
النوا
وسال
يتوقع
ثعل
هدد
رصاص
الانذار
##طيك
ليصبح
الفعال
الراجحي
مسج
عبيد
وطرح
المشرف
نظرية
ثالثا
نظرت
العالي
صنعاء
المسلمين
بينهما
لعرض
الرع
عندما
الساكنة
عنها
والرك
القضايي
الجماعات
يعين
##ليط
الكمية
للش
لغة
الذهن
مندوب
لرعاية
بسعر
##اعي
الحف
ومثله
باطل
ممد
##يز
##واء
ديب
بريد
سكان
مستمرة
باحت
الشيرازي
دعت
اسحاق
وكلاء
الهدي
اعراض
واياكم
للاش
الرحيم
لعمل
بالتس
لاصحاب
نش
اغراض
الملت
واطلق
الصدمة
المعين
الحدود
الامام
والحديث
بالق
العمق
مطلعة
المث
معنى
العادل
رفيق
##لافا
مكلف
ولب
الضوء
قافلة
واشهر
مع
مبا
الحجر
للت
ملاحظة
الرشيدة
لف
##علي
دورها
شداد
طلق
الاشرف
الفق
باشا
الشاهد
الدخ
عاز
ومال
ارسلت
كبير
اخرجه
احدى
نشره
وجوه
عديدة
ووافق
نوعا
##شل
خفيفة
وشرك
##حم
والانت
ابسط
سريعا
##حمل
المختلف
تحليل
صليت
##طوط
النقيب
اصل
ويب
النا
##نبية
تعليقا
##يرها
يمس
وغيره
ينظر
ورود
يمكنها
مشب
##هد
الاسعاف
الاحمد
ارجو
بسل
##جزء
باج
سترة
##تمال
حصان
الفرايض
تقم
وتحت
بادر
لاحياء
حنين
##بري
حالها
الوص
##يص
مصالحها
للكلمة
الازمنة
بزيارة
التوجه
والالم
جرى
كتابته
والشيخ
رض
##المه
علما
ليقوم
##ادته
واد
ترشي
##وصي
المسجل
الفتاح
##واة
والجمع
المناق
بشهادة
ورو
الطب
للالت
اكره
##ظلوم
تحفظ
خاتم
المحمدية
##فيف
جزييا
الناطق
يصح
وحب
حفر
##اهدين
##وخي
ابها
التجربة
خيرية
العيون
المشتركين
غاب
الارز
##رجس
محمد
الانف
القسام
##خور
بتط
والدي
##زل
اجازة
حفظ
##بيرة
ليغ
منة
مواضع
##كة
استيناف
مفروش
القياسية
السلفية
انقل
بكري
ابواب
وكانوا
الحسين
دماغ
##رعان
##يا
##يعاد
الملي
ومعها
##وقه
##مت
الشخص
العصب
القطعة
الحبوب
تعارض
تخلف
شين
سمح
مهلة
المنص
الانهار
بسند
جاي
##قاط
وهذا
الطاير
نفسية
الحراسة
##هام
واسعة
ضرورة
##يتها
الاطر
وتخ
عدلان
يصدق
ترغب
بالجملة
ولمدة
##مو
كمان
تستند
الركوع
قرار
واللام
صادقة
الاقتص
##ديث
يضيف
فبعد
اناث
وتسمى
الاباحية
كاملا
انهما
لوس
وضمن
وافادت
لام
يترتب
اجتمع
حا
مشغ
وجهات
##فاية
للاعمال
مقتل
ذكرناه
احص
ضعيف
ضعيفا
الادوية
اسهل
بمقر
حدود
يشاء
دلال
تصيب
اراد
صام
لمخ
تيم
##اهر
العتي
المتجددة
ايات
الفيفا
الاربع
المساجد
البير
تفوق
توثر
الضروري
الجمهور
واعظم
وبني
وشرب
قناعة
وجوده
ولن
كص
فرجع
اختلاف
يبعد
فرح
الاوت
سالته
تعليم
هر
توزع
مالا
الصناعة
فايق
مبكرا
منق
نيل
شباك
مجلس
امله
اقصد
الفضة
اخبرنا
حاف
##جميع
للحق
محكم
رزق
##نجر
ايهاب
فلب
وتدخل
المضافة
##يمه
النش
وجماعة
الحان
وشي
##شى
##قدر
وجد
والحمد
ومصالح
اليسرى
مسمى
فالق
فوري
نقدم
##يو
تكلم
بصري
##عض
##صالحة
فاوليك
##قار
اصبحوا
قبلنا
للمنت
##لي
الخر
مستقل
الشقيق
هى
اسعد
بشمال
تشابه
الارمن
مختلف
اختبار
الالب
مصطلح
بير
مضيق
تعليق
شيع
حن
اعتماد
شمس
##وت
##ناكم
الاحص
وقد
وتت
فور
عمير
العاملة
كربلاء
والنا
شبيه
يمل
وجوب
الفيران
##ضور
عصابة
ممت
##ابلة
بنس
وتضم
لمد
اجرت
للسلام
عاليه
نتيجة
##ذوفات
ومق
باعت
فعند
##طبة
فذهب
##شق
التركيب
##راقة
بقلب
النقي
لجا
ديون
يلتزم
الكورة
وتقدم
قول
الشه
اسرى
ظله
تعرضت
##تماد
وسايل
##دوري
اعداد
كتبه
بابها
قاموس
يومي
المملكة
منفصلة
لبن
##اتي
يشاهد
##سنة
البار
الاكثر
وحس
الاثبات
نقبل
العنزي
اعت
##وضا
راسها
##خلف
##وسل
برق
عشق
النكت
##الاس
لاتفاق
ارمين
##اليف
النجم
##يال
وفض
مياه
##قاق
بالتق
##فات
تفهم
اطالة
تكر
صنعت
##اهده
كلمه
##حتي
القتال
فيقولون
غيرت
المجاني
وسبق
يتعارض
##كرم
##ذوفة
بعضنا
تليق
يسعى
القوة
للوصول
قريبة
لع
##قده
الامكان
ولين
اخضر
عجب
شيبة
لاغراض
والتر
##سين
القل
ماج
##رايه
والبت
بيب
الشوارع
التخ
##ارعه
مني
فحسب
الاعا
لتت
اليت
##ابيب
##ويك
والجواب
مطالبا
##على
امها
ورجل
دني
فتاوى
الابح
بنشر
واقل
يح
يعم
الر
شاهين
معاليه
##طاء
##حتها
رح
بذن
##ديا
ومسا
##زب
الحبيب
اكبر
الحليب
##ظن
##بغ
والسنة
##راط
الاستغلال
بلقب
فاكثر
ملكا
النقد
##يسر
##جزات
اهالي
##راد
وهولاء
قض
الشر
ركعتين
ناص
موقف
الاول
الاجسام
##قلين
مح
الصايم
امتنع
اصبحنا
اليم
النمو
رجب
##صاح
تج
الحارس
مدافع
تعرفه
بالاك
الاذاعة
يملك
واسمه
والعب
خصيصا
##سع
والاك
ليد
حى
##بن
بدت
لبيوت
لكونه
المجتمع
حلاوة
سبعة
مقص
تك
فيست
استع
##اداة
الدا
##ظهور
كف
ثواب
التمييز
متفق
فبين
يقدم
##ارج
الغي
النعمة
الد
للمسلم
وحكومة
للتجارة
##رارة
يغفر
##باير
مراد
يحمي
##جه
متاب
اماما
الهدف
اكتر
خلافة
##هت
بدءا
مفاتيح
##وضوح
ومعنى
وتدعو
فرقة
الاطراف
الاقامة
##ولان
وتمكن
الطير
##سمى
الاث
موا
صوموا
يرى
##خرج
والمرافق
الاعشاب
صندوق
الدفع
شقيقه
قذف
برج
##فرقة
التك
بالر
صلواتك
النتيجة
##تاب
اعطت
مولى
انجل
بوف
خطا
والتقدم
اضاءة
علية
خاطي
وعلاجه
##نده
لاختيار
طرحها
والباقي
##مش
شعبة
##اصل
وخل
##بتين
الذنب
نطلب
مور
للقاري
تسكن
يمينه
##باحة
مثبت
مقعدا
المعرض
##جلات
نخل
لبيع
ترن
الدني
مشروعا
الملكي
انتح
##فط
##ذهبت
##واضعة
##كمل
المرمى
بيننا
سعة
وعروض
غار
##كيه
صعبا
واجن
وانواع
المناسب
اوص
ارق
الخي
ومضى
امام
##ليقة
ندخل
##ثة
##مود
##صال
العين
فبر
##اموس
كانه
المتقدمة
لفت
وطني
##ستا
لهذا
اشكر
الكرسي
##صدر
##كنات
اقترب
مالي
يمتد
اوقات
المدي
النف
المبلغ
##طير
##ست
نادرة
القديم
##حو
الصفر
راسخة
عشر
الشعور
التاكيد
منتخب
##واجن
سنوات
جزء
##زيز
كاتبة
الانبياء
مولانا
الادعاء
فاتح
ولكم
العالية
ور
واخرى
تفسير
عكاشة
##وقية
توبة
تتعرض
المشاعر
التعريفي
##كوس
للتح
حقوقهم
القرء
تكليف
التوظيف
##الك
وصوله
##الى
احتيا
باننا
ومالك
التميز
تجعله
مخاطر
##صلات
##ذيات
اغفر
العشرين
مج
مقدما
توم
احببت
##برز
الشريك
ارث
تاس
الجمال
يزعم
تنشيط
قريبا
##طبق
بالفتح
عف
سابا
صادرة
حيوانات
رت
الصيام
لماذا
عصب
فاخبر
متعدد
حوامل
نشا
الانباء
الفرج
الجحيم
##سك
##راس
ورعاية
عاملة
غضب
الاراء
جي
يشتري
##وهري
وسوف
المشركون
بالدخول
والسير
التعديل
##طدم
يهود
##كومة
بعض
##هرة
والثق
نف
##كره
والقي
النج
مقعد
يراها
صعد
##اور
بياض
اني
السما
المسيول
المواقع
الانس
مجرى
##فرع
##ظيما
ملحق
الوقاية
المعتمدة
##ين
واقتص
##كيون
اقوال
ضدها
والبيع
لخط
الطبقات
للناس
اشخاص
صي
القص
##فتي
##جبت
حديث
وتز
كقول
##ضحت
المحام
تستغرق
فتم
صوره
فنقول
##اجل
رواه
##صورة
والالتزام
بعودة
لحركة
الديانة
ذه
بينكم
فيت
التاي
##يقة
كوه
الراغبين
والدليل
المسكين
##دمات
الحالة
صاحبها
دمشق
جانبي
وتضع
جود
فايد
##ليب
##ذبون
##رن
سايل
الامتناع
وحي
##اجا
وتوجه
الميداني
خطوط
قصص
مر
اراض
##اسر
##لفات
يطرح
سداد
واسر
اختياره
لعبة
البا
ظلما
##وضية
وص
##ياج
ويبلغ
كوم
خياطة
العلاقة
بالاس
الانثى
مرس
وضرب
##ايت
ساعد
تخفيف
الجاهلية
##كاتب
صغر
التعريف
الموحدة
ينف
##اع
بالضرب
الترتيب
دوره
تسي
بتاتا
يقدمون
اقتحم
العلة
طويلة
الهلال
وعم
معاملة
فعله
بوص
والترم
وقوة
مستقب
حق
ذي
اللازمة
معينا
سوداء
البكاء
الشعراء
منسوب
مختصة
اثرت
##صة
##حاح
##يه
المنافقين
المجاهد
##احت
المبذولة
حكمت
##عون
##صيل
الاحتيال
المرجح
وقض
بجدة
##طى
##اكين
وبعضهم
##الة
وات
التحديد
المجرم
الراية
السماوية
فص
مواعيد
##لها
ويطلب
##ادر
مسقط
متكاملة
الانفصال
للمشاركة
عرعرة
عسير
المتكلم
باخت
هريرة
جسر
##راح
تلقي
المجلس
ودخول
العصر
الثلج
الايسر
ابد
##سلي
##راحات
كابل
##جب
لنقل
العام
للمع
والموا
سطر
##بعوث
الممثلة
بكال
كلية
بحل
هيية
لتم
للاخرين
يقرر
لم
طاب
المقال
يتذكر
تزداد
الخطوات
نيس
حمدان
ستكون
دست
الغرض
والذين
ونظ
المحسن
جميعا
اشكال
صلة
##ابية
نواف
بالرد
بسوق
البرق
لرجال
المحال
والامراض
اقلام
وفتح
بانها
من
زفاف
والحرية
فانا
زوجي
المفضل
مريح
##اثية
تجدد
حل
قاله
واصد
طريقا
##شرا
نيف
محارم
الاتجار
##قته
حكام
سهلا
##برج
وصورة
واضط
منهم
التشريع
توفى
الصد
ويست
مضاد
حفرة
##ناء
ادخال
مقت
يشرح
يمكنك
##ويين
يحسب
المزرعة
باص
امية
##وراق
تبقي
##رضا
بقطع
تصرفات
##غيرة
##غوط
##حيي
##صروا
المتظاهرين
##ناة
موظف
وانتقل
استنادا
ابي
قويا
تنس
وشم
لتخ
الجبر
احدا
اخرها
تكشف
التحدث
تاريخ
والاخبار
يقرب
لحسن
بكاء
ابليس
الامان
الما
##افي
امطار
والاشخاص
##سطة
##رقات
الراف
طالب
الجبل
تقرير
جانبها
تاكل
حسان
المر
مدف
رم
صفقة
##الش
سببه
يستطيعون
لحد
رمان
اليها
##خم
##ذبه
الايتلاف
##ايعة
يحبون
المنك
ثقات
جنوبي
##حقاق
وسوء
##انا
توا
تصويت
الفضيل
##هك
##ثق
##جال
الحش
##فعا
الحلي
والصحة
حبس
##هب
افت
وله
المحاسبة
فاي
كرات
وقتل
خبير
المكان
##وزا
##وتر
مناسك
##ريع
ابناء
كاس
قناة
##ياتي
مستح
##اته
وجم
##زف
فلابد
##شاط
كت
الاعيان
مود
كروم
بالصد
الجراح
عالمي
باضافة
فيج
كاتبها
الضعف
##ايلي
يدور
مكانا
والطايف
المخالف
بمقدار
##ونى
##واعد
##امح
فارج
وانتهت
المصلين
فاين
الزايد
التليف
امهات
اغ
##سد
يعني
لسنة
##اسبة
الصغير
الحاضرين
والمخت
اليهم
الجزاء
المكلفة
السفارة
ناعم
الوح
مدع
اعداء
##اديل
سقوط
وجوههم
بتحليل
بنفسه
التزم
التقليد
##يبات
الكن
كذب
طاير
الوديعة
جف
برت
الارجح
المنافقون
##الا
لغ
احفظ
اعمالنا
لتكون
والدين
بدار
والنز
المصور
دول
قصير
نكون
##باك
##اح
مدي
راق
بايت
##ك
##ناده
المستور
##روعات
اسط
باض
للصور
القصيرة
##ديها
قام
يقابل
دليلا
##قطت
تريدون
ما
الاستهلا
للصلاة
تطهير
شكوى
الجليل
واخرج
تحسن
المقارنة
##باع
##لوك
##ارقة
اختصاص
التعادل
##يار
##ليق
##صاد
##اولة
حايل
لنق
الصيد
وقتها
##وفد
وفريق
تصبح
باع
المسيب
رشيد
شركه
المحترف
عدمه
العمرة
بانك
والمعاهد
وصفات
##ضباط
بذاته
مسرح
قدرت
##سبين
تثير
##هنة
نعود
##ابها
يخص
##نتي
تبلي
##قلي
تعلي
بصل
تشمل
التحت
كلهم
##عة
##قبل
التغ
جديدة
يحب
افراز
اتحدث
تحية
المتر
بيوتهم
الفاح
بالي
عشرة
صدرت
جده
بحذف
وك
لمصر
تصدق
الرج
والاقتص
منظور
##نبي
استف
ربيع
وخلق
اتباعها
لقاء
##اتنا
المحم
متر
الحادية
جنات
##حية
اليا
##راعا
القصايد
##دنا
يعكس
##حكم
لبيك
##اغون
##ناديل
يمت
##حصر
عقدها
ميسرة
المصنف
##الفه
احيانا
للجنة
اخى
صباحا
الكيل
سيرا
تدم
دري
حضر
سترا
##اتل
وزن
حراس
فارس
الرتب
الاند
متل
##لاث
فسم
تلتزم
##ايفة
خالي
احدها
ليكونوا
الحي
حديثه
الدينية
المقادير
الحلال
حالة
الاخضر
وتقل
والد
للج
حسب
سحاب
تصير
##ناهم
لذ
مستوي
##وولة
سيم
بامراض
يسقط
لحالة
الحمية
الشير
غالبا
اكثر
##زح
الفلاح
##كرر
بطر
مواقع
مرتبط
##قاته
الاستث
حزمة
##ريت
##غلب
توضح
حراسة
المعارف
المخرج
بصوت
نهضة
باند
بخصوص
ينفي
##وحيد
تحويل
وذ
مناسبة
##يلا
فى
ابتع
والمملكة
المنس
ناخذ
بدل
##ماح
##ضيف
المعلم
سيلان
##بيتها
العظمى
##كيم
والته
احراز
عند
بحاجة
وقل
لكتاب
ولدي
بتر
شو
وشكرا
وحزب
##دخل
انخفاض
المصلحة
##كنا
وتوزيع
##لاك
مكي
المشاهدة
ارجع
##اهيل
امامهم
اغتيال
مه
##يسة
واعلم
عرش
اصحابها
شاس
المبد
وافقت
##خذ
يمسك
وارتفع
دوري
خمسين
اجابة
باسماء
جع
متط
معروفا
النادرة
العلاء
تضر
##قصود
ليت
ايام
للعام
ويضيف
تقلي
والثانية
##افضل
بكتاب
##ريس
الجمعة
رص
الاير
##رفوا
بالامكان
تقدمها
##وفة
غرس
ارن
##وايد
جليا
وجدت
الصحيحة
تعرضه
##اكم
سبع
بعكس
خبي
اسراييلية
##بيعة
وبكل
المصرف
الايمة
##الس
الابطال
واقعة
##هولة
والموضوع
نلت
##ضال
الشامي
المحادثة
عيل
المنقولة
وايضا
احم
##فير
كوس
عوامل
بال
زاير
عمرها
جور
عيون
اغلى
##وم
الحشيش
تلبي
تامة
عماني
وتناول
اكتساب
الالي
الامة
عث
احت
بالسي
##يفية
والتغيير
حوض
مسلمين
##نتو
##طق
تتع
تتوفر
##جاه
وانشاء
##ايما
الموث
بادية
##ماس
##الم
##هوة
##مى
ذكرها
استر
##يرو
فاست
رسل
##راما
وشع
بريق
ساعة
ناط
البصل
لاية
ويسر
##الية
حلو
التعليقات
بالذكر
وجل
القوى
الوج
بتحقيق
العناية
بجامعة
واوضح
اللباس
##ضلة
توجيه
وعندها
الطيب
يقل
بعلم
محق
دقيقة
النزول
والمنت
اشياء
والي
واسعا
لمش
الشجر
##وران
##ايدة
لوازم
البناء
كانتا
الاصابع
مرحبا
##صار
ومتابعة
باحكام
والسب
يصر
يتقدم
احب
##ليت
ميس
برسالة
##سية
نكت
##زاب
يج
امكان
والمك
عايلته
التعويض
##وايا
لتجديد
##كرون
اصب
موال
ترف
يستغرق
نايل
##اطية
##ويع
سب
الاعتراض
##ويا
##واه
بالبخار
اقيمت
ارحم
##كيل
كقوله
ايتها
كاد
مطابقة
عمله
العسكري
مجري
خمسة
للنشر
كاب
مكس
بالاد
للفت
التنازل
النداء
##وبا
##ود
ابراهيم
اسلحة
خير
مناق
مويد
##لب
سح
اعلى
وربما
الغفور
السراج
السلعة
المحل
الاسعار
يبين
##وسية
ومف
قبيل
##لقة
التاريخ
##جاني
كنيسة
التوزيع
يند
الصلاحية
سلك
قزح
الامية
وحرص
##سات
التقاليد
اشد
الفاصل
تمر
##حب
وبق
معاني
استرجاع
لمصلحة
كثيرون
تشبه
الفروض
يلزم
النبا
لعنة
بقيت
جينا
يمنح
الرفض
الاعب
تنازل
امن
##جير
الكع
##ايقة
استجاب
بيان
الجمل
صلب
##ناط
بخ
لمن
والخاصة
الثمن
##طيف
##كبة
كيل
عليهن
والعدل
يركز
قرات
تضرب
وبدون
خلع
##يج
##افلة
##جدد
حيفا
البص
معك
والمع
ومكان
بالانت
بالشكر
المسح
##حان
تحقيقا
##اسلام
##اعته
الايق
لحديث
شب
والاعلام
##ذوق
نسبة
زكى
ارادوا
المصري
للب
لشهر
والخض
القريب
مرتفع
للشركة
للام
اسلامية
والمر
شاهدت
والقتل
##عتنا
ونف
فية
سيبويه
مكاتب
السميع
##فين
مستقرة
##ركين
##ذاهب
كاف
اعطا
##سلة
ينتشر
المفس
ونش
ملاحظ
لايق
الحرب
وراق
##اضة
##جزية
الاقوى
بغداد
بطن
قرش
اللي
بقدرة
##روع
ورض
المصد
نادى
الواو
علوم
اجراء
موم
الاذكار
حمزة
النك
العقد
يختص
استشهاد
والوان
##رتب
مطلع
بحسن
##باس
المفروضة
والتعامل
الفايت
تنظم
يزل
##دات
القم
تحافظ
##ادف
اشار
بعم
رو
فاجاب
بعده
اليات
النفسي
ويبقى
عطاء
الامراض
##جيب
والحاكم
ومواد
انغ
##جان
فاق
العار
طي
للماء
تثبت
نراه
ورش
فهرس
##عدد
واعل
والمغرب
##ينة
المدعو
الصبح
الدان
القوس
##لم
المتس
القي
تعتقد
##ذيب
##طلوب
زم
يفر
البراءة
واجبا
الذات
اعدادي
البابا
الاي
بقي
وعص
بوح
ترويج
##واح
وج
##زاء
الاجه
تشارك
والول
الموه
##يتين
نجا
وعايل
شاع
المند
والمت
وخمسماية
العف
##عاة
##ريم
اتا
يشهد
قاب
الضحى
ماليا
وشعر
##زلي
والال
نريد
الاشغال
الجنسين
اموال
تراب
فاط
وعادة
##رتها
فرا
الحريق
المدرسي
##كما
والقيم
والتن
استقبال
وسيد
السابق
##عمر
ينفع
سبيل
لايجاد
##قض
التحقق
التحق
وتض
بث
المنبر
يارب
ذكور
ثالثة
بشرة
##ناك
الشاط
##كورا
يكلف
الجبن
للتخلص
تشويه
الربا
والزي
قوله
الجوانب
المتعب
##نون
الفطر
افني
السيي
تشتمل
المدعي
امني
تمت
وردت
المتك
احضر
انتهى
اسال
الانتفاع
الاستر
لاد
للجن
وجه
خارجي
فضاء
بالاق
استث
المستع
الشاملة
##طران
زخ
المخالفين
##دت
الماك
حبة
##رجات
علاقته
ونفس
##اسات
صوتا
##يزة
بنية
الاستخدام
وضم
الادلة
مقبول
##اك
فيه
بكم
##جات
السحب
##جى
بالل
الشمس
##يهما
يوضح
##عا
احر
وكتابة
##بيه
مشهد
##بيض
بالعين
##هادت
مغ
للمغرب
اتوقع
##ر
عبيدة
ودور
تسجيل
##غرب
سعر
شانها
ظهرت
##ثرات
##حها
الاولية
احاط
الحيوان
##انها
رضى
تدرك
بصفة
حلق
تمثيل
الوسيلة
ويكون
##شاق
المقل
الاعصاب
جه
ميراث
وبذلك
امنا
الاحد
ونسب
المشاركة
بالدم
المطاف
نحوه
تنزيل
##كه
بالفت
السيدة
ويد
شا
ايل
صارت
النظام
الحرام
هاتف
وير
المسموح
##بيعات
ويصل
وجهت
وامير
##امن
مجهول
الاربعاء
بادخال
بتغيير
##روية
##شن
##ادو
وتقدير
الرقبة
##وضيح
##درس
##ايي
حسبنا
##وا
احتل
اشتري
والصنا
اداء
مسجلا
فرجه
##ولة
الوفد
مخيم
##صاء
البصرة
سلم
معتمد
والادارة
##ها
##وقف
##شركة
##حميد
منشور
السورة
##ففة
##لفظ
مبادرة
واحدا
بز
##وصة
##بذ
الزيوت
القصير
ابتدايي
##سس
##بدل
##اتة
الالية
اصحابه
افي
##بادي
الاوعية
الدواجن
تاجير
ركوب
اهل
بنص
وه
الاما
يامن
##شراء
بالتفصيل
التفسير
الجنسية
يتكلم
سماع
##ليفة
النخل
لمناسبة
بالسوق
جزاير
##جي
لونه
##طارق
للتعبير
لغات
اعرض
الاستن
وتقع
الفوايد
فشلت
##واخر
الفاسدة
مجهود
قس
يوحي
مصنوعة
الماد
الجسم
السرو
الثامن
##صون
##وجين
واكثرها
الموقع
الزن
شارب
كالم
تصلي
##وسات
مازن
تقضي
صحي
مفعول
جال
الشارع
مناص
حدا
##ومي
##قال
زغ
وخم
ونب
التقارير
##ناد
واحد
هاتين
##اوف
اشتراك
##م
الجديدة
تخلو
الرغبة
صداقة
شراء
ونا
مجموع
##ضا
##يتم
##ضاف
##كوري
الاستعداد
##ياغ
التابع
##خاذ
الشروق
##ضوء
مفت
يعرفه
##كرة
بصفته
وابي
##تبار
يجوز
##جرين
##يان
الخمس
فريضة
##وسيا
يتوافق
اليدين
موص
طبيعة
الثياب
فرك
ووج
ارض
##يع
فصلت
عمدا
فقلت
يافع
باهل
الاصد
##ربون
والبط
تتخذ
السادس
خلاله
ويه
زام
الرم
الهادي
النت
وتق
تدري
وقبول
والمتم
يودى
الذاتي
##متع
##وازي
بمنع
##قيد
والامل
المجاور
حمص
الافراد
والتمييز
راشد
تقصير
##ودى
المولى
ادى
انواعه
##افرون
##وارى
مناهج
عتق
الراشدين
الانح
واحب
دينا
النفقة
التنبيه
للر
وشباب
##طبع
كتب
##ابت
صفا
القناة
بالعربي
توصلت
الثلاثة
تناقض
مداخل
لوز
يغني
تسعى
اعلان
والعد
فنحن
##قدان
##عمل
والعلمية
بلدك
الولاية
##لق
اتحاد
تبر
المطلقة
##طلقت
متجر
##تهم
الاحساس
تحتها
شديد
##ديدة
##مرو
والموت
النسخ
مقل
الضرورية
للكاتب
##هول
التوقف
المري
تعبد
يسعد
يزرع
الاكرم
الورق
الطبيعي
صفوف
اسب
ريب
##الث
##بعث
واتقوا
تتولى
صحيحه
الميراث
واوضحت
العيب
واخرون
المفردات
اعتبره
شقق
الغزالي
مغني
##ربا
##سله
بتخصيص
##ومه
الخار
التنفيذ
بطرح
لاهم
مومن
##مات
استق
صيغة
يدل
##يدان
المراجع
الحدث
لدخول
الاهمال
اليسار
التهذيب
والولادة
وتك
وروي
بالذ
ولاء
ضربات
حاس
رصد
دية
الكعبة
اثبت
يسبق
يخفي
مريض
كالح
وسار
تقول
تقرا
بالماية
تفجير
يحفظ
مفتوحا
لاش
طرد
بل
مامون
ق
اسك
##غالية
اقبل
صوتها
جهد
الكثير
بسير
##حصل
استمتع
##رقية
##خه
شمالا
والدعوة
بدعة
احياء
ايد
##اول
لوج
##يقي
عرفة
المقدم
##داق
تضيف
حقيقة
يجي
##عدى
اته
لمس
بقسم
فلان
لض
ودين
القصوى
الرقي
فوت
بالمجلس
##وتك
عامه
والطل
شاعر
السفير
فعلا
بالص
نفوس
يهدي
##طبخ
كبرى
بينما
دافع
الشاذ
##جلوس
الجل
مصباح
##شاك
وحدث
##وار
##حاق
الهاشمية
تركت
جذور
بالاعضاء
والاع
بقية
والتطبيق
الحجارة
شبيهة
الفرار
صيام
المنتظر
القدرة
تحي
الايس
مصرف
##هدا
وتولى
بغ
الغريبة
المترتبة
الحن
عرضت
التدبير
تنت
لغيره
بضبط
##غفر
##عاش
الكفار
واصل
الابقاء
حجاج
بابا
عدد
انضم
الدولة
##نوب
همام
##فيق
فير
##الان
المدم
وكلا
الحبشة
##ندي
يقولون
##انيت
فيلا
الخبر
واتخذ
الحلول
ونحن
يحتفل
اوجه
السيوطي
سحر
الاقصر
امور
الجثة
##ديان
العضو
تدوير
بشر
حياة
غيرك
الانكسار
هل
##ويها
##شوط
ويحتاج
السفينة
الكامل
وبعد
بيعها
مشد
لاكثر
##وعية
##ليك
والمال
بتقديم
شراب
##شفي
الضعيف
##فان
المقصود
لازالة
ضابط
ذاته
وينت
الرش
عنهم
اينما
العداء
والصرف
قبالة
محد
الخطاب
وشعار
تميم
زايد
غروب
هزم
فلماذا
اشتهر
والصحابة
العلوي
الغذ
الاستسلام
سينا
رسول
ضمان
##ماك
للاستفادة
بالقوة
عليهما
##يف
بدات
والجميع
##جاة
لغوية
##عاء
##لاة
تحمي
والعم
والطفل
ترد
##روط
##فاذ
وون
العرقي
##كيلي
جيد
الموز
يغت
اسم
تصد
ليال
الثوم
والوط
صرحت
##زمه
يرج
حسم
قبلك
مون
فامر
كندا
ابقاء
للتحقيق
المدرس
المره
##اده
الادوار
ارقى
##اقه
لنفسها
البر
باش
رده
##اجية
انص
##من
##انك
##هم
المشي
التوراة
عربي
يغير
حد
ذبح
##وال
##ارض
##اكل
لاهل
واصلاح
البيت
تستحق
يضعف
الاركان
سياق
اصابع
وهناك
##انه
وحدك
##سلام
الاسراع
المخل
##كوف
الخدم
جوز
وانه
بعدما
وقع
اقراص
ونحوها
يسري
الاحم
حوار
خبرة
والمق
ولايته
المي
الطواري
الاشعري
تظل
##جمع
بمساحة
سنتين
الانتقال
##شب
##لين
اعلن
كنانة
قضايي
اجز
والشعر
نجم
احترام
تساوي
صوتي
مستعملة
الازد
##ضاح
تجوز
كافية
##اون
الزواج
صلبة
المنتظم
اين
والفنون
عشرات
ولكنها
بتوفير
##بعة
##ليلة
الناقل
الملتقى
ندعو
الارث
يحتمل
وب
العليم
##وسين
وابنه
ومواقع
كسب
تكبير
والناس
والياب
##زما
غاية
القت
الصبر
##بوا
سراج
للسلع
الدماغ
والمزيد
##خار
والصور
##عاج
##ندر
وانتشار
##فيذ
فالامر
مدنية
فاص
##اريين
التوالي
شامل
ونعم
وبالن
##غلين
والمحافظة
الجهة
##راة
المقصورة
بثمن
بنعم
المشحونة
فاننا
والحكمة
والتخ
الصيف
مو
جير
سفيان
ايست
لجلب
##خين
انيس
بجانب
دفتر
الفطرة
قتيل
وايت
##صلاح
##دري
المنشات
صادق
واضافة
##فاض
متت
الصحيفة
##جرة
هان
الحلم
##حمة
##قه
الشهادات
ولى
يعبد
ونظم
النظرة
##عمه
حاله
بفعل
الانتخاب
##هاز
تفت
تعين
ويش
للسنة
##يتنا
##يني
عك
##قرة
صنف
وشاهد
##كريا
##كسر
النوع
والصناعة
تدفع
##حدر
##يك
وزيرا
ستجد
مقر
رات
بيض
##بون
والسوال
دفع
بشبكة
##ابته
##سى
##فتهم
##اهب
السليمانية
حادث
##روش
##هلك
والاصل
ماذا
معيش
##اء
الشفاء
##ااا
وصفه
##واق
##زايم
##صفة
##صاب
##يرية
وقر
المعدة
صف
رق
اسمايهم
##ارت
ونيف
والاخلاق
ودار
##يعه
يعد
وكون
واو
نسمع
تستطع
معا
اند
السبب
خميس
رحلت
مغلق
حاي
##قدة
##رك
المومنون
نسمة
يستلزم
رء
صوب
الدي
مبه
وتط
رايعة
اهت
ونشر
بالمغرب
لتعريف
واقول
وخبر
السكة
وقلة
والاف
قانون
فعلت
شري
يخسر
اشعر
##هداء
الوظيف
تما
الاسبق
يعتبرون
تتعلق
الجما
عنق
الملل
##ومو
مصحو
##جد
اختلف
##ذاب
عينيه
بارتكاب
##وذ
افضل
صراحة
الشريفين
الكلي
لاس
اصابه
لت
خلص
واصابة
السنية
التصرفات
دقايق
يجه
الاحمرار
انفصال
##وتين
التعرض
المرق
العقاب
واعمال
النقص
جذب
خطف
الحلف
بالمح
##حظ
اللون
دلالة
##امون
التشي
سبقت
مولد
##هما
واش
ادريس
لاض
خصايص
حس
الاستثناء
##ذب
ربح
ساد
ويعتمد
واكل
##ينت
لرب
حكمة
غنية
للسي
وسواء
واليمن
توفر
##خال
##رنت
نفر
##ثان
بتوجيه
المرافق
ضخ
المز
المهدي
##لبس
بالكسر
والغرب
زحمة
ويعمل
##قل
راحة
تلميذ
والرو
##نا
الز
##وفير
تعني
تسوية
تناولت
ولغ
قادرا
بواقع
افتتاح
وتتم
عقده
اظهرت
الصحة
##اتها
الطرق
##ايكم
##جري
البقاع
شهر
عباس
بالاتفاق
شعراء
معتبرة
##ابيض
تولى
بنك
التنفس
##متاع
الاعياد
والوس
العرق
اصدق
##بته
وبح
##ادث
شيم
##تن
اميل
القاهرة
العقوبة
##ثلا
##بياء
المنش
يوقف
مسي
الغنم
غيب
##رارها
يقاتلون
وقوف
نورا
مواطن
الفصيح
المهن
##كنز
يبد
وسلام
##ثات
المشا
للبحث
وسير
ميتا
##مين
خلف
ملع
بتش
والجم
واشهد
طوعا
نادرا
بلادي
##ابعت
استدعاء
لها
##شت
الممكن
جم
استشار
بمج
ادعو
علة
نمر
اسلامي
الطفل
جميع
##فرغ
سيناء
تاريخه
لاحد
محاول
الاسلحة
العاط
الدع
##روس
وجب
السايل
##وعا
لرو
العرب
تكرم
##ايك
ويرى
والافراد
##وثيق
##رت
حجمها
مول
ومعظم
طعم
طالق
##كتاب
##درد
ككل
والتربية
نسخة
دعاء
يختار
التبر
للفصل
الاربعين
ليوم
##فف
باختلاف
انها
رايحة
##يلي
تعذيب
وكلاهما
ازهر
المحدد
الايام
النهي
حجر
حلال
مسير
الميتة
اطلقت
اعجب
اولياء
##ع
بقراءة
##زمات
حميم
شرط
القاضي
##جاهل
##بغاء
وتجنب
مذ
بمكة
ارب
وسياسة
تجن
ملعقة
باولو
تغطي
هجرة
خرق
تحولت
مجيد
حدد
اخواننا
رجاء
يوثر
##داوة
النبيذ
بالنفس
ممدوح
التالية
بالحديث
يقصد
الخواطر
اجبر
العامري
الضلال
وفى
##وجود
##فرات
##قدير
اطباق
##قط
##وزي
ايس
يتناول
بمتابعة
##لاف
صورة
اخوات
بسبب
جعفر
يبت
والاه
معاملات
الودي
قص
##طح
غزو
##قاله
##وضي
تبدو
جودة
بيري
##هيية
بانا
سابقا
الاسط
##ظر
اتخذت
القدم
يستمع
اسناد
##ساتين
##فضل
ومعالم
##عدة
ساب
حالي
##علم
##صفا
المفكر
##وفان
بيعه
الصداقة
السمو
عزيز
##اة
بلك
واجبة
تكري
ومكت
##صن
##تبر
##واها
##كسي
درهما
قران
بدر
الحكام
##غيرات
قومه
##الف
ومص
##خ
وعثمان
##حسن
قاسية
##داث
الشكوى
ولدا
بانواعه
##صفية
حين
توضي
القرار
المرتفع
يكرم
الهندية
تدريس
يفوز
اهلي
دخان
تخ
تتكلم
لتصل
باقت
فقيل
ادعى
الباري
سوف
الفرق
##كورات
سفير
المدن
##اعات
للاحت
الحاضر
عظيم
##رزق
##واف
قطار
تمثال
الصدر
الوسيط
تخل
باداء
حارس
فات
التش
##سلا
لقايه
للذ
الاسباب
هذه
وذكر
الحظر
ثمنها
مقبرة
نغ
فيل
##لاغ
بيل
المرك
قدرتها
##احف
##جدي
هرب
يور
حياتك
واعت
مرسل
الترجمة
يحقق
يعي
الاحتياط
##روت
وفوق
الا
##يفون
المشتبه
تحب
فعال
##طرة
اصبع
جهتها
الاشرفية
ظاهرة
كهذا
جانبا
##لاوي
حك
اعل
ناجي
نسبه
قابوس
الدرجة
هدايا
تدعو
لكلا
الاكبر
##فتح
كانوا
الوصول
تنشا
مل
بعل
سيب
اخطار
تقيم
##بيع
مطلقة
##عده
الصلاح
سم
الشهادة
بالمشاركة
علم
##لاها
اكرم
الخيمة
اولا
حجازي
جبار
المحافظ
الكرة
تتقدم
علامات
السوق
##روق
اخرين
الابد
تختار
لاكت
وتعديل
##عتهم
بالاخ
البياني
مرضية
##رجو
##رية
مسجلة
تابع
هارون
##غيان
وقيل
شدة
##مص
صيغ
الاذ
##اهية
الهاء
كثر
ابن
اقام
ينص
فهي
المضي
ماجه
واقامة
ونعت
وحقق
الشعب
الكاف
كلي
الطلاب
الاس
معتد
منظومة
##اخذ
العرض
الكلام
الحاض
حكم
يشغل
يكذب
تخت
فيض
معي
بيني
##شية
##قيه
##بكة
اقدر
قاعدة
حدوث
الربو
نوى
حزين
اخرى
##وهن
##بين
الاقصى
وتسليم
مكة
##وات
خزيمة
##ارتنا
الباز
##ربى
سيحدث
فعلم
جاه
##ربوا
##وتهم
لوجه
النقض
المحمولة
محضر
##ديقة
اصناف
دجلة
الحكاية
##وريت
تفعله
انصح
راسي
نظم
##وظايف
##احبة
مطالبة
تامل
قم
تحقيق
الدخان
بالغ
الخلف
لهذه
ذكرت
الباط
بفر
شرع
المزم
عن
حر
##خالفة
جزيرة
راس
بالف
##ارته
حج
##صف
ولانه
يسار
##كاء
الصفحة
##برنا
منحت
يومنا
وعقد
ينفذ
قدم
ذمة
التصرف
واظهرت
وساير
والنح
علا
##شطة
ساح
##وتى
الصديق
القبر
وجهي
جاءه
الدعوة
عرضة
وف
الارتفاع
تكلف
تولد
الصحف
##لتا
##رباط
والاست
##هنا
بابي
##وني
تواض
منتظم
هب
الشرق
محلات
##مرار
شعوب
وايجاد
##هاد
مجتمعات
فند
تبع
للراي
تن
اضل
اغن
جراء
بجل
##ثال
والكثير
##خراج
نصي
الجلالة
وبش
##اره
احتساب
الصلبة
وتجارة
المبعوث
##ماعة
باختيار
مرك
اللعنة
وقامت
العظ
##غني
متاك
للوقوف
الاشع
صار
المحسنين
دغ
طبع
احساس
يرحب
ساج
جاني
الاخوات
يميل
الصمد
##نف
يتسبب
تاهل
الاخرين
الواجب
لون
##حي
الحسنة
اغت
متعلقة
يومين
##غة
اللفظ
ينتظر
وراءه
##شه
هاز
شرفة
والقول
للاخر
##كام
##ارات
جمعه
مناف
##غات
هي
للذهاب
بالاط
وصالح
واهله
الخاتم
غرايب
اسود
##قوبي
ايجابا
سنا
تقام
تقرر
القدي
##ونسي
البو
اجنبي
##عبة
توثيق
المنت
##رث
الاباء
##فردات
النحاس
لقب
الزع
فاخرة
سيادة
##يزا
منتظمة
للغة
##يرت
##يره
بضع
برقية
لفايدة
قطري
يعتقدون
سوى
نعمل
##كشاف
##صوله
كرام
اجبار
محس
الفج
عادية
مراة
##زيم
اعتراف
القطار
تحالف
الحوا
##واقف
وتكون
رمض
##بهاني
للغاية
والرج
عبرة
لتغيير
##طاع
مصدرا
بالاتحاد
التجديد
تقوية
المكت
الصبا
للث
##يون
اعني
بعدد
سببا
قديما
##بناء
الحنفية
وانها
وللح
بكاس
واعتقد
##اوس
الشيعة
يدر
والط
الدفاع
ومسي
الخت
اغل
بهذا
جمعة
مجل
ونرجو
الاثنين
خبيرة
العمى
والاقتصاد
##عراض
والخم
بالصح
ودر
##اعه
تبوك
الكلمة
تحرك
الجزية
طرحت
الرض
محاض
الفرقة
عرضها
معتبرا
الجلال
##غطى
مغل
حذيفة
عفان
لشخص
بشروط
##بات
وانس
الشعبي
الرضع
سنويا
تعتمد
##افن
التوفيق
##عل
الرشد
التمرد
در
وللاس
##نيت
الوحي
لا
المريي
الشعار
تحت
التقط
##الخ
صريح
##غفار
جنة
عادة
صفي
غابات
والصحيح
نزلت
##سيير
خبرا
بالاضافة
##امو
ايم
والذكر
المنتشرة
لولاية
بعضه
الفاء
الرحلة
تسببت
محددة
##زية
بذ
وصلة
واللغة
بروم
نفسك
واخراج
اتل
نقض
المقبلة
والور
##وزن
##وير
الالهية
##علة
##ماغ
لفظ
والمح
##ربي
انقسام
اللقب
فاج
وافراد
##ستهم
بخدمة
اخذه
الشتاء
يكفر
##زان
##ودها
المطروحة
الاسبوع
##ل
يلقي
برهان
عيينة
نور
للامة
مرة
##بوس
شرح
جام
الشهداء
##ضيات
يق
وخالد
كفار
مضط
امامة
##يلو
احد
خسارة
للان
والشراء
##راهة
الشياطين
يمكنهم
##ايح
شرب
##تح
بالاش
الشاعر
مريضا
الخبز
صنا
والالت
باعتماد
دام
مشارك
متنا
وضعه
##سون
مسلمة
لاقت
##كو
##يكا
##رانه
لعبه
السماح
بولي
ساعه
الخلفاء
استقلال
المظ
##لس
ومح
متعم
لليوم
كشف
تنفيذ
وقدم
ازد
عموما
سرقة
يقوله
الالغاز
المركبة
جرس
##عانة
##واري
وجع
الذهاب
فقدم
لقتل
وعليه
فخرج
الهة
تمس
النعيم
للمياه
بالخير
العاملين
القض
الظ
##لبة
##كز
واعد
##اوم
المعادلة
تحميل
اغلق
والاختلاف
طلاء
بانني
يصبح
##ديدا
الحكمة
ربكم
##وزين
وظيفة
روحه
الاخلاق
بركات
وختم
حرس
للبنات
توس
مخرج
استقالة
لتخفيف
البداية
واكبر
الاصط
وجمع
بي
نعمة
القير
بعد
ان
اغنى
البرب
الكسل
انماط
عادات
وط
وتنا
المجل
واخر
مضمونة
للاسر
##صرة
باكثر
قبلي
معتبر
ثمار
حظك
وبها
لمق
##سق
للرجال
تركها
يستمر
##كنة
موكدة
##واص
واحده
ظل
الخاص
بولاق
فب
مكافحة
مفيد
المصريون
بتحديد
عار
##وجل
المعبر
عقوبات
##ح
وي
المنشا
##ايجار
استطاع
صدي
##لفت
الميم
تلقى
بسلام
البطن
##فتر
الفت
والتعديل
الند
رافع
للد
##كمال
ووجد
وعشرين
متك
وجهه
مات
المود
دلايل
يرث
يولد
عصير
الام
بالح
##وص
المسابقة
الزوار
اساليب
دكة
يبقى
##ريته
المصارعة
قيل
طريقة
##راز
والاهد
##بيا
متاكد
بط
##عود
وعقب
وعليها
اليقين
الغريب
القايمة
مبينا
طلاق
نظير
الاستاذ
##اشا
وبعض
غير
فاش
المفترض
مراجعة
##واجه
##طفى
تتحقق
الجنين
اتينا
##اهل
##وحد
رمضان
الته
شبه
يتد
العظيمة
القاتل
القرى
التدم
##كسار
ممرض
والمز
##ادي
##ختلف
تركيا
للبيع
عروس
بالترتيب
##رح
##فيض
والمثق
ن
علمه
افعال
المستمر
##لاوة
##رم
التغطية
الفكر
العلوم
يعل
##ضو
##قيح
بمل
به
اكون
لفتح
عقد
يعادل
##خيل
المنخفضة
للاغ
##ته
جارية
نتي
##وفرة
سمرة
المستح
جرير
##دف
الغالية
انتهاك
##روان
##صرخ
دلت
اعناق
صوف
ست
الدول
يوصف
##ربية
الخطر
قت
##ش
توقيت
##س
##اليه
الدخول
تحته
انسانا
معروفة
تلول
مستعارة
استمرت
بكر
نفى
اسفل
الحساب
مرتفعة
رد
##مالك
الفجوة
اقترح
العا
امرهم
مشتركة
الجيش
المصالح
المصحف
##برك
والمعروف
جراحة
##امل
##اريه
الاصح
الباس
كا
بلاغ
تنتهي
تران
وحلول
##سطين
##رقت
ويدخل
اعمل
للعم
وبشر
الهدى
##ايمة
كرو
الرصاص
وقيم
راو
الاقم
الاسراييلية
كتيبة
فصول
##صير
القادر
##وايح
عبق
مرافقة
##لوج
يبر
لسنا
##رتيب
انع
اذ
الاق
اح
##قلاني
##زمة
والتمسك
الضخم
بحجة
يذكر
##اصي
البعيدة
بثلاث
يحافظ
الشكل
##اجي
رغبته
القش
وقت
مفس
الراحمين
فح
تاسيس
وشد
الاصوات
##روبة
لتست
##رمة
وتارة
التج
يدري
معرف
دينه
##يش
اجاب
وحذر
واجه
الدجال
يرف
الاعلان
جندي
تخرج
يعبر
الحالية
متف
وروية
توضع
هجر
وفهم
اغلاق
##وسا
##سكين
القلق
مسالة
يض
اجور
اثنى
ومقر
##ريدة
تفرض
يكتب
العقرب
جاز
وصفة
قماش
اجانب
ماع
##رادو
وتصل
وقرر
اللبن
الذ
والعن
##فعات
والرحمة
القابلة
الصرف
##علاء
الجم
والتفسير
الحرية
امامنا
فان
نشر
##وح
##روض
الزاير
##ركة
اللذان
بود
##بها
المحاكمة
مجلد
المجاهدين
##انة
الج
نعم
ابدى
معمر
يبلغ
والموس
##ذروا
انشاء
##ستي
عينيك
والمد
##شيء
ويشكل
الناز
انب
مكان
داو
الدينار
معارض
الصبي
التحرير
ربع
الاسراء
##قت
##عقد
كون
ولعب
##خصص
مرغوب
الاراضي
##شيح
يفتح
تتعرف
##نت
مركز
يكمل
الثق
النوبة
بديل
الموفق
بالاجماع
##وته
لتقديم
زراعة
وتذ
سقطت
ولو
##باين
##يوبي
تخلق
مرق
تجم
مثلا
دفن
ميزان
##ابله
الساحة
يم
وتج
والخ
يسهم
مرخصة
واترك
الهيثم
تعالى
قياس
اقسام
##افات
كاش
ملح
سيدنا
##ايكة
التامة
بانف
##لط
ذكرهم
نظري
##اليل
الفاس
##غاف
وبك
المقا
السابعة
مجيء
##روضة
رين
##رضى
السياحة
ونظام
يحلف
لليهود
حقيق
جهاز
للطفل
كيا
شريط
فخر
فصل
تنوع
جمهور
##لمون
##الهم
ويق
الاشقاء
ارج
الفاي
مصورة
مطا
تحوي
اشارة
خيرا
يرزق
المعارضة
طوق
ولف
##طية
##ذار
البخار
ابلغ
##طيات
خذ
لحق
واكس
نرى
العقايد
##اييل
##سابق
الحصص
التبرعات
المرغوب
##يث
دمر
قراءته
انظار
##ودي
حالا
والو
نكاح
حملت
واراد
القايل
بقلم
المقاوم
الولاء
سمع
استقب
يصلح
التمتع
التميمي
##يفان
##جم
امنت
##ليها
والسعي
##خصيص
الهجرة
فاف
##نته
##كتب
##كد
الامن
##فيان
صد
يحترم
قدمت
اتف
الفيل
عشيرة
وادوات
##ذين
##ساني
تحتوي
استقباله
العاص
ثانية
قاسم
اتباع
##واك
الهد
البق
وكن
انف
العهد
##اهنا
##ساكن
##سكر
طعام
الخامس
توث
##ريحة
تود
تطلق
الزام
##وطين
جسمه
والحيوانات
دم
الجنون
لتف
مش
ارها
المدارس
الشهود
طالع
مقابلة
##حث
الدليل
جمعت
##اطى
ترس
مقاس
الرباعي
بلادنا
ولكن
##كية
يكبر
##اخبار
عليك
اقرا
##ط
يحارب
صادر
مردود
المستحقة
الفضل
سكت
##اش
الاهلية
للعلم
##سمه
الاضط
الاست
##رداد
الترويج
محرم
##ضاها
الاغ
مزد
الاعراب
الكام
سلمة
يتغير
##ارة
ابحث
وعزل
##سابقة
حبي
حكومته
وقايع
##فقات
ربهم
رمى
سالم
الي
هات
راف
##واته
السوداني
الفتنة
المقات
ماز
##تر
والتنمية
ربنا
نداء
ووس
اب
سمعته
وعبر
معهم
لكنهم
الخيرات
تقدير
اكر
اثارها
لفرض
سوس
ومم
قيمتها
يدعو
ويوم
اجيب
##قتله
المستد
النح
الثلاثية
متقدم
فيزا
##رار
صياغة
امت
للتش
الرمال
هو
وقسم
وانهم
الالفاظ
##كهة
وتحرير
بشي
الجرايم
الفيوم
ودي
##صور
##كور
العزيز
تاثيرها
##ليين
##يفاء
الوط
يتاثر
السد
والرجال
الست
##تنا
ارباب
منص
العصور
وعلم
##بني
##ذيه
##حمي
##انس
بيده
بمثل
لطرح
##رافي
موك
جار
البقر
الجام
للدي
بالن
يتط
يريده
ثمانية
##ثيل
ادوية
اخريات
الجزي
سنتر
معركة
النصيحة
غداء
الباردة
##ما
يعرض
تري
التعاطي
الورود
انفس
تريده
الرقية
المتط
والقى
الغد
وجديد
ليز
لذلك
تحكم
ره
##ليف
المهم
لاحكام
يتكرر
##ادم
الطول
##ويق
الضيقة
الادارة
##لالة
والام
الغاب
##طالبة
خز
مختفي
تان
القبطية
اوفر
حياته
نكن
الكاملة
نمط
##وقيف
التعا
اصاب
وني
سرور
الاسود
والعص
استقال
التن
بوصف
مقالات
يحكي
وحقوق
للاج
##ضيق
##جهل
المنصوص
واخذت
##اهي
جامعه
شعار
وافضل
حاسب
حافلة
البري
تورط
برز
اوايل
ومخ
باز
الحاسب
الاتي
البت
الراوي
البان
نمت
والمحت
والتض
مناخ
نتحدث
وبم
اختيار
##ضر
فلي
الكلب
##وول
تلاوة
للسيد
غن
##غنى
الرقم
اقول
##جع
اللاحقة
##شوفة
الكاين
##روف
##عاد
تدخل
مس
رغبت
بجايزة
الاردن
##يسي
##ظري
##تري
##واتهم
الجز
مظاهر
للخ
صورته
الاختي
##وث
##لاه
كتابي
##سحاب
اقتراب
الكفر
لاقامة
اعين
##اكير
بالعالم
##نية
##جور
والج
طاقات
كح
الخلل
موس
ينام
هديه
موجها
الوقايع
لابي
خلي
الزوج
عاصم
تومن
والتعريف
موف
عط
عصام
للاصابة
الاقوال
ذرة
صانع
وكبار
يقول
##رون
بدفع
للقاء
لط
القاعدة
جهته
طوله
##غرى
مداخلة
الهمزة
ومغ
اهمال
عبارات
مقاعد
##حيل
التاس
##شرف
اليد
الشهر
الفاسد
سات
وحض
بالتع
يه
غذاء
##ياه
التشري
##الغ
تشتري
العال
والنهي
##قان
جيف
قتيلا
بكثرة
سرت
محله
برد
تحض
والثلاثين
للمط
امامه
الامهات
مساكن
الابصار
##الات
واتفق
##غلة
اصابته
والعرب
خالق
ترب
شحن
شعبها
تعالج
ارسال
ارسالها
باخذ
والبعض
القادسية
وبعضها
ومي
دخل
##لكي
تطرق
حسنا
تاج
تغ
عقبة
##سانا
بر
المركب
##عية
المواشي
الخال
راض
##غرام
##شرح
الصفا
اودي
فاسو
##يسير
سار
للاث
المعتد
هلك
محتاج
ج
يحت
##مينان
ارضي
الذهب
الصفراء
عجل
##يمم
التل
وبقيت
خصم
وث
لاجل
##طي
الراب
اختصار
كجزء
الغ
المف
بضم
بصدق
غزل
لخدمة
صفوان
الذراع
دولة
رسم
تفض
الطرفين
قابل
مملكة
ظه
للملابس
للكي
شرق
##ملكة
مضادة
دمياط
اعتمادا
تض
والتك
ويا
ذك
محلية
بينك
وود
ويوجد
##خذه
##ودان
القاط
##و
محلل
الدوام
المجرمين
خصوصا
الفايدة
داء
تزال
كيف
جنبا
الجوهري
الكهنة
##الله
والنظام
ثلاث
حف
##تمر
العنف
##عين
المثنى
كر
بشرط
المتابعة
توما
موقفا
اسيلة
مضت
النجوم
الشاف
البلدية
##ينو
المعص
شجع
##ولك
تميل
##اصم
المقر
بجميع
حمى
وحد
الشري
المشهد
اجهز
وبقية
معيار
الخسارة
بانشاء
##وثي
شقي
##بيين
التدريس
مفيدا
وتح
شفاع
ينشر
السمع
الناج
اشغال
تصريح
سلامة
كفروا
##جمهور
الباب
اللواتي
حلب
تفريغ
بنى
الرطوبة
انصار
والفض
الجميع
الحسنات
##صرت
##طيع
مستم
المدونة
الاحوال
غرامة
والارت
##اهد
المولف
خوار
انط
فيع
##وده
الكفارة
حز
حصاد
اولى
الطرقات
والتهديد
المشج
انفا
اضاء
النسبية
والق
زوجته
واضح
دعي
الصوفية
المساحة
اتق
موضحا
شقة
تساقط
بالاصل
تنزل
##تهر
جفاف
اون
تعلم
يسالون
بم
بمشاركة
الارد
فعندما
يرسل
سلاح
المسار
لكي
ترش
لنفسه
نبينا
قولها
حقيقيا
بوق
##رابة
الاع
هوا
##حيفة
بع
وراي
##ضين
طويل
طفل
تحذ
الرزاز
للطب
رفيعة
وق
الظن
واس
الشباب
رقاب
الثمار
القوية
##زيغ
الشروط
الجزيي
##يم
كثير
المجد
##ندة
الصحابي
غالي
اوصي
اللح
ووجه
المكتب
درس
واكت
والاخت
الحفر
ورحم
الكلاب
يتولى
##فيه
ادخالها
الكرا
المستفيد
خطط
##حاوي
##ستان
والمخ
##اصلة
اردنا
تصنيف
وافق
اللمس
ماب
تبد
الخطط
##راجه
ليبي
بقعة
تدريب
المطلوب
المتقدمين
##وذا
الامامة
حوالي
##افحة
الشديدة
##نابل
مضاعفة
القيد
##فل
للمطالبة
استعراض
الترمذي
بدون
الراحة
##عماية
ولق
الثلث
اعتبارا
##جنة
##جن
##صل
توج
المساء
##وظ
وفت
جين
صالح
تهني
فورا
##فلة
اكتسب
بذكر
عني
وظهر
##هدايا
تسمح
##اورة
شبر
ديني
##جيل
##لنج
تنق
بزي
المعاصي
والاول
بلاده
##اسل
اطفالنا
الكاس
الخارجي
الصياد
الاحكام
بسهولة
وايمان
حجم
##ال
الاختلاف
##لمس
للامام
فانزل
لحم
قيام
اخت
كب
مشرفة
القبي
التصوير
شوال
تدا
وفضل
لجل
بضعة
واللا
وطالبت
تاويل
جيت
##ينيذ
روت
##رحة
باق
اجن
يقارب
منوعة
##الي
وتخلي
مساجد
راجعون
يقين
بار
##ظاهر
جوار
##علام
غسل
المجلة
وهم
افتح
##غى
المتعلق
الشو
الخير
التقدم
ترجمة
دعاة
دوريات
السط
علنا
يعلم
المحكم
##ضطر
يضم
الربيع
برس
حاجة
كسر
بالته
استغرب
##ادها
الابي
##نس
الامين
##رايها
طن
الور
خاصة
ونظر
استشهد
##اقة
لفهم
اهد
العبث
ونس
الاسلاميين
اغس
##بتي
##هال
ليصل
بلفظ
##سيه
الرا
الحمي
الذاتية
يضيع
الغال
الطرف
اوق
المقاصد
الحجز
##ادات
##طام
وايل
لروية
الجابر
##ودرات
قير
فرع
اكان
مسل
البغد
السلام
ارادة
##وجة
للارض
لوط
وولي
##خات
الاقدام
##سيين
##ريجي
##اشة
وبعيد
الانش
للجميع
الشف
التاسعة
##بره
بوت
بالسنة
##فد
تسليم
ممل
صناعي
بانواعها
وتعليم
ويعرف
الخارجية
وصي
الاستع
اظن
##ابح
الامساك
ايضا
والقم
قسمين
ورجع
المطر
كرم
##افرين
شهريا
القبط
##رويت
يتهم
الشرك
##ابس
والنقل
بايع
حريق
للمومنين
طعن
فادي
الموكد
يجز
##اثة
اللد
##زمون
كوال
البلاء
سبق
##ثية
معد
حادثة
بمبلغ
قوتها
الابعاد
الجوي
##دور
والحك
ليك
اقرب
وضع
ولده
##يبه
الانث
الطور
لذيذ
المحرم
زن
وبا
القراء
شغ
الحرمين
تحاول
##وارق
الخلق
منصب
##ماء
يفس
##زات
تكره
ووقع
سيارة
##كوت
ليكون
قرص
وز
##ولد
##شيه
##لو
مقاوم
##رفي
صعوبة
##فلون
##ركت
المسافرين
والاقت
لات
الدال
المحمول
الباي
##سنا
عنه
القاسم
تخطي
##جوي
##موا
فانك
الطبيعة
البيوت
مرت
والاربعين
##ابوا
لاصلاح
ايوب
##وايف
ف
ين
ري
والتص
وعالم
اطيب
##بتك
مساحة
اداة
الخيل
اجرا
نص
المتهم
ز
يحكم
المشورة
الوزارة
مباشرة
##اييا
الساب
##هار
##ريبه
##زاق
التسوية
واصب
##عيب
##وسع
معقول
المورد
ولست
##سح
سياسة
حربية
امثلة
مفتوح
اخذنا
##نانير
اطلاع
الناظر
##ربها
برف
الصوم
بصد
واجمل
ناق
عايلة
واقت
##تهاد
واتفاق
هذ
يغسل
الالوان
كعاد
زهير
##جت
المحقق
النساء
راج
سرعة
التونسي
سيية
الجولة
##حراف
##مس
والوقوف
##وري
ماضي
##حتاج
العامل
للمراة
وراى
يتبين
رز
انهار
اهتماما
صيدا
بالنسبة
المص
ويضع
الها
بدلا
##مسك
اكيد
الحية
واعادة
فوج
ذنوب
##عاف
##خرة
يحتج
سقف
زمان
ركز
مصف
##ياك
تعرضوا
فيقول
عرفت
نفق
غلا
فهل
الزهر
جبر
مقبل
المب
الهداية
سبقه
الاقتصاد
وسيل
والتعليم
اكياس
جعلنا
##لبية
وبلغ
##يخ
والكل
خضراء
واجراء
سقط
اخاف
الصوت
##ري
##صد
الكتابة
المولد
خدمه
##سرين
##افو
اصيب
##هرام
ميم
##وافل
التهنية
السبا
محظ
##لاحقة
وخفض
##اجه
طويلا
والثلاث
انتق
##زوج
##حات
القبول
طوايف
فقرا
العقوبات
##الها
الصم
رهط
الت
القاها
الصيغة
شبكة
المذكورة
كامل
يترك
الغايب
الكبيرة
نصح
العوام
نصب
غيره
المحكمة
لرجل
وتريد
الاشعار
اسلوب
الغاية
دوس
جريمة
##يسرة
لو
##غان
قديمة
اجر
الاصغر
الاظافر
عاقل
الصور
وغيرها
تتاثر
##خدع
الاز
##اغية
بقول
الثلاث
##قص
نقل
زبدة
##رس
لمت
مرفوعا
كلاهما
فالان
الجند
معتز
ودعا
قلوبكم
خامسا
راد
والقوة
النهر
مختلفة
##بطت
##رايط
الرمز
##اطر
الناب
الاح
##امة
##خاي
يص
ابعاد
بقى
الزجاجي
وللم
والتقدير
الكوم
تس
قاعد
##وتات
وكان
التوجيه
ابو
الوق
للاق
اليومين
القواعد
عظام
##عمال
اهتمامه
ابوال
الضارة
اليك
وغيرهم
لازم
تشت
كرا
نذكر
الستة
وتر
تشعر
سدد
عصرا
ريال
الوفاة
حاجز
##حاكم
الرابع
قبله
وسبب
الخمسين
الغنية
ميت
ومشاركة
حزم
داعية
يقوي
السمن
اعرفه
القليلة
مبالغ
الممت
للنا
يصعب
ذكره
موازين
##ستم
فاخت
والاحت
البحث
امثال
القراءة
حماية
المقام
##لات
وعيد
الحار
والمط
الارج
##نيك
ظالم
تفكر
ايق
تصب
السكري
شارع
اثبتت
الخروج
والنق
##طفي
لثلاث
وشراء
البقاء
##ميلا
وزوج
ابى
الخادمة
كلف
##اجير
سود
الزيادة
صحتها
##واج
البيرو
##قاد
هار
يحول
طرفا
مسجد
قوية
للسل
##كرار
##اث
قنديل
الس
الواضحة
الموا
الاعتبار
##ريضة
بدي
يامر
بالعربية
للاول
طبيعيا
تو
##ولي
القد
قيامه
المخط
##بتنا
##قدمة
الاحت
اخذ
تبدا
نرجو
##جلد
##افل
##بلة
الانط
نم
الحمد
ويلز
الغذاء
فك
الاطباء
اللب
المزيد
حنا
الهاد
اكسب
فضايل
اوز
قرية
##الفة
وكيفية
التفاعل
##صقة
وهكذا
لله
الوا
الدراسة
البعث
##انيه
والجيش
شريف
##حتنا
ايجاد
##بتهم
ثمان
وقرا
البركة
##اتم
ينتقد
##وله
معان
المحد
يرت
بارت
التذ
د
المعلوم
عينا
قد
عدوان
##خاير
انتظر
وحيد
تبرز
القول
الفل
تدبير
المجاز
المما
عالي
##اهما
اتي
عاشت
عبادي
##هه
التحميل
##ذاق
والنشاط
ببناء
مجاني
##تش
فوقع
اوقع
الحول
ك
الفتاوى
##طيل
المختص
والهم
بهن
##سمع
والرف
المالكية
الحضور
##امله
بمث
##ندا
مقطع
الدين
الفترة
رمي
تحتاج
التوافق
الاف
##طال
والحق
للعالم
##تداء
التكم
##غف
الصالح
مشج
ولهذا
وانته
لكونها
التمر
للمشروع
المتحدث
ظن
التحكم
عنان
واهل
العقود
الطاقة
انست
##فر
تمهيدا
استحداث
##كلم
الشراء
الغوطة
تبقى
حور
اعتمد
وانك
اجت
تجعل
المولود
##ضرر
حركة
##واكه
عيسى
عميق
بحق
ارو
سموه
الاقرب
منزلها
وعودة
نحب
يسير
للمت
لمجرد
ملاك
تحرم
##جدة
ب
العبور
الزمان
امراض
انحراف
رغب
##وازن
##ايه
متحرك
تاثير
لذوي
يراس
بابل
تحصيل
والتط
فدعا
القتل
انتهت
علمي
##ادقة
بالط
احتمالات
غيري
##صري
كام
والمرت
اعجبك
مقاربة
##طوي
عنكم
##خلل
##خدمة
سعى
رايه
##يدها
واذن
##شان
تريد
الحدي
##اد
ينسب
##غاني
ينكر
وتفاصيل
وعظم
##ريه
بنقل
الديون
حجرة
للدخول
مفهوم
بقتل
لغاية
بفتح
تش
وثلاثين
قيمته
##رتبة
ذم
منهاج
ادري
##ريفيا
##انق
والمعت
وفيها
فنية
كثافة
##جمال
##دير
ضخم
##شرين
السلك
استحق
يروى
الخنزير
مطبخ
##وعي
البعد
الاقدم
والبد
امرين
العن
تيمية
للعب
لتعليم
##افح
مثلي
الموذن
ادب
ومختلف
فانهم
شرطة
##قله
##اصة
الماضية
برجاء
مقاتل
المشر
وقم
ساق
الجنة
اصوات
الحلقة
##عرض
السك
##ناول
بالس
تشكل
يحسن
فانها
اخراج
بالقتل
المتصلة
المقاتلين
صلوات
##ساء
لشعب
الربط
##تصاب
##فاء
هرم
##احة
الخيانة
اعضايها
##رابا
معتدلة
##حونة
خلقت
خي
الاستغ
مشترين
شرقي
اثني
المشاهد
بالله
قار
الاصناف
مفيدة
للعد
شكري
بالتف
منصبه
لاو
الاهلي
المنتج
##رين
يعمل
واله
وبال
غيا
ايبي
فتفضل
المقدسي
وبخ
ادفع
تناول
وتعتبر
##مار
##انات
##ول
المقطع
للسوق
التفاول
##افا
يومنون
اقف
سماه
يا
نشهد
وفاع
المعلمين
والاعمال
##كوا
لير
الهجوم
تشهد
عادل
المنتخب
متعة
##ارعة
الصغر
التواب
##حمر
تضطر
المفتوحة
العدة
##رفا
يحزن
تخيل
موجود
وعاد
##ونات
النثر
الحقوق
##نام
الاجتماع
امري
وتتبع
قوم
##بوين
هلال
بخير
##بو
الزكاة
فظ
للمد
##رط
وسيلة
ناهيك
لنيل
التبريد
فحدث
التاني
جانب
بالد
الاوان
انقلاب
الخامسة
التغير
##زيمة
##بد
##احب
واتس
بالخروج
خطاب
##قا
المحاولة
المريض
متنوعة
وخمسين
##هدد
بين
الصخ
فرحة
##ظل
بهاء
لنشر
حكى
يعالج
متابعة
ويشارك
الصي
##اضى
##زج
القيمة
رخيصة
تمتع
سا
نظارة
المحلية
الذمة
والنساء
اقتصاد
ويدعو
##اتكم
العض
المعركة
يتلق
اتح
فكما
الخادم
سو
الناصر
تراك
ارس
المخ
معز
##ادل
والعشرون
المايية
الافكار
الفه
ردا
وقلت
المتنوعة
الالت
والاخر
خاني
كش
##حوا
الاعراف
بوسع
الليلة
##في
نصف
##عتين
##رفة
##وزع
##ترا
للاع
##وايي
سارة
##اريات
مهمة
##ضيء
المرة
##هلا
اكد
فهر
رتبة
كلامهم
التاخير
باخر
بتص
لاتس
وليا
##فو
عرس
المدرسة
##قدا
دو
كم
##مادة
اعتما
حكمه
وتغيير
##ايهم
الواع
##برغ
والمسرح
مسك
يرجع
##تي
اعض
الوثيقة
##يام
##رشد
##كري
سلبا
اتبع
ايجاب
ارش
كوك
اجنبية
تدفق
##ورج
لن
تصفح
خرو
##نها
والعل
انته
السي
هدم
##سب
غريب
فسخ
للف
ضعيفة
فعلية
روم
نفقات
استطيع
مشرف
##او
بالعلم
ونغ
الرفيق
##باء
الاثر
الروح
##جل
##ارير
يسمع
جسده
منهما
بغيره
مفردات
للتخ
الحنف
تتخ
ينطبق
القمر
فو
لسانه
قدما
ذراع
بصيغة
معرض
الرحمان
اربعة
يوسف
##وافي
واجتماع
مليكة
الاغراض
البلاط
##عيد
والجوال
التقدير
ومنح
##قايق
الايم
ودقة
القاه
بداية
##سوف
سوال
المدنية
عملا
##يبا
رحبت
##وج
لعلكم
لوقت
تجميع
تدمر
الك
دعا
توفير
الرسم
الصحيح
سبحان
الدوا
الاستحقاق
والرسم
واست
باجراء
والثالث
المني
مصمم
وتسجيل
بالقول
##فور
ذكاء
والفضة
حديثة
ثق
وقانون
##ربه
يتخذ
سكر
عمق
وسجل
فردا
عصري
تجاوزت
بلح
##خاء
عوف
الذيب
التصحيح
##قيقه
لتر
الاجزاء
##شيين
##ختار
##حقق
فراس
ضربت
درج
والنايب
##ارس
واستن
وبالله
زبد
تامين
الغفار
تبت
فالن
ومصر
توسيع
سريع
##روة
الرصد
نفخ
والجن
##سير
مستقبل
سام
باخبار
##ايزة
ذاتها
الضابط
##ركوا
والارشاد
عجيب
##جزاء
معت
نا
الاستعانة
للمرضى
تلك
##وضع
وتسبب
##ام
امراة
للع
ليها
والده
##فيها
تف
ذوات
قر
مالية
اختارت
فوز
##بل
يضر
المرت
بادي
##صرون
##روءة
انعقد
##هري
يلي
المشتركة
##خيرة
الفا
اتيت
اعدام
لتلقي
الالبان
بينهم
يستخدم
##صه
غاز
المهر
عرو
فقدان
نوا
المحبة
وو
##تحت
لقول
الحلو
##صلت
ننتظر
باه
لطب
واب
##جزة
بصحة
واسط
اعتذر
شرقا
ورواه
##ركان
##افية
##جا
التصميم
وفوايد
توخذ
عون
قلوبهم
صحبة
مجتمع
الامامية
##ليلا
للقيام
وتبلغ
صديقة
ووف
تاتي
##امين
##ثلث
وع
الداخلي
##داني
رياضة
تاجر
عطية
عشت
##كاك
وتميز
طارق
يرون
المنارة
للحرب
السعادة
بشيء
لعدد
الحضانة
للدين
مجمع
الابيض
كات
ونق
تاب
الولادة
##ونك
##نن
سنان
السيد
صيانة
لشروط
الامامي
الاد
البالغة
ض
ليا
##يمان
والحي
والطب
وجدنا
فارو
سلسلة
احق
محفو
بقضية
##ناع
واغ
فارغة
القسمة
##اشية
الى
الابل
كليات
ازواج
يون
كما
اجاز
اردت
تزوجت
البرد
استعداد
لخلق
الوصف
المقدسة
يدخل
عنف
تنفع
والست
##شف
ثبوت
##انيها
وفل
واعتماد
##اصرين
ماله
##وراة
هاهنا
اهلية
##اضلة
بالام
الاصول
الرييس
ينتفع
ونقلت
موسى
الرافعي
اف
القصور
الغضب
##ندق
وخمس
خس
التعلم
##عور
وصحبه
والرق
تبني
##در
الرمان
سرا
##اسمة
المهاج
الحر
##ساب
والنصف
وحول
الفس
المفوض
##سلو
##سها
فري
بالمعروف
ببن
اسعار
##كا
رفض
اقتحام
##جلت
##شري
##كتي
البايع
وصف
##اري
##قلة
تحل
الشعر
##فلات
##بالغين
المصريين
##ماه
انبي
المصاب
النفس
الاستهلاك
كده
الوع
النجاة
يب
الاستفادة
سه
كمية
الفرح
الزبير
ولم
استقبل
##ثي
يتم
##ظار
وفرق
الفار
##ضاءة
حذر
الرفاعي
لاب
الموردين
الاجنبي
بالمص
الامير
يدعى
واتهم
يش
المنطقة
##بوك
وسن
وجواب
القاموس
المصطفى
باحد
##قيق
مقنع
وعق
الخيال
تعم
ياب
بطرق
بحسب
هاني
##جية
بلدة
##رهيب
الثانى
رابع
##يانه
قدره
القبلية
حيز
مبدا
التقسيم
##علت
حجاب
جالسا
للاص
##اسا
بطي
واعلن
يتابع
نزار
صم
وتجهيز
حقايق
الماز
لطفي
##تمي
استغلال
استخدام
يخلف
##ابعين
داعيا
محفوظ
##ابهة
القوي
صفحة
##ثبيت
##تبع
رياح
كنب
الارصاد
مضيفه
تكرر
الحجة
الحضرمي
ساله
##شهر
ومحت
اقالة
عصر
سما
وتوقع
للتع
##ذا
عليه
اعطاه
تعدي
##خاص
##ملك
المسالة
هدي
النهاية
اقارب
وحفظ
عسكر
يحضر
لقمة
الامانة
المصورة
سورة
##مة
##جرد
ارضا
التح
العموم
الدرك
العدل
##حتين
الحس
##رقب
طه
هام
##يق
##برع
المثال
الاكت
الحفظ
الكه
ادوات
بركة
شاك
يعتمد
فلقد
الحسيني
مفصلة
فانت
##خن
الاطفال
باشراف
تتميز
##هادة
استعاد
وادي
فقرات
##لث
قاضي
صالحا
##نات
انت
مولاه
استخدامها
رحب
##صارى
احوال
الرابعة
للتن
ومعا
بزيادة
العدوان
التاسع
ويشير
شابا
##صنة
صلاحية
يستحب
السيرة
قطاع
الصالحة
يجيب
وثلاثة
عام
ناب
السقف
الجرحى
للافراد
وارسل
توسع
الاحزاب
الادم
##راها
حازم
والعامة
##ودة
##ادلة
الحوت
لديه
حاتم
##غل
ارم
تعل
راوا
##بور
العلاج
بوع
وبعدها
ينعكس
##حا
##غار
للمحافظة
بيد
حو
قابلة
اشهار
بلدي
##يسا
##عر
##ناها
العاج
الهرم
الشروع
وعلاج
كلب
جا
الجر
الموم
##طيب
##عب
جايز
كبيرا
نايب
##انيد
تنتقل
##ياش
تاخير
الحا
واللي
##رع
يهدد
الاسرى
##ياح
بعيدا
وابراهيم
##ضة
وتستمر
##يير
وتوجيه
المسماة
قصة
مسعدة
حلف
السهل
##تون
وتعالى
الحليم
التجهيز
##طلع
منطقي
لكن
##يجار
والعق
اساس
ومجلس
واجب
##بتون
تحد
المزارع
بالمال
##الص
سوار
##ساس
يار
الابن
ارادت
فانما
حيوي
صناعة
انهم
بصح
موافقة
المقيم
الحنيف
شمالي
تقديمه
مواقيت
محجوب
حنبل
##فقة
بالاسكندرية
ومول
المشار
عندهم
معاناة
##راعه
العجمي
يرد
##درية
##قيدة
##قبة
##سم
##سيق
القعدة
التضحية
ومهما
صحف
قيامك
باح
الروم
سلا
##ارتين
الاثار
##ياته
محج
كرب
لقي
عدت
الكنيسة
المحرك
انشد
##قاها
الير
المقابل
وفعلا
المنز
يخت
المراه
تعترف
ملام
ثمنا
الون
##رمان
والح
وكلمة
الشبان
بصرف
انسان
عرضه
والتم
رحمته
يثق
##صيحة
الوصية
الرحمة
##جمان
##اشرة
ويقول
وبص
يهتم
بشكل
العر
والتصوير
استقر
الذياب
زكاة
غضون
عدا
##رمى
وتجاوز
رجاله
##روحة
كاهل
والش
انتقلت
مقرر
انقاذ
المدافع
الصق
الوردي
السير
معبد
نظ
الافادة
احرص
است
تتبع
للامور
العبادة
لعل
ليف
يصاب
القانون
ومس
اريد
##باية
النافذة
سوالا
تبعد
الزيارة
يروج
جيش
الوزن
الجي
وتنز
مرحلة
المصارف
يديك
الفية
##هين
بالاعمال
##قف
للمدينة
والل
##بيوت
صرف
والسل
ازالة
بكون
نظيره
حري
جامع
شي
##لمان
##وجا
لابت
مضر
بنظر
##الما
##وعين
اولي
##ارث
فيو
الدوم
الرص
التعبير
الظل
استكمال
##ثى
الاشهر
دماء
البقرة
العادات
يدي
##اخير
يقومون
والمعرفة
##هى
##ريز
##فظ
المدة
والتش
ارتك
حسنى
اعتقل
واحدث
رخام
ركب
الملتحمة
##نتها
بمن
المط
##اينا
ارا
بينا
##اوز
مصد
للعراق
مبين
##شك
بمعنى
##ذير
السلطنة
كبيره
خطي
يتف
تقاتل
يدها
##حلل
بالتن
##ثم
لمنع
تطرح
يحتاجها
جزءا
عتبة
زوجها
تاخذ
##وها
##يدر
يستقبل
نطي
فجر
ستر
سيح
الغلام
##اضرة
لضبط
طلبك
سبر
بالتج
والقدرة
الفرات
يومها
##حول
حولها
متصلة
المشايخ
الزماني
ومش
انصرف
يروي
افتتح
وجرح
##حوم
##الاست
الماض
سميت
المواد
ووصل
##لاص
حفص
القدس
وجاءت
الورقة
العبيد
العمارة
##راهيم
فاك
صلى
فقبل
خطوة
المغلقة
معلن
اجهزه
##راحة
زيادة
مشايخ
تشهده
الشيطان
عاملا
##وجبه
##الح
ادلى
##وطن
المستعملة
عق
نفسها
الجناح
لشيء
عراق
امداد
يعود
قضية
يجري
##برد
##لل
عادي
##زقة
##كاف
المدخ
الشيخ
رايي
##رى
البطي
برض
##اجد
العو
راح
الرسل
كلا
الكاتب
الفساد
حملته
##ومية
وذكره
ضمت
بعب
النسي
لمزيد
استخدامه
اعمالهم
نقط
##واقع
##راقي
والتابعين
وطال
اليهود
للشراء
##لز
الدواء
والاشراف
##قة
للمحكمة
نجاة
تماما
الثمانية
يو
ودفع
ونزل
لتغ
للعل
تباع
لكنني
الوادي
القطر
العنب
لاف
اقوم
تشتهر
تقارب
تتغير
جنايات
ومنطقة
حرب
ادر
لتد
العب
وست
الاداء
##اعدة
##اسي
فيجب
المخرو
المبدا
##عداد
فاعلم
##وي
محمدا
اللوم
تلبية
صاد
بيم
مشابهة
طبقات
مرتبطة
ينصح
##خاري
وصرح
نقص
انبانا
والسعادة
قطب
عمرو
استثناء
مفتي
بنها
##شيم
##ايل
ثمانين
وقالوا
حبيش
السيا
##والت
صفات
جلال
هنالك
التوت
##وسعة
الزوال
##وفيت
ابوابها
يسال
يلتقي
غرف
##شع
حيال
الشرع
الدل
حذف
هيثم
##واهم
نملك
##بادرة
الاموي
زوال
##ويل
الطعن
ايمة
الجماع
اص
قو
النفط
الازرق
رويتها
##ايده
حصل
##شارة
حاز
##يمن
##امها
المرشد
الطف
وشبه
مدا
تحريك
##شعر
حمام
المتحرك
بلب
تضاف
الوها
##صوف
الورد
وسمع
##ولياء
##هاق
الوكيل
مشكل
الواحد
حصين
رباح
واهلها
الفراغ
يودي
ويجب
لامن
عثر
البند
##افة
الرزاق
##ايع
فر
سابقة
مخالف
الكلا
متق
ء
##ات
لال
المثق
تكتب
الخفيف
شيعة
هبوط
والمجتمع
والموث
واعلى
##مه
يفضل
وبالف
وينبغي
بالصوت
ضرورية
النحو
فول
تعب
جهات
وسب
##فاعل
تساعد
سور
منافذ
صه
بالقران
##وة
وامه
بتق
سيا
الشق
القرطبي
ارفع
يبرز
السودان
مركبة
هم
المركبات
##دران
اجتماعا
##كيف
باعلى
لاتحاد
جوانب
المصادر
##قى
##انيا
الجوزاء
الانتشار
الروايح
راجع
وتغير
مطال
التوحيد
المتفق
عندها
##جلة
##حن
الحربية
##زن
بامر
المال
ظاهره
بالم
والبحر
مجانا
اطلقها
طبيعي
القادمين
كور
اليق
مرج
##نب
قايمة
الجنايات
##ينا
وتوقف
##هاية
شرحه
##وراء
القطاع
يلزمه
##فعه
قيس
المشهور
باتباع
العفيف
خليط
بالاع
مشددة
اور
دونها
حكاية
##شرية
المعت
فرحا
وكانه
يلت
المعيار
##اطات
##غش
عدنان
##وبون
موارد
ممن
يوضع
وهيية
عميد
يتعدى
الاقاليم
وسط
##اص
ووص
السبيل
مسيول
لح
##وام
كافيا
كلامك
واسا
تروج
بحيرة
فذكره
بدم
فاخرج
تتح
استثنايية
العمالة
مشاهير
مري
الخضراء
تحدثنا
طلبنا
وحكى
يشكل
بمنا
##فرين
تعهد
ابنها
فيرج
##ريمة
الالم
الرك
لاح
المواطن
##غن
اسمك
ناصر
##ودع
حاض
الفارسية
قادرة
الليث
تذهب
##ليم
التسا
##اكيد
الماضي
شوا
له
الكرك
##ولا
التب
ببل
بهما
تعريف
بكسر
العزة
وسيا
يحن
بالاعت
##بغي
تناوله
##راش
الراهن
الفرض
ويريد
احتف
حش
سنه
القافلة
##الن
##تيجة
##لطة
##ثري
فس
بالاب
لانكا
جنون
الحمام
فه
##كله
شعبه
##طاط
ولد
المصن
يجمع
حجب
للتنظيف
المواقف
يجعل
##اسد
غ
رومان
السم
##عات
وخلال
##ثيان
عباد
تعاون
مشكلة
الكردي
بشهر
عظمة
للاست
محدث
حليف
محافظ
يفيد
خرجت
الاخر
الاخبار
الفارس
الاستيطان
الغبار
تصادم
بالقضاء
اثنان
القصص
الحاد
المحافظة
جهة
قسم
باستخدام
تكفا
حضرت
وازالة
##شهد
الاستدلال
طالبت
بتهمة
تروي
يعاقب
##سلسل
برفع
فساد
يحرك
بالخط
للمادة
##حتك
##ذل
الحوار
يخلو
مصعب
الاتصال
الثبات
##افى
لاخر
##ثمر
رمح
يرغب
احتياط
الاخرة
##عيها
##قاص
تد
تبلغ
المحلى
زيارة
درد
بالمدرسة
المفت
بصدد
الحزب
ثقة
محبي
الابراهيم
اخص
بجد
جوا
##صح
القبايل
فسر
لبناء
بالضم
حمار
شرا
زالت
الاستخ
يطل
##اديب
ظبي
##هاض
المترجم
اقراره
##نيها
مدم
اثنين
رود
الوجود
##ثيق
مبلغا
##ليون
ديوان
ونت
وعدد
##غر
المغ
لتط
##دود
ولل
##عدنا
عوده
واصول
رابعة
المنا
اخطا
##وانه
##مال
وانف
##وب
ويعود
##زول
وكفر
سعي
سيت
لمعرفة
سيع
الصحيحين
يعترض
تنز
ارتكاب
المستهلك
##ثني
الاختبار
الاخ
ليتمكن
المغرب
فطر
يرضى
فالي
العز
صلح
##يسور
المرم
النصارى
جدران
تعلمون
بلوغ
يشبه
##زاد
رواي
يستطيع
##ذوف
##صفح
الانتظار
الدرب
الوف
##ايتها
وذات
ملحوظ
الضرر
العقل
يتضمن
الامر
حياتهم
قضت
الحق
نبه
حضره
معاهد
حبيبة
##وليه
ساو
مترجم
رتب
اجتمعت
وفك
##يمين
موقعا
بيتك
رقص
الضغط
حيان
البعيد
##واتي
قايلا
طيب
صبي
خواتم
ايمانهم
##برى
المرا
تطالب
جعله
وسهل
الاسلامي
وتلك
##تعلم
التق
التقديم
التسجيل
جنيهات
واداء
هاج
السرية
الجاه
بالطبع
كتابا
وضرورة
##حص
نوك
##لكات
##غم
الحض
ذكرنا
لصناعة
##سيط
##فهم
##تع
حضرة
اضافية
##قبض
وعبد
قح
اوج
الدير
صوم
والحج
اوصل
سبي
واصحاب
المحفو
الاقل
النفوذ
ينبع
المستمرة
الصيني
جيدا
كتبت
شرعا
عذاب
صفحتها
للس
الرت
وثق
لوق
##ء
والتعبير
والمجالس
##رفت
عود
مظ
محلة
نود
وقود
ستة
الشرعي
عقيل
##ارى
بمدينة
درجات
والماء
##عمرو
والاس
فرسان
##ذر
باست
ومرة
اعظم
علينا
عال
الوقود
##اتيا
الاوراق
الغني
الاحداث
البين
الخض
الامثل
الزنا
عدو
##اجين
فوض
حشرات
ولكنني
بات
يعلن
##شيان
وقواعد
لاخ
اعتقد
ابتداء
##يتو
والذى
حال
الحسن
##فاوض
##وزة
لخ
الاحتيا
سرد
##ودو
مراقبة
وعود
المتب
ابدا
الاحسان
##ريد
ضغط
لق
وممن
تتوقع
غري
يساوي
عمد
مقد
بالحكم
فلن
اقر
تعاطي
العباس
تردد
المنطق
مواد
وصولها
المجه
اللج
##مح
##راعة
اختار
وشهد
موجه
وثبت
الدست
##اطرة
وجميع
الاحرف
وسيع
ريا
الجزيرة
الاصابة
لحقت
عبد
والخص
##طر
جراحه
فارت
الخوف
اربد
النهوض
نحاس
خالص
ربيعة
وبالت
##ايم
##وافق
نصل
افادت
الحسنى
الرقة
باري
##وما
##اوه
بدع
##حيين
محدد
موثوق
مايل
رسولا
كنع
ويع
بظ
وحك
ويص
وخاص
كيد
الزعيم
كث
بالقط
##ليني
اثرا
مجال
##عيدي
الاو
يصلون
##غيره
كريم
الفرعية
سحب
سيف
##اوية
يصعد
عقب
##ابيح
عريضة
المكتوب
##دينا
المطربة
التعليق
##ورا
ولاي
##يلم
يسود
الانبار
عاق
المقري
##زايد
المراسلة
اهداء
وغدا
تسقط
##تمة
بالمقارنة
صلاح
ازيد
قنا
##خف
دنيا
عادلة
مبد
الخارجة
لقوله
للتج
لص
واستمرار
والواقع
اللسان
القبل
ا
وكالة
اجلس
##رمي
تهييج
اسمع
لاز
الشرب
بعيد
عشرين
جماعات
رشح
مصيبة
للح
امامك
النظم
##ردة
بهم
الفقر
الدرداء
مذهب
##زى
بج
استاذ
معامل
النم
معالجة
فيجا
المقالة
الني
اخواني
##رينة
الاحتمالات
عذر
واربعين
##طان
##بي
##ياطي
حوله
المول
الديار
مميزا
معم
##اضافة
##قن
منقولة
يحيى
##سلم
ذكي
بالبا
جزر
ياس
##بعض
فعليك
للاف
الرواتب
حضرموت
يوفر
##ابد
احتكار
ثور
##كيا
بناء
التز
سهل
بطل
كيفية
##هران
##وحة
والخاص
داخلها
القصر
##اطي
تم
##ويج
بالتص
وسرعة
##يلة
خرجوا
صال
وصد
لعله
بتوزيع
والقمر
تعت
تاييد
الرحمن
ولها
##خيم
رجلا
الفرا
طاهر
ماء
وتخفيف
يلق
نعلم
اوجب
مراحل
ودون
##كاس
فيروز
كاز
والحسن
##ايات
##ربات
طاز
الهامة
الشافعي
بكير
بالتح
ديو
تعبيره
اضطر
الجرح
بوك
##وجر
##ريان
نصيب
المنفعة
انشا
ذا
بقليل
واض
##املين
مدني
والعمل
المبيعات
براك
ضيف
تتناول
الدار
##ظم
ملب
يتزوج
وام
الجبير
تسرب
شخصا
الدنيا
كند
عيب
لاط
التصنيف
المواهب
##راء
الخشب
اتضح
وبي
روعه
لونها
طاقة
نبات
التعطيل
السل
المرض
##فقه
التمسك
المايدة
ترشيح
تدل
الانفال
عندكم
باد
توت
##قلا
استقبلت
الره
المذكور
##ثمار
السبعة
عاد
دجاج
ورا
وقدمت
جاءت
ادخل
اقليم
والمري
رفضا
استرا
سعادة
بالطرق
وليلة
##مم
ليزر
فاما
والبي
قفز
##نتين
سواه
حبان
تضم
السجل
##ترط
تقل
المورخ
رياسة
جسد
استغفر
يفعل
يسمى
ومه
##راءة
##حدث
بالصحة
وعملت
وسلامه
التسمية
عدي
المشب
كميات
والخبر
البحر
ومعناه
البذور
##غت
نظرة
وصححه
بمختلف
بحمد
خارجة
سلعة
ضي
نادي
اربعين
##قيقة
مثال
العسكر
مقاطع
المعاصرة
رفضها
راسه
حشد
يفرض
ترت
بزم
التفكير
جذ
وتوفي
##بيري
##دى
يدعي
شهود
اللا
رويت
استمع
##ابه
سريعة
يسي
##ريكا
##اخلي
قتلت
صغيرة
قب
الفاكهة
الجد
شاف
القط
وهي
وتد
الشفاعة
فعل
هما
والمراد
حروف
شمل
##تال
هاجر
شيء
وامام
الشيوع
##كول
الهيكل
ويعت
ثلاثية
انثى
وباقي
بالشعر
والسي
عمن
معجزة
عاطف
المسك
قتال
##غلال
##اديث
زوار
خلق
نية
الفارسي
الذرية
##وفي
رابطة
تميز
عهده
مسار
والسيد
##مع
قطر
##طيين
##هل
حظ
مي
ومنها
عذ
اخ
##وتا
##ابك
تسور
عقار
##يسى
##ارضة
الخم
والسم
##كاري
عمه
العاشر
الرايحة
بشارة
روش
تنسى
قايما
##بقى
##ياب
##غرق
الشريعة
يناقش
يسر
واللبن
قدمتها
ظ
ابنة
نظرا
الاحصاء
الجنازة
الاحجار
ايت
تتف
يدك
فحص
خال
الفقرة
##قوق
الدمشقي
التوصل
العربي
جافا
والساب
خاد
##غ
تبيع
خلفه
المنظر
الابتد
العادلة
وتقبل
##قيام
الحيوانات
جثمان
الوضع
انتقال
علاقة
عياش
##سن
##عاقد
ايلي
ارضه
التقوى
الترم
##ليان
##وثق
##جيه
المختار
##اتب
ترفع
والمدينة
وظهرت
##غبة
توفي
##يعة
قبيلة
ورايت
فيح
الحقايق
وامر
لاعب
##حته
وبت
حقوق
داع
سرية
##ضار
برا
مدار
هبة
بنسبة
الاثاث
غي
تخاف
الخيول
اضيف
##امات
العطية
مصالح
فتنة
يرغبون
تكل
اعمار
ث
ينوي
الافعال
واضاف
يميز
بضرورة
والى
##شاف
##تد
والارض
الانع
المختلفة
يصلي
انى
باعتباره
فين
جثة
سيل
##وصف
##طط
الفارق
استطعت
والغير
وفي
ولعل
يدا
باتفاق
ورسوله
البغدادي
سعاد
هولاء
##ضي
نقطة
السيو
وعب
##عدت
الوار
التربية
يرحم
المضمون
تون
الطيور
يعجز
##اقط
##بيلي
ساع
صخرة
والتعب
مكتوم
وشركة
بالمقابل
ضريبة
##عم
بافضل
##بدال
التوسع
ممتاز
##شير
المعي
تقدمه
وعدم
قريب
خيوط
اوقف
وتف
نات
الخالق
اعيش
##از
##ازة
بالامر
##نتج
دع
واختار
اجمل
##تمد
زوج
والاحاديث
مشرو
خف
نحتاج
لغز
اثبات
الراي
يشرب
فنزل
والامن
##صلة
الفقراء
ناف
توظيف
نظافة
اياك
نزاع
تفعل
سبب
ترين
##اج
غيرها
اجمع
سويد
لحوم
والفي
التو
اوامر
التجارب
##ظروف
العقدة
الدفن
حديد
المعلومة
فنجان
ببغداد
##ارد
ويستمر
##انف
تق
للحو
عجوز
الحرارة
جاب
فلل
يتحول
واي
اكثرهم
عدل
جيم
القادم
وخاصة
##ظمة
لعموم
كورة
شخص
مضحكة
وشارك
الجنس
سلطان
الصفقة
لدى
##طيم
فمات
النيل
اتوا
##وقيت
وحضر
المرات
مص
اخبرني
##عث
لز
تذكرة
##زه
ذلك
##ريب
بمصر
وادخال
ايجابيا
الحصن
اصدقايه
السيل
المدفوعة
لاول
والعربية
والشف
دليل
كشفت
التمثيل
نورث
سواء
محال
لتوجيه
روضة
ورجال
بصورة
لسبب
الثنايية
تضمنت
يكسب
##ثوم
اث
الطاقات
##عوة
اسناده
##ينات
##تما
السعد
نمو
وين
المبالغة
##لنا
مقط
اسل
وسنة
لذا
فله
##جار
بروية
لانه
##اق
اليز
العقبات
خبره
##وفية
السلة
مب
##ية
##يتان
للاتصال
للما
وقفة
اوس
انعكاس
دعوته
ملحقات
سوي
العميقة
القصد
##حمد
اليكم
اجراها
وتحليل
فتقول
الزفاف
الضحاك
مستعمل
التحكيم
الجو
نخرج
اعط
بف
##ادهم
عمالة
تعقد
##وقت
الفتن
الصعوبة
يتمثل
##بنى
اللهم
##اليب
ثمرة
انبا
##لاش
وصلى
غلام
معلق
##اتين
تعميم
القى
مكانها
واث
للكتاب
عد
لتس
تناولها
##شرون
تتمتع
مميز
##الته
صفة
مكت
للو
##سمية
ويل
##وتها
يسمح
مضح
لوك
##يفة
الانشاء
بذل
القبض
الترابية
##بتة
قمت
قرض
منذ
وضوح
كلمات
البطار
ثم
ضا
بحيث
والاسود
اليتيم
لبيان
السبع
بسمة
##زال
فعلوا
النصب
النزاع
اليه
الوقف
الكلمات
للنقل
ابيه
ومك
##لع
الاستد
ميقات
يعشق
يتحدث
صح
ايمان
الخليط
برن
قلبي
الزنج
وصاحب
##يزية
##عه
##يدات
عكس
وزيادة
الدراهم
غز
##بورا
يتجاوز
تشي
للنظر
امامي
##صية
الاحرار
ولفت
مسحوق
العجب
##ايض
سناب
##زمين
##ديت
وتعمل
خدم
داي
##هض
مت
##لاي
لاتمام
الجادة
الخبرة
جمع
المفقود
ملي
وثالث
الفاظ
يط
عظم
الاغنياء
##ونهم
لحكم
نخ
المعل
والان
وحدثنا
##وبها
يمر
بمح
القمح
تتفق
المحذوفة
المجيد
التخلف
فوقها
السنة
##ضاء
لصاحب
ليه
السلبي
تنال
تنفي
##كرين
##ق
بحكم
المم
مجاهد
احدهما
دعم
##رفات
يحذر
##هور
الزوجة
حقه
ارتفاع
اسكن
وبما
ووضعه
العقول
عز
##حيق
##وحى
يمكن
سلف
اتفقت
حبه
بروح
##رقا
مرع
اخلاق
حيدر
الترخيص
والمسي
ويعتبر
لعد
شهور
العيادة
##زلة
النحل
النشرة
حوش
والمش
المعدن
كيمي
يحتاج
خاصية
يحظر
##الج
واستخدام
سيلت
الصلب
لمدة
الانتهاء
البش
الظلم
الارضي
المامون
الذكور
تخصص
ثابتة
مطل
الطرفان
ويح
موب
##اخرة
##بود
وثمانين
الاغلب
اضخم
##فا
اعترض
وان
سطح
وبينه
##اط
تنم
ناح
##ومها
للبي
بني
##مق
المرف
وكلام
##صر
##صي
حي
نقول
التما
حقيقية
فهناك
للتعليم
القايم
ولما
##رول
##يزات
عطل
براي
التحويل
نعتقد
النبيين
##وبين
الوجد
المشروعات
##راه
حدودها
اضاف
العبودية
طفلا
الخ
##لافة
تعطيل
موضع
##مي
راسا
ام
ومما
الصف
##ستين
##بح
##نان
التت
ونور
##داب
##وحات
جوده
اجم
اطلق
الشبلي
طري
الشرف
وجدة
روايته
##فوف
واتحاد
##هاب
وتمت
مكل
الحبر
وخصوصا
الدم
تقدما
المطلب
يبحث
الصيفي
بذلك
##جاج
قي
مرتب
والاربع
خيار
تفسيره
نبت
ورغم
##تمت
طلحة
بيته
ويلت
ثقيل
المسند
للعرب
اجله
##هان
##ت
والظاهر
الممل
ذكية
الحمر
لعم
مصرع
اط
##وفا
اضف
جامعة
الصعب
عزة
دانا
راى
معجم
##بدع
خم
البقعة
وزي
لزيادة
##ه
باردة
ماري
##ارتي
ثان
الانساب
جدول
طوال
##ايله
##راضي
اياها
العبادات
##ويت
زلزال
##بش
الميل
فيكم
نقف
لفضيلة
الزبيدي
صديقه
مشاع
المغني
##باد
شهادات
التع
بالاز
##ريجا
الصيانة
طمرة
##برية
##ليز
يستفيد
تراكم
الزجاج
وفرض
الدب
تغيب
والسفر
اقل
البسط
معظمها
الاخوة
وتعد
تربط
المطاعم
فاعلة
الثواب
يدع
عوضا
الهزيمة
الو
##بحر
وعملوا
وفن
عاجلة
تعطي
وعليك
يصل
العذ
ويفضل
يعلى
الاحتمال
##جيلا
البراء
لند
تجهيز
##يات
لقراءة
يتبع
##كون
ضبط
موقعها
سبحانه
والاعت
تصرف
##ايحة
##فيا
وتوكد
المطلق
##ابى
##هوم
الخياطة
مزايا
##رجاع
لعمر
حاشية
##ونية
##رج
والاربعة
قمنا
غلاف
اضرار
##ذرا
امي
منظ
يطلب
يزداد
الجواب
##خا
الهدية
##به
المنورة
ابنايهم
##بك
ادعاء
غنم
الكراهية
البعض
الوسطى
النسبة
داس
تبذل
##تهن
صاب
المفرق
##رر
تمرد
داير
عددهم
##ايج
##سي
مرافق
صاحبة
طبيب
تعويض
الكهف
وقب
ابيض
اتفاقا
باحسان
لنت
حرا
خلاف
جعلت
يومن
العملة
الاب
وكيل
يعنى
حيات
سماك
ردت
##ربين
مجالس
##باره
خوض
##بر
الضحايا
##ريخ
سعيد
##رات
القبيلة
مسافة
قرا
ولذا
اخلاء
يشير
حكمها
لطف
بمقت
الداخلة
##رايي
وضد
مخد
ايش
يسكن
تكفي
ظهور
##عتبر
##طلحات
اخذت
للعين
بذات
الوسط
الافت
الازواج
##امد
للمح
عبر
استعمال
فد
ميا
المير
الدولي
لاتخاذ
بكلام
الطلاق
ضرب
وخارج
##يتك
للاخت
الانفاق
الاستغناء
بالارض
طف
القضايا
##ظي
##ذج
صاف
الاستمتاع
الذي
احدكم
ياق
##سخ
والن
تي
القف
وخصوص
##ولو
صدره
##نيا
؟
ادي
واحترام
عا
##وطو
ايقاع
باقل
كلثوم
تسال
اتخاذ
وقط
فيهم
هذي
الاك
##يلان
ومطبخ
ملاح
##نيد
نوه
قواعد
مجد
واجبات
تعظيم
المتوكل
نست
تعيين
##فال
تاثيرا
للشعر
التاجر
قصد
بممارسة
مبنية
بمصالح
مشيرا
بالعراق
امنة
##صت
صاحب
##كني
غل
المعروفة
والاش
لاجي
وبه
التعامل
لاعبين
فتت
طيران
كونه
المناسبة
ردة
المثالي
اجتماع
احتمال
الدور
نوعه
منزل
وعنه
الفرو
اليمين
الضرورة
##اعرة
يضاف
الجماعة
النبوي
ايا
دانيال
وراح
بشرح
باستمرار
تاه
الحمل
الموج
مهما
افكار
##اكمة
##اياه
##شيش
##يطان
يقود
هول
المخلوق
والاربعون
عسى
##ماية
يشجع
##بى
البدل
نوف
حكيم
لواء
الاجانب
##فيين
توبي
كتاب
يمد
اتهام
تحريرها
انتقل
المسرح
تحسين
تت
البرك
للك
##فيك
الزراعة
اليمنى
حمية
##جدات
لافت
##هيري
##صى
وامن
حاضرة
الهام
ادم
السني
فران
##طم
اعاده
تتضمن
اعطى
الرجاء
##فاهم
##بيك
الشيباني
##سيل
##ذاكرة
ففي
نقي
بسورة
الوضوء
اشترى
##عير
اختر
##اذب
المسلمون
اقيم
شفر
تيسير
والتحليل
واين
صدم
الاعمال
##بيد
البلدان
للاخ
الحامل
نسعى
راب
غام
برم
##صيبة
اعز
الديب
نحن
وقرى
شعرك
تعلق
##ارب
##طلق
كلام
##راب
تفيد
تتس
ابتكار
وقته
##سام
واتخاذ
بدليل
الموازين
بغرض
المذهب
اهلك
مشاهد
تشهدها
واعداد
نبا
المحر
##لكم
ارتباط
بتناول
##اطة
لتلك
فيات
وفاته
##جهز
المدنيين
وزراء
شهدت
ومض
الهاشم
##بلات
اللوز
اعمارهم
الامومة
##وجي
فاض
خلاصة
بانتظار
##فاوت
الفتوى
المشرو
بجوار
بالذات
لاحق
لاستقبال
اقوى
ووصف
عارية
##باو
وثيقة
##لف
الاحتجاج
متجدد
الاشجار
الاخص
للطي
وترتيب
للاسف
اباء
المعسكر
مايدة
وانما
المستقيم
المستب
الخمر
بشارع
##عبان
الترب
نسايي
توفيق
نار
تمل
##ابرة
خطير
صحراء
##باض
احرار
يتعرض
والهجين
##صرح
للاب
##سامح
يعقد
لمرض
زيت
يفرق
##جرات
بض
الموقتة
الشرح
تربي
##لمين
انقذ
##امس
عليا
السفن
##يرن
قولهم
الدمع
سواحل
##بب
بالشركة
السود
فكم
يضمن
نصير
نظر
ريف
يختلف
العوالي
يتجزا
وسبل
البيان
الاصليين
العفو
لكشف
بقوة
اللازم
اضط
الداعية
فقير
ادرك
المرجو
والمم
فرج
تخدم
بحلول
الخطب
بالطريقة
ويرفع
البنت
للمزيد
الامارة
اراضي
##ديين
يهد
مشر
الفقهاء
##ان
##وليت
والب
##طره
طيبة
الفريق
حلي
اللات
حكومة
العينين
يرحمه
ثياب
العرف
##فاد
توقف
الثم
##عودي
الباطن
جرحى
المسب
##كر
##صرا
خاض
التغلب
لارت
ووفق
ارف
وبان
اورا
ومد
##اثرا
تص
وحينيذ
البني
والمو
مجدي
فلو
وقوله
##مانينة
علبة
ايط
وافت
افراح
الخبير
سن
الترجي
المسي
##ادية
يقولوا
عبارة
يندرج
الكتيبة
المستقبل
الداعي
ينشا
احصل
استلام
والدعاء
بالكثير
الاصحاب
الفورية
حالات
الشارح
##تني
واظ
##شار
ارط
##ذرة
وعلوم
باليد
##وطة
الكوفي
الصالحات
للصح
وفد
كانون
اتس
فوكل
مظهر
##رجي
الفريقين
الاكس
والعناية
عملها
وسعد
جمعها
وطنه
اجمعين
استعماله
للوطن
##سنت
الذرة
تقطيع
##اى
##فة
البدع
ومرا
##يمر
بالج
دامت
قليلة
ميز
بالالت
ميلا
بلدنا
##هادي
ساري
وتحمل
##ديهم
اصلي
بمنزلة
##بطة
بمسجد
النشاط
الص
ويز
مصادرة
##ايب
##منا
##ريح
تتق
##امت
##قام
وبج
دايرة
اراء
تهم
وجرى
##ورهم
يقت
واخبار
سمي
يقاتل
والنهار
خطر
الاصنام
حديثا
لاعبا
الوحشي
بمست
المبت
##رجال
العسل
##صرها
وجلس
يطول
ووسط
##بيرا
##واكب
للخط
جميلا
لايت
الموض
الدعاية
للتد
وفس
فورد
نهب
الجع
للامن
الرخام
ولهم
تحضر
الثامنة
والخدمة
ليست
##شة
مواسم
الدن
##ذاذ
تعثر
غد
التمكين
تعود
فض
صافي
بحثا
العي
بست
لمست
نطق
##رها
##سر
مومنة
العشر
باث
فلاش
حرارة
امينة
المضادة
التم
للقضاء
زيتون
منك
الرومي
امته
بركاته
سره
والجد
##ظيف
بدء
خاطية
الباطل
بالاث
##امش
##اصب
ومثال
تشاء
شبرا
للزي
##ده
بت
الروضة
قف
ولديه
##صدق
جرح
الجارية
رابط
##شروا
ضمنها
متاع
شاطي
اشترك
ورف
تحرير
قرط
وتش
مدى
وتقول
ارك
##وانب
التحذير
واظهار
خصومات
كوي
متميزة
وفاء
ويظهر
العاشرة
الشيب
لكثرة
ارتكب
##اشي
اوقفت
تحم
وشر
الخلي
تنبيه
اختصارا
##رعة
عياض
تعجب
بمجلس
البن
اجل
والض
##ريغ
وضعها
الظاهرة
##خت
##وق
ولي
فيمكن
يول
اخطر
المنار
الحقيقة
##قديم
لمكان
ليلا
المفتي
السهولة
واحمد
لحين
غفور
اشبه
الفصل
عضوا
للطالب
ملء
##اءة
##ز
باتا
ينقطع
الصباح
السفلي
##خان
جراحات
يغ
الف
كوز
المواجهة
##ردون
والشع
فلا
نومن
الاليات
##ايلة
الابنية
اخف
الصالحين
المنكر
##شد
للتف
بيتي
الاسدي
اطلاقه
لعن
عارف
انفسهم
##وسان
اعلي
امكن
وحرية
مسن
والشر
قهوة
والمتابعة
يملا
المقربين
##غيرها
##الط
زمزم
##سبه
تختلف
##ابعة
الرهب
كوت
وصل
الحياء
اكراه
مكث
والزراعة
عارضة
ويسعى
خطوات
جنين
بشركة
شراي
الرهن
والنسايي
خزان
الوظايف
الملاك
المكي
##بلي
منظر
##رايض
الحبس
##دام
##هاء
طاري
ههنا
الامت
وسيط
##وان
امين
استخدم
##طون
التعب
الط
الرمضاني
للفق
المراهقة
استفسار
##راعي
زعيم
للفل
##شتري
فقالت
##روا
شفاء
بدخول
الحذر
ناد
نسال
نزع
يرتدي
بديلا
##سيب
وموا
بور
وذلك
المكس
حيوان
طبي
امارة
انعم
اذن
##التين
الامتحان
العالمين
الوريد
##طة
السري
صحيفة
كلم
النعم
ميون
اضعاف
الجس
##يوم
##ايفي
لتك
باعتبارها
تعق
الجاني
منهن
##لج
ناج
السجود
##يتا
قرب
المرضى
البريد
##مد
اقدام
الحاكم
الملقب
وضعت
وخرج
با
رغ
##وابق
بايات
بيش
تربية
بلعب
والمف
الاقرار
ونز
عزاء
ساخ
لب
##وعد
الصح
##وافقة
محدودة
غني
مفر
الكلم
ضع
عمود
لاستكمال
##بدو
انشيت
##شاد
##ريا
تودى
اليس
تصدر
نك
شهاب
بطلب
عربية
اوصى
وبحث
##جة
##طول
عزم
القضاة
الماكولات
مبار
الموروث
##وكا
##ازل
##تف
ثقيلة
وسوق
الضيق
فقرة
الكندي
##احه
اقره
باية
موج
نقرا
والكر
لاك
الق
فجاء
ايدي
المصرى
بماء
ومات
ومستقبل
يجعلك
##زيين
البل
موضوع
وتع
نع
تغني
اقامتها
المعنيين
الصن
##قوم
تقي
النظافة
بوز
ه
وبقي
##هلية
الصليب
بصنع
لصيانة
البره
الميز
امرنا
ذر
حزينة
الوعي
المتحركة
##فتها
معاش
النية
غلب
كاذبة
المنع
والمراة
جيب
الزوجية
تتنا
مرغ
الرفع
##لاق
البتة
مية
##ضى
##همات
تقتضي
##خفيف
والك
##وطا
يتعلق
دارت
قط
حاضر
اجريت
ويج
##نه
##عتر
صن
للادارة
صعيد
##اجرة
والار
##مثل
حتي
الخس
الاجن
##بع
المربع
النفاق
عامل
##قذ
وراء
الفقيه
انتشر
خبز
##وجات
بالتد
ورم
فل
العظام
البطالة
طريقه
توصل
غرض
ومز
يوخذ
##جلي
الجوال
استراحة
وبحسب
مزاج
الجبهة
المست
تفرق
##اغ
بالمد
فعلي
##ادين
تحريم
والشم
مخال
وعلينا
اوقية
والاذ
لوح
الهضم
##اقم
فيرجى
قايد
التكفير
قبلكم
بانهم
خصص
وطرق
بالمناسبة
ثلث
الباقر
فراى
ينظرون
تميزت
ينتهك
قلنا
##قق
المالية
##ارن
الاشخاص
الذنوب
##مل
##زرة
##رجة
تشغل
اطراف
الرياضة
الحالات
يستعد
معاذ
مقولة
الضحية
ثمة
يصنع
##فاف
##حه
يستعمل
بن
برو
وبيع
نعد
التعارف
الرجلين
مسلما
سر
تمثل
مطالبات
تختص
والرعاية
السكر
تجاوز
##يرة
العجم
##شو
عاج
الخليل
##سارة
##دب
خلل
يحمل
وانزل
كلنا
قالت
وتسعى
والخارج
##بوب
المصطلح
وخط
رس
عج
اخوة
##اقب
شهرين
##لون
يبطل
ويعد
##وامع
##شيخ
الحلفاء
صرت
مكروه
ببيان
##قدين
الوكالة
بخل
واور
نفع
الحمار
الشبهات
وسلم
بلسان
##واد
زنج
اسعاف
الاديان
القيامة
واختلف
##لكية
وحيث
او
مهم
ربا
منكم
الريال
وشكر
اوليك
##رعى
ينس
##وتة
فايض
الجاف
لكم
بوجود
واستمرت
خداع
الصع
بالبل
اعماله
الموسم
ادناه
اول
##وفيق
وزوجته
##ضرب
لموضوع
باسناد
ميقاتي
الفرس
عما
محرمة
هامش
طاعة
استرداد
تلقت
هاك
يست
نقله
طلع
##وجه
##وايه
##طالب
نفسي
اطفاء
تحدث
الفروع
والبل
الاعل
سمحت
جنا
جزي
وانخفاض
ومت
##ولينك
ستاير
##ترك
والحركة
الخفيفة
##سلط
البسيط
عنيف
اتاه
##حور
##مط
كوبر
##قين
##وضة
بريدة
وذكرت
الحزم
الحوادث
##ريط
الاصلية
عادى
##ترات
التام
المحاكم
##عبير
مختص
اصلها
برسول
##اين
والفلك
##والهم
بحديث
الخالد
اللحم
يخلق
طالبا
نسيت
##كل
للرجل
قال
المعاملات
التوضيح
##لقى
تتوقف
ليج
لنفس
عنهما
جما
فرن
##المون
##صرى
##ناح
هدية
الثلاثين
رايت
بالدين
موجودة
الغن
مناطق
قاط
##ارنة
الاسع
##طفاء
بكشف
عقلي
الاتية
الاقليم
لاحت
##افيين
زوجتي
الاعتقاد
##ستر
##نين
##راع
حدثني
ادارة
وقال
جد
الحديقة
##يفا
شهاد
مصنف
##واهر
طبخ
والشعب
##رتين
وماية
##لمات
بالطايف
يبدا
##عبد
مسد
##متهم
لتن
##اسم
طرح
بالسحر
هده
رابعا
استم
القرشي
والامام
##عله
ابين
ضد
متفاوت
الفيت
مناسبا
حرام
ليسوا
ختم
تكمل
مار
الرايع
والراي
الامرين
فذلك
##قاة
اهتم
الاوقاف
احالة
وكسر
موسم
ملكية
واليات
##بيان
يقلل
##ادمة
تكسير
##بس
تقديرا
هاشم
ثالث
حسن
واكد
مزارع
شاه
تهذيب
الوس
##شور
فعالة
##انين
المقت
انفق
نقوم
المس
اخبر
مشددا
##ازان
القس
مكرر
الجدي
##د
الموقف
الاستمرار
##واحل
ولوج
يكره
تتحرك
الارواح
نفوذ
##ديد
مرجع
كه
يتصل
قاموا
الاماكن
خشبة
وانظر
كاين
##قرر
##فس
البستان
##وهم
تمن
يتب
##سفة
ينهي
ادار
لسكان
ينظم
نفت
الحقيقي
##رز
والبناء
الجيل
مصور
والتب
عموم
المنصب
##لوب
والاستمتاع
للشي
كاست
وليست
العشرة
فبال
عبور
المتم
مسند
انقر
اقتص
رجال
مستقلة
الجلد
الصخرة
الممكنة
##ريات
مخصصة
يتميز
لرفع
الال
##غير
يشار
##ذى
الافضل
فود
قراءة
تقر
اقت
الباحث
فيهن
##ميم
الشامل
للعلوم
واحكام
مطروح
ستف
##قالات
##شوف
متع
اللواء
لى
خطرا
خسر
##خالد
باي
طالت
##تو
ادايها
تعديل
امتحان
انق
ترشح
مثلث
جر
فضلا
##خي
ليلى
الصفوف
غياب
السا
ورقة
وابت
لحفظ
مريم
بالز
يقدمه
تقتصر
فانه
##شين
الشع
##كورة
يقر
##لن
##وند
السوء
مثير
البشير
العلمي
والاعتماد
حصوله
##يدا
##دن
المريية
تنافس
بالض
##ريين
سنين
يشارك
عين
اتم
فت
فاصبح
اعتراض
ابيات
سهولة
ابني
ازم
محافظة
موضحة
ينسى
الانسب
الصريح
فاح
لهم
##شقي
حاول
خياط
ظفر
تكس
##الحة
وضبط
عراقي
التاب
والاكت
المباشرة
رويته
ابان
بزيت
المرج
واضع
بتعديل
تحدب
واقوى
انقطع
الاطلاق
بالضبط
يوافق
جلب
فكل
الجوهر
القرعة
الذهبي
التاثير
والتف
م
الامم
لحل
فلانا
المتقدم
شاء
بكثير
##قلال
مطلق
تول
ووعد
ولكنهم
كلفة
##ث
اوا
بالبيت
اطفال
##يط
##ياض
فنون
البيعة
قبض
الاساس
##ظور
تاو
مخزن
غسان
تسهل
انطلاق
تتم
لمجلس
عددا
الشقيقة
وتحقيق
##ولاء
##صيد
##قتان
تفويض
##ملة
بقد
##الل
شتى
المصدر
كلامه
وهب
##ليمة
الشرط
الطبع
##ورث
غس
الثروة
ادركت
وبينما
العروس
التها
##تم
النضال
ممكنة
بالدار
لمعاينة
وتجديد
حمله
مونت
محاور
وحلف
كفر
بالمع
المتجر
##سمة
تناسب
##ناس
الحالي
##قتين
رفقة
##سيان
الاحترام
والطرق
##خفض
الاحرام
جميعهم
متى
يقدمها
يمضي
المزد
##قية
##اذا
تعز
الشورى
اجمالي
الفيض
##بة
مقرا
المخاوف
المستن
منف
تموت
##وشة
السحر
وعل
##ورته
##ادا
الدماء
ذهاب
حقي
المكث
##خة
تمه
للخبر
باقية
حلها
المعم
دريم
حسين
##يله
فهذا
التقرير
##اطف
##را
حتى
قليل
الخص
البع
الصادق
الكل
لاخذ
##با
نظرنا
الاعجاب
السياق
##بوت
متضمنة
النظر
وخص
##ونت
##سل
العبارات
وتوفير
متب
معرفة
بالايمان
الصلح
تحس
يفنه
اتصل
كنز
احس
شع
بصي
يفقد
غلي
كبار
رحيم
حاص
نشتري
حلوة
##وضح
الارض
اخرج
اسوة
مبنى
الرابطة
والمنا
سمو
دفعة
جوهر
تسعة
تدير
شط
الفقيد
المتق
الخبراء
المتف
##امي
يتعين
تعط
زوجة
فرو
الايتم
فوالله
الواجبات
##جهة
المرجع
بس
ايداع
ابيها
##يانا
زوجك
##قس
اسس
للاسرة
##راسة
القيس
انتبه
را
سياتي
النيران
متاكدا
البرج
اسير
المشرفة
وسعيد
##خرا
والتح
الزل
جهنم
مسلم
والترمذي
النعمان
التوبة
افتتحت
يحيط
وصية
اعرب
##زوي
رضي
##بت
##ورية
حجة
للض
تسع
الحصة
المياه
قوما
تار
الصار
الاموال
##ياة
متعددة
عنده
مقبولة
##روك
بالمنزل
براس
ووض
الصراط
##ستو
واضافت
##انم
##كمة
##لاب
جيدة
بواس
فرز
##ركه
فا
اداب
المرحوم
فايدة
##ربة
##اير
الزيت
الانعام
##ريك
نصر
لباس
دخوله
مربع
وزين
الباق
##عيون
الية
فرش
##يدي
للم
والاخ
بلدية
##وظيف
##دوا
السيف
وتاثير
نفذت
الشغل
##غوي
مستودع
عطف
و
مهد
##وتي
والوصول
الع
جعلها
استون
العوا
البدء
الحقيقية
تسمية
اعد
التامين
ويصبح
اهمها
يخاطب
ماجد
##صفور
وضوء
الغش
الهواء
الغاز
الارسال
الث
السج
جنازة
##نفذ
السواحل
الشم
##افظ
واول
احي
املا
المقررة
وحث
فالح
يوميذ
متش
احتاج
اعلم
فخامة
ببط
نهارا
##اطب
##زي
واسع
تخصيص
ابت
بحري
##حام
سلمى
الرفيع
يطلق
##ليغ
ملابس
وظ
يريد
واصحابه
حاجب
##يلاء
##ومين
الناقلة
##سيارة
وتحدث
##رفع
مترا
المهاجرين
كيت
تام
تصلح
ياف
بتن
امك
فاتى
ايصال
تند
احتفظ
بيانه
معين
وتراجع
الغالب
انطلقت
تبادل
كفى
طم
يسهل
باطلاق
المحب
##حاب
##لتهم
##احن
مفع
استح
بخط
فتيات
الكثيرون
##ثير
مناز
زيارته
التبليغ
دار
وارد
شباب
بلاط
وزير
ملكة
الساحل
يليه
كلمة
بالماء
انض
##غاء
ويس
اجتماعه
شيوخ
نذر
##اريخ
تراجع
الجدار
اوراق
المحتل
ولكل
الزه
تغلق
التض
لمص
وبحضور
جرم
بولو
شهري
##كير
ولش
حركات
ارسلنا
مدخل
اعتذار
علي
نسب
الشهري
##رضة
يكون
المكلف
اي
الملاعب
الجدل
وجهها
فراش
##لمه
علق
نصت
وباس
مستقر
##لاس
الشت
##يري
داخله
حقق
وهما
##لت
المالكي
المعجم
##وافر
تفر
قدرته
الصل
##دل
##غون
مصل
مخرو
##ضاعف
##غداد
##ذرت
مولود
انو
نوع
ببعض
##وقة
معلم
الاعت
##داء
بخص
توحيد
اخفاء
وفر
الالف
##ريطة
##داك
شرعية
بصراحة
يتردد
نتج
الشايعة
يبكي
المخلص
كيما
##علين
غاض
سند
##شام
الولايات
##وبة
زار
سف
تتحول
والاحداث
##قدات
اطلاق
مسكن
الشرقي
##قامة
ومثل
الاجل
اصر
##اريا
بعمل
والفق
متصل
توي
##ارم
الكفايات
واصبح
وبات
تودي
شجرة
الارتباط
ينطوي
الجوزي
منطقة
مختلفا
تسيير
##ىء
##فلان
الانص
تلوث
ظاهر
الواقعة
لالت
##بادل
##ضعف
فيجي
المجهول
عدالة
الدوري
الواقع
السكون
##قوا
للسفر
##اطين
##راي
مناظر
للاعضاء
والامر
##رابي
المكر
بالاخت
جدوى
تمسك
تراف
غريبة
متصرف
سواد
المعدل
حسبما
حينها
وليام
ساكنة
بصور
الموجودين
الدرجات
الباني
حافة
##بدا
للمق
توق
مخالفة
الطبخ
بجمال
التصديق
انتظام
##الجة
والر
##بية
فم
##رفية
##خذة
الدايرة
بحياة
والبح
صحية
اع
##بيت
اسهم
والجودة
واضحا
##اليا
موتمرا
ورع
بدمشق
##وهام
##ندس
والسلام
خن
ليش
##الق
الوحدات
شكلها
مبر
القطط
معناها
وشعب
سفينة
الراج
الجيران
زادت
ونصف
جمادى
ينتظرون
##ارك
وكل
الموجود
وياتي
وسام
فكرة
البطل
ووضعت
التاليف
ملاعب
يحق
خليل
المتعامل
طرحه
نواحي
العود
لاص
طال
مرف
باستعمال
ولكني
المنط
##واي
عشرون
باله
مخالفا
وته
##ورخ
اختي
يمثل
للكن
اشهد
يحتاجون
ويستخدم
عمر
البلاد
مستقيم
##فها
##ذف
ماكو
رواد
الاجمالي
خلاص
##نق
بالاغ
مك
يجد
##يتكم
المقط
##تماع
##وغ
تنقل
ت
المعصية
فسي
منزله
يغطي
وجزر
دب
وتعلم
ضحية
لاحقا
##قول
##جعل
صعود
المرح
سماء
وم
##روري
##صرم
##ياد
الجملة
الاهل
واحي
شن
ناس
##بارية
يطبق
ماد
نجح
##انيين
خلالها
##صاف
الفوري
##منى
##رفين
##عها
خالف
الرباط
ولع
المعدنية
اه
يفوق
زاوية
فما
موتم
المدني
لكان
حلم
الخفية
المراة
الفو
النور
ونحوه
كد
وموضوع
لعدم
صاحبه
يخدم
##ولها
الفضاء
جنسية
الثاني
##ضج
الشبكة
ابطال
نصا
##فعول
لاحظ
##امعة
صاح
كار
##سيم
نشرها
والسلوك
الاسف
##اضل
النبوية
مقام
ناز
الدايم
الثوب
المفاصل
المرسوم
##شر
بالحج
تباعا
البدن
الافطار
حواء
الرافضة
##اجر
السنن
المرفق
العس
الافاق
##ابي
##اعية
##قدت
عملهم
العاد
صل
بفت
##ضمنة
##ورات
موجودا
##بث
##ابعات
وسم
وفيه
يرك
المنق
الجندي
تجنب
اذهب
مناط
امم
قناع
##رود
المبارك
##رسول
قطعة
##روم
صفية
الحارثي
##قرا
قوى
والفر
وقول
##هيد
للشعب
##وقع
اعتق
شقه
بول
توف
بلا
ومط
الدعوى
الاعتذار
رويا
يهم
ويك
عقل
##بنا
مخل
غطاء
غذ
النيابة
ش
سيرة
فالم
محاربة
اخذها
ونقد
مولاي
##الت
السكن
بيج
##بيها
حض
المنخفض
فرق
##اقس
تجب
للحكم
##ضان
اتصالا
تحمل
خشب
حمل
بنا
الشبه
##برم
والفساد
##صص
ات
المتنا
ضيقة
ينتج
اير
كليب
الاعرابي
##يده
وكلما
يجبر
ظفرة
للحج
الديانات
فعن
متناول
مبلغ
حميدة
توزيعها
وفعل
الصعيد
ادع
قضى
يبني
الثابتة
لمساعدة
بلده
عشرية
الاولي
انشط
سلطنة
يغلب
##ارو
##ثار
الطهارة
والاسلام
##عاية
تهيية
الثالثة
ادوار
##دون
شعرها
بكرة
مميزه
واك
التعليم
شكرا
##لاع
العم
وقطر
والحض
بما
للعمل
للنساء
زلت
##وسط
الاستش
وعرف
عزل
الظاهر
اقبال
##فري
المصلي
##ايمان
شايعة
للاخبار
##قد
الانصاري
يوفق
التلق
##قع
القرية
الاختصاص
والغ
سكانها
للرياضة
هادي
احتياج
##وره
##صالح
##ريقه
بالعكس
الضمانات
نصيحة
روز
للن
الوهاب
النايب
مهارة
نساء
والقبول
والمستقبل
فكذلك
##هاجر
قل
وابل
وعلي
والذي
قبول
##لاقي
ضيفه
وتقديم
بمقد
صحته
غض
##كي
بطريق
النفوس
عوا
التاسيس
##ضمام
##رجل
عنزة
قلت
باب
اخذوا
فعليه
فضل
##باح
الاستقبال
##تها
لطيفة
تبديل
اثارة
تجده
ستع
النواحي
تقديره
الحصول
الخصوص
متاخرة
بالاشتراك
الشهير
لامر
الكبد
وانت
اسراييلي
المحلل
##وركا
المدر
اشهر
وقوع
عقدا
بشرى
##علك
##اه
وطريقة
باعادة
فرد
النضر
سلط
والا
##وى
المش
والمكان
الاجابة
##لانية
راضي
والبحث
معارف
##جموع
##ريبة
التعيين
##طاير
ينادي
##مرت
اخاه
تعرف
غادر
كوا
فدخل
روى
فرس
##ستمر
مرم
ميدان
الجواز
كمب
##قها
تنظر
صابر
##ذهب
السابقين
##صرين
البلدين
الخدمة
روايع
فرضت
احمر
عندك
##ركاته
مليية
اترك
التخفيف
اليقظة
تضع
تراس
بصف
##عارف
الموضوعة
اللغوي
##فون
التقريب
بمش
التسعين
##الاب
##ادنا
اصول
اعضاء
بعضكم
##كال
##يافة
العادية
المراقبة
الوراق
الفجر
الاسناد
اج
ابرز
الراهنة
عبدك
##الام
للرا
مقاومة
##بعد
تخلي
بعينه
امرت
##يية
يعاد
بيوت
البلدة
حاضرا
تثق
مجم
تعلمت
براء
وح
مرو
بالخبر
تهمة
ينتهي
مظل
الرعاية
اق
لايم
بارتفاع
##ابن
الاعتراف
الخن
والقران
##الو
لشراء
غالب
بالاتصال
لقسم
عيني
##لفة
ويحمل
التحديث
تصديق
اذى
الاكل
يان
الموك
الاصفر
لتش
ويمنع
درع
زبان
تزويد
الحما
##ضييق
سلة
##اتى
وعاء
ولاة
واف
##داقة
هند
اللفظية
المحاس
الكال
يقف
العادي
ابنتها
الح
معهما
وبينهم
نالت
واخلاق
واهم
##ريض
##عى
##ص
اموالهم
##راجع
ذاكر
نايبا
وارسال
تزايد
الياب
ولفظ
ورسم
المخصص
القح
تات
طلوع
تبنى
الشهيرة
تجد
##طب
##عال
##خصة
##كن
الصادرة
بب
المسم
والعراق
##انته
رخص
##طلة
الفر
وترت
ساف
المتكررة
الوالد
##واجب
اعطاء
##ايق
##ستاني
##يدين
لدي
عمرة
وابو
##والى
نسم
اثنتين
يكاد
ملكي
المها
ميل
خصصت
جوال
جنوب
روات
لذكر
واحدة
توك
##ثناء
داف
لور
##له
فهد
تلت
##لاينا
##سط
##جود
سبت
رج
مصلحة
الريح
وطي
عامر
باسمه
وحق
غلط
الروية
##فيل
انه
نها
الخراب
ارتفع
##برات
منال
يرضي
يهودي
التسامح
بشار
البرية
ليتم
حينما
##اكهة
ولت
##وصل
تاكيد
##ديب
مشاركتها
الاص
امتداد
المباشر
تظ
##قيها
منقول
##ظافر
شاي
الغداء
اللتين
الصندوق
للي
ويوكد
يعرفها
للكثير
دواء
##عادة
خلت
##ونين
##فرد
تحقق
البخ
امال
الارهاب
محمول
تاث
القياسي
نن
القماش
احتجاج
مصري
الالتح
والشعراء
##نم
سلام
والفقر
##زعة
الناس
ميلان
بوصفها
##الاد
ويغفر
وعين
والاطفال
##ملت
##تهد
نضع
##ينها
والصل
نبدا
الحادي
اعياد
يكونون
كج
##قوبة
السعر
اختراع
##تدون
وروى
توجه
##كانية
والامان
الكروم
##اتف
قادرين
الزق
##اكا
##وسف
المعمول
مسا
تزوج
بمكان
وصول
##راجعة
معص
حاج
الحصر
##ب
فاع
##كوك
اتش
اسوان
العمران
روية
خفية
ضيق
البس
غزيرة
رحم
ساحة
الدو
##ادثة
المصنوعة
شخصي
يات
جب
##ابقة
##اصر
##وكالة
بتك
تاثر
التصريح
بارسال
يكفي
##عدام
بمت
يرمي
##زق
جماع
##اخر
وصلات
لابن
العطار
مطعم
يصير
المبار
##سا
##بج
##اهم
التقديرات
عقدت
والنصارى
جث
باخ
##زنة
التحرك
داخل
سايق
##ضاة
الامراء
محدود
الخضوع
بالسل
##سلين
##ازن
##وكيل
والقد
نوح
الامس
المطالبة
قليلا
والقيام
##تمع
والجنس
تكفل
مصطفى
##تز
الاستيناف
دورا
ناش
##باه
##ريعة
##بيدي
المسجد
مصاريف
دخلت
ومسلم
كله
دفعت
للحياة
المرو
التسم
##يدون
##داع
منها
##قيقية
وحدات
يسب
##لفل
لار
وكف
لي
يحتل
الصحاح
العابدين
التعم
الكواكب
##يران
هواء
بارك
بنفس
شيون
النصف
بنحو
سج
تقبل
وفاة
##انج
ضروري
النادر
كثيرة
تتصل
##شيا
##ظف
دخولها
##اض
##اتهم
انتباه
يوكد
##قر
بالحضور
نحو
استفتاء
##ولود
##فيت
لحظة
##هود
الجهات
يصف
##باني
الطايف
العسكريين
فكري
اسراييل
المشرع
##زيل
الكي
بينة
##وارث
التزام
يمين
اتفاق
المجالس
ادراج
##ظى
يقع
شعبان
اجماع
الفحم
##افر
##افع
الاثناء
##وز
تجار
اللقاء
والاهتمام
##دعي
دعوى
القاب
يكونوا
##وفو
##الوا
قطع
كذلك
وبناء
معقل
الصناعات
##عوذ
لوي
الغس
والتعليمية
##ايمين
مستهل
والهر
الطاعة
وكيف
الانقل
تبحث
للحل
##رجوع
العلمية
عساكر
التعذيب
تتجه
اتصال
##كته
منبر
باختصار
خصي
يستخدمها
فقدت
تعداد
##وقل
##غله
المصل
حزام
طلبا
##واطي
المحتاجين
##واس
تحققت
تجري
##صات
سنية
بجمع
ده
يلحق
القراءات
##هية
مراعاة
القران
الوارث
وباع
اس
رام
##غور
##ذ
ذهبت
ودخلت
صحيح
بند
وطل
للوقت
التلاعب
##اهدة
استط
الموثرة
اغلقت
بسيطا
يبذل
يتحدثون
##رجت
قلبه
اللين
تحتاجه
شاكر
موحد
##ديس
والكتاب
الماس
رجع
تسلم
قضاة
ورج
بلاي
##دد
##نعة
كوكب
بتاريخ
عملي
واجعل
شذ
رسوم
##سوق
البط
##ابة
الملونة
اري
الزرع
القصاص
وا
اسماعيل
يقتل
يدرك
##ابير
##يول
##كى
العامين
اشر
المكتوبة
لابد
اشعار
ظلم
اليهودية
للار
والقب
معلقا
تل
يدين
والاسم
مقالا
الرويا
عقاب
للمج
بمشروع
حمد
##فيز
الطريقة
النسب
ظريف
تعا
تركه
نعيم
##جبه
المن
##يها
الاضرار
مجرب
خار
حزبه
##بتها
بالسلاح
اطعمة
بقضاء
التفصيل
حبا
قدس
##بوط
بالشر
مغربية
الصفة
بتخ
##هاي
##ورم
##اديه
اعود
تولي
##اخ
المعتادة
الاكتفاء
لكون
قذ
معلوم
وهبي
الارضية
الطيبة
انفاق
ديار
##راف
كامله
حميد
شيت
##جابة
##طه
غموض
وانط
الشكر
البلاي
##وزيع
قلة
##اطع
المستقلة
بتف
خان
لانت
##قون
الاله
زد
باقي
المستقل
يتقبل
يلا
بدول
الفتح
الادب
##قتهم
السلا
النو
##وفل
للانسان
الغربة
دونه
##هدة
تفس
الحظ
ينطلق
اسقف
##ضه
ويحت
يومه
موخرا
##رمين
ديننا
دورة
يتحقق
خلط
تصحيح
وورد
##لامي
يعجب
سرير
##ايد
واستقبل
التحول
تجديد
سيدي
يمكنني
وترى
حرص
الكباير
قتادة
##يمي
توقع
الخام
##اهرة
السعيد
جس
اقناع
بخم
البشر
##جوا
الاتهام
اتجه
والاي
فرصة
الات
##سه
بحي
الاسكان
وقيام
اسف
امراته
الوقوع
المعلمة
الناقة
الممن
وشهدت
معانات
لمثل
الجايزة
لافتا
بخلاف
القوم
##جيبة
##شكل
تحيط
##ينج
رغم
يتلقى
الخلافة
منش
نتاج
جبل
##وكم
بالما
رشد
المبادرة
الشيء
بالدور
جميلة
##نيست
لمنت
كمثل
يحوي
عدن
صعب
جيران
للدم
انفسكم
معاقبة
احداث
شبيب
##ابع
الانبا
الحاجات
عجايب
مشترك
##هاج
القرض
##ثنى
##روفة
##ناق
انفجار
فكلما
احتم
مشهورة
##جون
ضاحية
لبني
سفر
اناس
ويعرض
##سمان
الشيخين
الصنا
توفيت
##هورية
##غام
##لمي
وسع
##غرة
##يلات
فال
العمود
تركيب
وزاد
السرقة
باط
وكذا
##بيي
الجوار
والاد
مطلقا
وايام
##خمة
جو
##كاي
المرب
الاشراف
##ريكي
##اهن
##ناية
الحديدة
##كم
يحرم
المرور
علماء
##ضع
كاتب
سني
ترتيبه
الخوار
الاستبداد
باقامة
لتجاوز
تير
اخيرا
للجيش
وبس
تصف
##رام
المتعاقد
يشترون
يحصل
اثرها
دموع
مسم
لكثير
للمواقع
دفعه
كاي
بان
ماسك
وابا
السليمة
وبار
لعلهم
ميثاق
الخلية
منفر
ديك
فيك
عسل
وجمال
##كب
يفتتح
الخميس
الهدايا
واولاده
العلا
بالات
##ضم
مهامه
واشار
الخريطة
تقويم
ونساء
المنظومة
##تت
##باراة
ذكرى
##رض
ضرر
قبره
نض
##جيم
فج
ثبت
حصة
بقصر
اله
موحدة
##بال
للخارج
الاستقلال
تفصيل
العقلي
وممارسة
خلقه
والولايات
راية
جواد
فقال
وفقا
يحبه
##يقية
وتعت
##بالغ
##عج
##بيحة
الصادقة
نوعها
لبث
جبير
طريقها
##وجها
الولد
شىء
الاسلوب
ماسة
مفه
سيخ
للته
الاعظم
##وين
الفهم
الطبقة
سمعه
حساب
الرعب
يتمنى
تعرض
جنس
يك
الشا
شاملة
##ضرم
الحاجة
##ظ
البد
توجهت
##ادرة
الفخر
##ابلية
##واميس
لهولاء
ختام
صالحة
المجموع
ومنا
السرا
قايدا
وابرز
قدير
##دس
تمي
والبيهقي
منط
يسمي
قرى
جريدة
مصر
رضوان
اوي
##حاني
المسيح
##رخاء
تقليل
نجيب
والاخرى
الامل
خلطة
تخالف
ثانى
مشا
البشرية
لسي
العادة
ونن
الشافعية
المتاجر
دجن
المسافر
الفرسان
واحسن
##ابل
##رنج
الاض
بالبحث
##ثاء
واق
المتح
التراب
تنشر
نظمت
يصدر
حوا
عقيد
الشجاعة
متهمين
معينة
النقر
عقدة
وشدد
الفول
ثلاثا
صريحا
السح
اللحظة
سيره
باذنه
قدرا
ومشروع
دخول
اللذين
كتابة
##ونها
دعوة
##ايلا
ومج
##ادق
